<unk>	0
<s>	0
</s>	0
▁the	-3.13669
.	-3.25492
,	-3.33859
s	-3.83476
▁to	-3.83971
▁of	-3.89643
▁a	-3.9408
▁in	-4.01745
▁and	-4.08132
'	-4.46622
-	-4.73819
▁	-4.79715
▁said	-4.85667
▁for	-4.95594
▁on	-4.97216
▁The	-4.98618
▁that	-4.99153
▁"	-5.03811
ing	-5.04025
▁is	-5.15615
▁was	-5.24412
ed	-5.24801
▁with	-5.33806
▁at	-5.5496
▁by	-5.57802
▁from	-5.59725
▁it	-5.6036
▁as	-5.62941
▁has	-5.64933
▁be	-5.67324
▁his	-5.69732
▁have	-5.73296
▁he	-5.75366
▁will	-5.8097
▁an	-5.81944
▁are	-5.85882
,"	-5.8899
▁were	-5.9533
▁not	-6.051
▁who	-6.08182
t	-6.13318
▁had	-6.17782
▁been	-6.21654
▁after	-6.22847
S	-6.24771
▁U	-6.26552
▁their	-6.30388
▁Korea	-6.31637
▁but	-6.31767
▁they	-6.31944
)	-6.32069
▁its	-6.32277
...	-6.33761
▁about	-6.37707
▁people	-6.37775
▁this	-6.40136
▁more	-6.40622
▁A	-6.41672
▁(	-6.42993
▁which	-6.43685
"	-6.43937
ly	-6.46046
▁two	-6.47035
▁would	-6.49922
d	-6.51468
▁or	-6.54789
▁her	-6.55328
▁up	-6.5704
▁government	-6.57321
▁one	-6.58548
▁also	-6.58805
▁than	-6.6018
y	-6.64704
▁out	-6.66588
▁other	-6.68338
▁I	-6.69374
▁over	-6.71327
▁North	-6.73248
e	-6.73556
▁first	-6.75026
▁year	-6.75604
▁last	-6.75772
▁into	-6.81267
▁she	-6.82824
▁when	-6.83095
▁In	-6.88505
▁told	-6.888
▁President	-6.8908
▁South	-6.89788
▁new	-6.91589
▁we	-6.91785
▁He	-6.92829
▁years	-6.92843
▁percent	-6.95587
▁all	-6.96822
▁police	-6.97622
▁time	-6.99118
▁can	-7.03896
▁United	-7.04053
▁Korean	-7.05823
▁could	-7.05937
m	-7.10645
▁some	-7.11098
▁But	-7.11204
▁Monday	-7.11318
:	-7.12597
▁says	-7.12717
▁Iraq	-7.12942
▁country	-7.13526
▁Tuesday	-7.14533
▁Obama	-7.14541
▁you	-7.14653
▁there	-7.15043
▁no	-7.15728
▁It	-7.15769
I	-7.17073
▁them	-7.17892
▁officials	-7.18065
▁three	-7.18805
▁military	-7.19112
▁according	-7.20887
n	-7.21893
▁Wednesday	-7.22045
er	-7.22275
al	-7.22947
▁million	-7.23214
▁S	-7.23276
The	-7.25681
."	-7.26736
▁before	-7.26877
▁Sunday	-7.27273
▁against	-7.28324
CNN	-7.29396
▁where	-7.30761
▁week	-7.311
▁China	-7.3113
▁nuclear	-7.31357
▁world	-7.31961
▁say	-7.32592
▁Bush	-7.32923
▁what	-7.33692
a	-7.33746
▁since	-7.34796
▁killed	-7.3542
year	-7.35831
▁him	-7.35914
▁Thursday	-7.35915
▁reported	-7.36033
▁“	-7.36171
▁if	-7.38012
re	-7.38441
▁States	-7.38753
▁because	-7.39468
▁New	-7.397
▁between	-7.40239
▁down	-7.41116
▁state	-7.41339
▁just	-7.41559
’	-7.41689
during	-7.42228
▁only	-7.42241
▁now	-7.42365
▁off	-7.42699
▁being	-7.4356
▁made	-7.44
▁most	-7.4457
▁so	-7.44996
▁official	-7.46112
old	-7.48868
▁day	-7.49565
▁back	-7.50448
▁former	-7.51432
▁under	-7.5165
▁including	-7.52545
We	-7.55228
▁Lee	-7.56254
▁while	-7.56279
▁president	-7.56789
o	-7.57423
▁do	-7.57641
▁through	-7.57811
?	-7.58144
▁like	-7.58195
▁statement	-7.5844
▁month	-7.60863
▁many	-7.61316
▁home	-7.61695
▁group	-7.61976
▁called	-7.62263
▁any	-7.6267
▁CNN	-7.63082
▁spokesman	-7.64134
▁won	-7.64752
▁found	-7.65691
▁city	-7.66569
▁next	-7.6715
▁talks	-7.67211
▁get	-7.67412
th	-7.67437
▁take	-7.67504
▁four	-7.67545
▁D	-7.68162
▁days	-7.68614
▁may	-7.68747
▁news	-7.69257
▁Japan	-7.69395
▁part	-7.69733
▁reports	-7.69742
▁our	-7.70491
▁National	-7.71182
▁report	-7.71555
▁troops	-7.71618
▁make	-7.71806
▁security	-7.72125
▁Minister	-7.72839
▁second	-7.73169
▁six	-7.73718
▁around	-7.74054
▁10	-7.75193
▁help	-7.75848
¡	-7.76049
▁five	-7.76156
▁still	-7.76227
▁end	-7.76448
▁least	-7.76507
▁such	-7.77165
i	-7.77264
▁́s	-7.77606
▁likely	-7.77825
▁man	-7.78099
▁those	-7.78395
▁US	-7.79388
▁work	-7.81663
▁American	-7.81772
▁aid	-7.82184
▁Seoul	-7.82479
▁set	-7.82755
▁leader	-7.83375
▁``	-7.83471
▁high	-7.83756
▁war	-7.83849
▁G	-7.84316
▁al	-7.84709
▁party	-7.85533
▁top	-7.8568
▁how	-7.85711
▁Clinton	-7.86009
▁company	-7.86108
▁way	-7.87252
▁billion	-7.87344
▁House	-7.88609
▁saying	-7.88685
▁did	-7.89071
.”	-7.89217
▁should	-7.90317
▁long	-7.90356
▁expected	-7.90891
▁well	-7.91073
in	-7.91172
es	-7.91397
▁'	-7.92277
It	-7.92431
▁Saturday	-7.92597
▁They	-7.92849
▁attack	-7.93033
▁presidential	-7.9315
▁Friday	-7.93578
▁children	-7.93578
▁number	-7.93665
▁British	-7.93696
▁very	-7.94349
p	-7.94742
▁public	-7.95098
▁another	-7.95599
▁died	-7.9575
▁T	-7.95814
▁Washington	-7.96282
▁York	-7.96388
▁...	-7.96445
▁forces	-7.9736
▁months	-7.97861
▁countries	-7.9788
▁members	-7.98578
▁then	-7.9875
▁Hong	-7.98813
▁go	-7.98815
▁look	-7.99455
▁host	-7.9964
▁Chinese	-7.99889
▁used	-7.99997
▁going	-8.00079
▁early	-8.00464
▁came	-8.0049
▁near	-8.00651
▁meeting	-8.00907
r	-8.0093
▁political	-8.01993
▁Iraqi	-8.02793
▁much	-8.02861
▁took	-8.02867
▁Michael	-8.03234
▁family	-8.03602
▁Iran	-8.03982
▁even	-8.04484
▁office	-8.04532
;	-8.04701
▁ago	-8.0491
▁site	-8.04939
▁Party	-8.05079
▁African	-8.051
▁think	-8.05803
▁un	-8.0587
▁international	-8.06293
ve	-8.06385
▁Kong	-8.06466
▁Kim	-8.06954
▁death	-8.07098
▁announced	-8.07239
▁both	-8.07552
▁left	-8.07564
▁campaign	-8.07574
▁my	-8.07779
▁She	-8.08123
▁capital	-8.08315
▁C	-8.08815
▁women	-8.09003
N	-8.09148
▁several	-8.09265
▁economic	-8.09527
▁Ban	-8.09842
▁And	-8.10126
▁team	-8.10149
▁night	-8.10214
▁later	-8.10453
▁same	-8.1149
▁John	-8.1177
▁support	-8.11817
▁want	-8.1216
▁good	-8.12172
▁World	-8.12694
▁life	-8.12708
▁court	-8.13023
▁power	-8.13117
▁show	-8.13171
▁plan	-8.13207
▁held	-8.13542
▁head	-8.13677
▁men	-8.13888
▁among	-8.14314
▁see	-8.1438
▁election	-8.14999
▁recent	-8.15253
▁know	-8.15302
▁national	-8.15332
▁nation	-8.15515
▁civil	-8.15539
▁Democratic	-8.15561
▁yesterday	-8.15823
▁use	-8.16696
▁past	-8.16763
▁program	-8.17036
▁financial	-8.17366
▁place	-8.17533
to	-8.1758
▁cash	-8.17922
▁takes	-8.18216
▁put	-8.18252
▁Ministry	-8.18488
▁minister	-8.18763
▁double	-8.18767
▁deal	-8.18853
▁flu	-8.19101
▁Police	-8.19209
▁Prime	-8.19213
▁Pakistan	-8.19452
▁Taliban	-8.19508
▁chief	-8.19539
▁20	-8.1964
▁economy	-8.19924
▁major	-8.19927
▁released	-8.20341
▁authorities	-8.20354
▁area	-8.20654
le	-8.20809
▁car	-8.21583
▁shift	-8.21812
▁leaders	-8.22041
▁Jackson	-8.22255
▁case	-8.22342
▁come	-8.22729
te	-8.23095
▁earlier	-8.23293
whether	-8.23306
▁your	-8.23555
▁media	-8.23709
▁foreign	-8.23718
▁Kenya	-8.24419
en	-8.24778
▁right	-8.24791
▁debut	-8.25252
▁money	-8.25403
an	-8.25638
▁taken	-8.26011
▁State	-8.26192
until	-8.26482
▁McCain	-8.26636
▁local	-8.26662
▁fire	-8.26766
▁promise	-8.26827
▁reduced	-8.27018
▁Roh	-8.27254
▁agency	-8.27558
▁White	-8.2773
▁opposition	-8.27892
▁explain	-8.27928
▁half	-8.28065
▁without	-8.28086
▁E	-8.28438
ers	-8.28627
▁hours	-8.28631
▁market	-8.28726
▁don	-8.28737
ll	-8.29007
▁become	-8.29294
▁late	-8.29388
▁Women	-8.29454
/	-8.2956
▁already	-8.29921
▁Japanese	-8.30113
▁attacks	-8.30148
▁hit	-8.30285
▁best	-8.30358
▁close	-8.30598
▁win	-8.30612
▁visit	-8.30923
▁Afghanistan	-8.31047
▁morning	-8.31069
▁give	-8.31132
▁oil	-8.31206
”	-8.314
▁W	-8.31577
▁""	-8.3169
▁health	-8.31721
▁play	-8.31758
▁̄	-8.32154
▁away	-8.32636
▁began	-8.32689
▁move	-8.32847
1	-8.32913
▁sets	-8.32921
▁At	-8.33093
u	-8.33653
▁system	-8.33664
▁issue	-8.33795
▁plans	-8.33801
▁University	-8.33986
▁Fl	-8.33989
▁law	-8.34134
▁Press	-8.34156
▁third	-8.351
▁miles	-8.35136
▁own	-8.35274
-20	-8.35499
▁return	-8.35732
A	-8.3582
▁CD	-8.35831
▁me	-8.36086
▁Web	-8.36117
raft	-8.36157
▁Susan	-8.36679
▁Beijing	-8.36855
▁On	-8.36997
▁decision	-8.37283
▁need	-8.37291
▁Ama	-8.37301
▁forecaster	-8.37315
▁release	-8.37666
▁thwart	-8.37879
▁along	-8.38047
▁across	-8.38051
▁cage	-8.38053
▁Israel	-8.381
ic	-8.38452
▁water	-8.38743
▁Fly	-8.38892
▁workers	-8.39041
▁That	-8.39067
▁few	-8.39547
▁servants	-8.3966
▁Sen	-8.39838
▁30	-8.39946
▁orphanage	-8.39971
▁Barack	-8.40163
▁European	-8.40166
▁nearly	-8.40203
▁each	-8.40503
▁these	-8.40553
▁Living	-8.40679
▁brunt	-8.40856
bearing	-8.409
▁lead	-8.41
▁dead	-8.41064
▁Glove	-8.41391
▁region	-8.41689
▁French	-8.41738
▁Songdo	-8.4175
▁climat	-8.41809
▁arrested	-8.41852
▁p	-8.41956
▁main	-8.42105
on	-8.4215
▁prep	-8.42283
▁Boyle	-8.4229
▁elepha	-8.42469
▁meetin	-8.42475
▁face	-8.42609
taking	-8.42668
▁school	-8.429
c	-8.42936
▁London	-8.43019
▁weeks	-8.4302
akey	-8.43072
▁vote	-8.43242
▁Department	-8.43742
▁known	-8.43748
▁business	-8.43887
▁woman	-8.43956
▁Secretary	-8.44293
▁Times	-8.44549
able	-8.44665
▁town	-8.4468
▁-	-8.4474
▁agreement	-8.44932
▁us	-8.45088
▁Russia	-8.45155
▁There	-8.45783
▁human	-8.45895
▁conference	-8.45962
▁seen	-8.46064
▁others	-8.46201
g	-8.46285
▁11	-8.46535
▁today	-8.47071
▁weapons	-8.47344
▁H	-8.47353
▁15	-8.47729
▁Israeli	-8.47783
▁added	-8.47954
▁soldiers	-8.48402
▁violence	-8.48435
▁far	-8.48765
l	-8.48826
▁An	-8.48887
▁big	-8.49022
▁administration	-8.49194
▁might	-8.49388
▁killing	-8.49444
▁California	-8.49605
▁Britain	-8.49781
▁agreed	-8.50192
▁making	-8.5023
▁house	-8.50316
▁January	-8.50373
▁Baghdad	-8.50373
▁3	-8.5041
▁record	-8.50806
▁space	-8.50962
▁militants	-8.51187
▁12	-8.51208
▁hospital	-8.51366
▁prices	-8.5143
▁points	-8.51538
▁following	-8.51708
▁International	-8.51746
▁went	-8.51822
▁global	-8.51991
▁crisis	-8.52136
▁asked	-8.52495
▁Internet	-8.5274
▁́	-8.52795
▁This	-8.52804
▁change	-8.52868
▁large	-8.52883
▁trying	-8.52946
▁start	-8.5331
▁small	-8.53466
▁eight	-8.53557
▁free	-8.53936
▁information	-8.54155
▁final	-8.54227
▁students	-8.54287
▁re	-8.54442
▁outside	-8.54613
▁southern	-8.54966
b	-8.55243
▁Pyongyang	-8.55391
▁rights	-8.55405
▁France	-8.55478
▁force	-8.5558
▁One	-8.55616
▁50	-8.55742
▁side	-8.55964
▁investigation	-8.56344
▁key	-8.56481
▁believe	-8.56644
▁here	-8.57059
▁food	-8.57208
▁keep	-8.57504
▁film	-8.57935
▁1	-8.57955
▁working	-8.57991
▁province	-8.58077
▁study	-8.58273
▁every	-8.58382
C	-8.58484
▁again	-8.58485
▁charges	-8.58488
▁body	-8.58564
▁must	-8.58948
▁Foreign	-8.59142
▁”	-8.59143
▁video	-8.59581
▁accused	-8.59704
▁never	-8.60023
the	-8.60071
2	-8.6018
▁air	-8.60329
▁companies	-8.60431
▁possible	-8.60435
▁got	-8.6053
▁seven	-8.60631
▁run	-8.6089
▁control	-8.60903
▁bank	-8.6099
▁name	-8.60999
▁ahead	-8.61235
▁largest	-8.61243
▁led	-8.61309
▁June	-8.61317
▁find	-8.61344
sh	-8.61535
▁May	-8.6173
▁toward	-8.61791
▁Associat	-8.61941
▁allow	-8.61962
▁clear	-8.62183
▁Palestinian	-8.62261
▁gas	-8.62451
▁director	-8.62503
▁Al	-8.62521
▁cut	-8.62624
▁America	-8.6279
▁interview	-8.62808
▁less	-8.63014
ra	-8.63055
▁hand	-8.63196
▁general	-8.63232
h	-8.63292
▁July	-8.63308
▁game	-8.63585
▁As	-8.6395
▁March	-8.63986
▁bring	-8.64003
▁England	-8.64625
▁little	-8.64861
▁latest	-8.64878
▁5	-8.64936
▁due	-8.65037
▁race	-8.65434
▁showed	-8.65504
▁building	-8.6551
▁continue	-8.65539
▁100	-8.65835
▁groups	-8.66096
▁candidate	-8.66138
▁within	-8.6655
▁senior	-8.66677
▁Gaza	-8.66685
▁thousands	-8.66718
▁2	-8.6688
▁We	-8.67069
▁service	-8.67081
▁Congress	-8.67128
▁weekend	-8.67147
▁September	-8.67391
▁central	-8.67619
▁reporters	-8.67714
▁AP	-8.67872
▁too	-8.68892
▁Afghan	-8.69235
▁anti	-8.69241
▁Some	-8.69364
▁peace	-8.69483
▁George	-8.69502
man	-8.69625
▁further	-8.69951
▁Bank	-8.70012
▁member	-8.70091
▁Europe	-8.70179
▁better	-8.70215
▁prime	-8.70259
▁point	-8.70402
▁live	-8.7042
▁minutes	-8.70488
▁send	-8.70498
▁really	-8.70567
or	-8.70582
▁person	-8.70647
▁elections	-8.70814
▁bomb	-8.71104
▁ruling	-8.71147
ary	-8.71287
▁stop	-8.71683
▁line	-8.71746
▁de	-8.71752
▁Russian	-8.71774
▁emergency	-8.71884
▁David	-8.71893
▁efforts	-8.7196
▁After	-8.722
▁shot	-8.72443
▁border	-8.72506
▁father	-8.72602
▁confirmed	-8.72605
▁December	-8.72607
com	-8.72816
▁B	-8.72856
▁future	-8.72902
▁call	-8.72967
▁lost	-8.73108
▁role	-8.73407
▁meet	-8.73408
▁northern	-8.73588
▁18	-8.7362
▁travel	-8.73647
▁Security	-8.7383
▁open	-8.73954
This	-8.73992
▁policy	-8.74075
▁process	-8.74313
▁victory	-8.74326
▁suicide	-8.74327
▁trade	-8.74419
▁result	-8.74675
k	-8.7469
_	-8.74743
▁No	-8.74872
▁action	-8.74972
▁40	-8.75344
▁order	-8.75493
article	-8.755
▁problems	-8.75933
▁behind	-8.7608
▁important	-8.76184
▁times	-8.76216
▁started	-8.76237
▁lot	-8.76239
▁child	-8.76364
▁able	-8.76459
D	-8.76461
▁industry	-8.7659
▁does	-8.7664
▁using	-8.76973
▁whose	-8.7733
▁sent	-8.77358
▁list	-8.77778
▁job	-8.78017
▁O	-8.7803
▁November	-8.7814
▁season	-8.78345
▁enough	-8.78382
▁increase	-8.78417
▁young	-8.78465
▁newspaper	-8.78572
▁Australia	-8.78575
▁Court	-8.78641
▁City	-8.78672
▁rate	-8.78704
▁Republican	-8.78844
▁P	-8.79204
▁history	-8.79423
▁April	-8.79456
time	-8.79684
▁involved	-8.79686
▁having	-8.79696
▁injured	-8.79755
▁If	-8.79846
5	-8.79902
▁center	-8.79924
▁M	-8.80005
▁Qaeda	-8.80033
▁coming	-8.80078
▁full	-8.80103
▁almost	-8.8048
▁His	-8.80525
▁pay	-8.80611
▁Defense	-8.80739
▁station	-8.8075
▁plane	-8.80996
▁Americans	-8.81005
▁heart	-8.81083
▁inside	-8.81763
▁Asia	-8.81851
▁given	-8.81954
▁For	-8.82065
▁TV	-8.82223
▁wounded	-8.82259
4	-8.82548
▁front	-8.82701
▁believed	-8.82809
▁search	-8.82869
▁couple	-8.82963
▁San	-8.83043
▁television	-8.83151
▁series	-8.83151
▁strong	-8.83304
▁round	-8.83315
▁test	-8.83338
▁current	-8.83558
▁13	-8.8364
day	-8.8369
▁Musharraf	-8.83701
mid	-8.84104
▁thought	-8.84459
▁Center	-8.84523
▁August	-8.84523
▁mother	-8.84578
▁India	-8.84713
▁East	-8.84786
▁once	-8.84857
▁homes	-8.84938
us	-8.84939
▁hard	-8.84972
▁co	-8.84982
▁fuel	-8.851
▁Park	-8.85529
▁prison	-8.85596
▁sources	-8.85657
▁turn	-8.8577
▁Two	-8.85949
▁old	-8.86006
▁pro	-8.86009
▁leading	-8.86372
▁didn	-8.8639
il	-8.86515
▁based	-8.86557
▁different	-8.86589
▁together	-8.86743
▁comes	-8.86868
▁parliament	-8.87056
▁wants	-8.87319
▁October	-8.87887
▁More	-8.87943
▁2006	-8.87995
st	-8.88021
▁Las	-8.88106
▁ever	-8.88353
ar	-8.88403
▁evidence	-8.88445
led	-8.88536
▁14	-8.88584
less	-8.88708
▁situation	-8.88732
▁star	-8.88749
▁real	-8.88892
▁hold	-8.88955
▁appeared	-8.89047
▁step	-8.89138
▁research	-8.89209
▁Council	-8.89307
▁tried	-8.89337
based	-8.89353
▁problem	-8.89475
▁federal	-8.89596
▁wife	-8.89657
ion	-8.89833
▁gave	-8.90176
▁age	-8.90185
▁planned	-8.90195
▁turned	-8.90198
▁include	-8.90213
▁special	-8.90362
▁met	-8.90407
up	-8.90648
▁Senate	-8.90767
▁fighting	-8.9078
▁February	-8.90786
▁areas	-8.90931
▁victims	-8.91039
▁son	-8.91081
▁K	-8.91561
▁fell	-8.91643
se	-8.91779
▁immediately	-8.92015
▁Man	-8.92109
▁soon	-8.92342
▁flight	-8.92356
est	-8.92383
▁With	-8.92388
▁calls	-8.92456
▁movie	-8.92473
▁4	-8.92476
▁medical	-8.92534
▁wanted	-8.92545
▁received	-8.92614
▁spokeswoman	-8.92832
▁yet	-8.9287
▁16	-8.92901
▁great	-8.92931
▁tell	-8.93086
ir	-8.93217
▁incident	-8.93388
▁despi	-8.93431
▁energy	-8.93756
▁train	-8.93788
▁R	-8.93886
▁stay	-8.93996
▁per	-8.94129
▁poll	-8.94177
▁ground	-8.94194
▁cause	-8.94223
""	-8.94282
▁attempt	-8.94401
▁online	-8.9463
P	-8.94647
▁bill	-8.94876
▁coast	-8.95084
▁60	-8.95231
▁According	-8.95273
▁War	-8.95276
▁pressure	-8.95471
▁disease	-8.95561
▁storm	-8.95609
▁sex	-8.95614
▁25	-8.95844
▁something	-8.95869
▁Florida	-8.95871
▁caused	-8.95904
▁results	-8.96051
▁south	-8.96176
▁saw	-8.96179
▁airport	-8.96196
▁low	-8.96213
▁F	-8.96218
▁lower	-8.96294
▁Germany	-8.96296
▁private	-8.96327
▁hundreds	-8.96358
▁markets	-8.96362
ri	-8.96725
▁recently	-8.96838
ce	-8.97246
▁Nations	-8.97261
▁total	-8.97309
▁biggest	-8.97452
▁getting	-8.97456
▁Cup	-8.97598
▁press	-8.9761
▁Hamas	-8.97743
▁f	-8.97755
▁protest	-8.97786
▁However	-8.97809
▁nations	-8.97901
▁negotiations	-8.97902
▁scheduled	-8.98087
▁try	-8.98105
el	-8.98203
▁voters	-8.98232
▁alleged	-8.98253
▁8	-8.98445
▁Koreans	-8.98464
▁phone	-8.985
▁N	-8.98549
T	-8.98604
▁Asian	-8.98657
▁strike	-8.9902
▁West	-8.99101
▁decided	-8.99158
▁provide	-8.99251
▁feel	-8.99626
▁summit	-8.99635
▁Union	-8.99638
▁Islamic	-8.99664
▁level	-8.99696
▁doing	-9.00076
▁charged	-9.00078
▁short	-9.00085
▁states	-9.00114
▁claimed	-9.00134
▁term	-9.00459
▁When	-9.00553
▁nine	-9.00638
▁deaths	-9.00882
hyun	-9.00902
▁6	-9.01082
▁mission	-9.01121
▁army	-9.01294
▁closed	-9.01551
▁condition	-9.01733
▁growth	-9.01918
▁rise	-9.01984
▁Australian	-9.02124
became	-9.02202
▁Tokyo	-9.02238
▁7	-9.0224
▁needed	-9.02273
ation	-9.02416
▁19	-9.02441
▁lives	-9.02548
▁Agency	-9.02564
▁goal	-9.02926
▁German	-9.02931
▁arrest	-9.03199
▁remain	-9.03219
▁Rice	-9.03223
▁supporters	-9.03245
▁So	-9.03296
▁event	-9.03303
▁9	-9.03311
▁Olympic	-9.03399
▁issues	-9.03531
▁price	-9.03582
▁cost	-9.03756
is	-9.03962
▁reached	-9.03964
ity	-9.03998
▁2004	-9.04018
▁Africa	-9.04171
▁issued	-9.0424
▁_	-9.04326
▁road	-9.04456
▁All	-9.04541
▁claim	-9.04577
▁failed	-9.04605
▁sign	-9.04765
▁effort	-9.04767
▁growing	-9.04847
▁fight	-9.04856
▁Moo	-9.05253
▁2005	-9.05425
▁kind	-9.0562
▁north	-9.0568
▁hope	-9.05869
▁trip	-9.05894
▁warned	-9.05973
▁island	-9.06174
▁missing	-9.06364
7	-9.06486
▁girl	-9.0652
▁launched	-9.06628
▁damage	-9.06693
▁daughter	-9.06845
,''	-9.06927
▁Pakistani	-9.06937
▁protesters	-9.07042
it	-9.07102
▁scientists	-9.07123
▁Hillary	-9.07295
▁Gen	-9.07426
▁protect	-9.0744
▁done	-9.07585
▁speech	-9.07586
▁ministry	-9.07626
▁¡	-9.07942
▁named	-9.08072
▁production	-9.08678
▁resolution	-9.08699
▁though	-9.08804
and	-9.08846
▁land	-9.08943
▁crew	-9.08981
▁executive	-9.08983
▁black	-9.09048
▁interest	-9.09235
▁battle	-9.09365
▁often	-9.09387
▁higher	-9.09629
There	-9.09642
▁match	-9.09734
▁estimated	-9.09772
▁Los	-9.09986
▁Chung	-9.10087
▁summer	-9.10096
▁̄s	-9.10132
▁lawmakers	-9.10141
▁sales	-9.10228
▁demand	-9.10369
▁credit	-9.10413
▁opened	-9.10479
▁offer	-9.10571
▁continued	-9.10695
▁Texas	-9.10795
▁himself	-9.10797
▁trial	-9.10805
▁tax	-9.10978
▁24	-9.1103
▁Sarkozy	-9.11176
▁17	-9.11192
▁let	-9.11467
▁operation	-9.11506
▁Robert	-9.11506
▁leave	-9.11526
▁Brown	-9.11753
▁threat	-9.11872
▁break	-9.12048
▁average	-9.1206
▁talk	-9.12255
▁letter	-9.12277
▁parties	-9.12282
▁bid	-9.12299
▁Iranian	-9.12305
▁heavy	-9.1231
▁Dr	-9.12341
▁board	-9.12399
▁relations	-9.12408
▁sea	-9.12563
▁Army	-9.12635
▁News	-9.12682
6	-9.12727
la	-9.12892
▁always	-9.12965
▁measures	-9.12984
▁technology	-9.12994
▁things	-9.13263
▁Committee	-9.13339
▁brought	-9.1334
ies	-9.13424
▁hostages	-9.136
▁chairman	-9.13731
▁Hill	-9.13736
▁defense	-9.13753
▁polls	-9.13906
▁officers	-9.13971
out	-9.13993
▁arrived	-9.14112
side	-9.1417
B	-9.14309
▁community	-9.14443
▁Paris	-9.14464
ive	-9.14513
▁post	-9.14608
▁denied	-9.1481
▁coalition	-9.1481
▁spent	-9.14812
▁running	-9.14907
▁address	-9.1499
▁stage	-9.15033
▁protests	-9.15117
▁music	-9.15138
▁NATO	-9.15183
▁message	-9.1528
▁raised	-9.1531
He	-9.15805
▁identified	-9.1595
f	-9.16209
▁serious	-9.1622
▁Angeles	-9.16315
▁risk	-9.16322
▁course	-9.16346
▁published	-9.16365
▁development	-9.1645
▁officer	-9.16539
),	-9.16638
ro	-9.16686
If	-9.16696
▁shows	-9.1702
▁concern	-9.17068
▁quot	-9.17118
▁t	-9.17285
▁care	-9.1735
▁rule	-9.17437
▁Turkey	-9.17466
▁civilians	-9.17662
ia	-9.17742
▁period	-9.17827
▁similar	-9.17835
▁husband	-9.17869
▁parents	-9.18269
▁programs	-9.18324
▁position	-9.1846
▁story	-9.18742
▁organization	-9.18784
▁means	-9.18801
▁illegal	-9.18836
▁included	-9.18879
▁population	-9.19177
▁judge	-9.19211
▁previous	-9.19225
K	-9.1926
▁League	-9.19413
▁project	-9.19455
▁carrying	-9.19792
▁ordered	-9.19806
as	-9.19844
▁UN	-9.19935
▁Street	-9.20173
▁majority	-9.20197
▁Co	-9.20249
▁General	-9.20293
▁scene	-9.2037
▁cell	-9.20432
▁English	-9.20577
▁Illinois	-9.2058
▁Grand	-9.20598
▁cars	-9.20799
▁drug	-9.20835
▁boy	-9.2085
▁Dow	-9.2099
▁debate	-9.21019
They	-9.21033
▁followed	-9.21226
▁St	-9.2131
▁200	-9.21323
▁primary	-9.21352
▁/	-9.21439
ite	-9.21448
▁stock	-9.21617
▁Bhutto	-9.21749
▁Commission	-9.21749
▁huge	-9.21796
▁cover	-9.21885
▁crash	-9.22025
▁book	-9.22105
▁communist	-9.22195
▁white	-9.22198
▁conditions	-9.22376
▁hotel	-9.22416
▁Paul	-9.22443
3	-9.22503
▁suspected	-9.22545
▁services	-9.22662
▁push	-9.22744
▁21	-9.2277
▁concerns	-9.22804
▁nomination	-9.22823
▁families	-9.22954
▁afternoon	-9.22966
▁worst	-9.22973
▁living	-9.22976
carried	-9.22983
▁rest	-9.23016
▁refused	-9.2305
▁calling	-9.23214
▁residents	-9.23246
▁experts	-9.23326
▁create	-9.23328
▁popular	-9.23363
▁Association	-9.23386
▁doesn	-9.23501
▁question	-9.23716
▁matter	-9.24085
8	-9.24097
▁missile	-9.24105
▁jobs	-9.24221
▁room	-9.24248
▁played	-9.24265
▁computer	-9.24908
▁Democrats	-9.24948
▁announcement	-9.24999
▁view	-9.25003
▁however	-9.25018
▁returned	-9.25037
▁committee	-9.25312
ur	-9.2534
▁access	-9.25407
▁leaving	-9.25408
▁cases	-9.25612
▁comment	-9.25613
▁fact	-9.25709
▁Su	-9.25774
▁Taiwan	-9.25821
▁intelligence	-9.25832
▁activities	-9.25836
▁expect	-9.25881
▁expressed	-9.25988
▁jail	-9.26131
▁form	-9.26268
▁comments	-9.2631
▁sanctions	-9.26419
▁begin	-9.26604
▁source	-9.26646
▁Myanmar	-9.26677
▁delegates	-9.2675
▁forward	-9.2683
ne	-9.26861
▁base	-9.26901
▁fans	-9.26909
ial	-9.26961
▁Red	-9.26971
▁crime	-9.27066
▁available	-9.27078
▁Air	-9.27267
▁murder	-9.27369
▁ended	-9.27392
▁chance	-9.27465
▁light	-9.27557
▁single	-9.27596
▁allowed	-9.2767
▁Wall	-9.28069
▁People	-9.28192
▁Saudi	-9.28349
▁reach	-9.28392
▁fired	-9.28416
U	-9.28442
▁eastern	-9.28509
▁fall	-9.28584
▁bad	-9.2868
▁staff	-9.28774
▁claims	-9.28939
▁needs	-9.28981
▁helped	-9.29051
▁why	-9.29206
`	-9.29231
▁Earth	-9.2924
▁23	-9.29304
▁legal	-9.29371
▁treatment	-9.29642
E	-9.29645
z	-9.29796
lthough	-9.29881
▁streets	-9.29933
run	-9.3001
▁rally	-9.30077
▁sure	-9.30084
described	-9.30093
party	-9.30129
▁ready	-9.30211
co	-9.30263
▁charge	-9.30408
▁non	-9.30416
▁signed	-9.30426
▁discovered	-9.30575
▁discuss	-9.30641
▁candidates	-9.30663
▁kilometers	-9.30672
▁secretary	-9.30974
▁details	-9.3103
▁hopes	-9.31088
▁opening	-9.31212
▁Health	-9.31278
▁players	-9.31286
no	-9.31469
M	-9.31568
▁De	-9.31607
▁accept	-9.31711
▁bodies	-9.31821
▁data	-9.31821
▁struck	-9.31834
▁terrorist	-9.31943
▁fourth	-9.32062
▁Pe	-9.321
▁feet	-9.32298
▁hour	-9.32491
▁share	-9.32655
▁crowd	-9.32701
▁themselves	-9.32708
▁cities	-9.32708
▁Chicago	-9.32784
▁broke	-9.32798
un	-9.3285
▁Assembly	-9.32901
▁J	-9.32952
▁thing	-9.3312
G	-9.33157
▁safety	-9.33158
▁progress	-9.3316
▁Her	-9.3318
▁Earlier	-9.33602
▁particular	-9.33602
▁response	-9.33684
▁suffered	-9.33725
▁worked	-9.33746
rs	-9.33806
▁passed	-9.33953
▁spending	-9.3397
▁To	-9.33973
▁Italian	-9.34053
▁survey	-9.34077
▁blast	-9.3416
▁Shiite	-9.34167
▁sites	-9.34174
▁blood	-9.34426
▁funds	-9.34459
▁friend	-9.34495
▁Putin	-9.34522
▁either	-9.34632
▁worth	-9.35084
▁longer	-9.35269
▁Mexico	-9.35417
at	-9.35503
▁rival	-9.35584
▁idea	-9.35849
▁operations	-9.35855
▁request	-9.35954
▁enter	-9.3624
▁banks	-9.36257
▁passengers	-9.36319
▁ceremony	-9.36336
▁focus	-9.36341
▁Bill	-9.3638
▁quarter	-9.36578
▁red	-9.36605
▁Office	-9.36615
▁moved	-9.36757
▁County	-9.36807
▁female	-9.3682
▁consider	-9.37014
▁ban	-9.3707
ist	-9.37134
▁Smith	-9.37264
▁paid	-9.37312
▁sold	-9.37375
▁increased	-9.37533
▁tour	-9.37563
▁decades	-9.37647
▁NASA	-9.37733
▁cannot	-9.37757
▁destroyed	-9.37943
▁ship	-9.38088
0,000	-9.38097
▁probably	-9.38202
▁anything	-9.38203
▁rare	-9.38204
▁Chief	-9.38215
R	-9.38243
▁remains	-9.38419
▁difficult	-9.3853
▁22	-9.38639
▁labor	-9.38648
▁above	-9.38673
▁gain	-9.38706
▁holding	-9.38793
▁manager	-9.38911
▁launch	-9.38941
▁Day	-9.38951
▁sell	-9.38973
ie	-9.39137
▁Meanwhile	-9.39147
▁Italy	-9.39148
▁nothing	-9.39174
ch	-9.39312
▁trading	-9.39623
▁impact	-9.39623
▁Le	-9.39625
▁usual	-9.39663
▁rose	-9.3969
▁quickly	-9.39691
▁professor	-9.39854
▁am	-9.39959
▁annual	-9.39993
▁UK	-9.40336
F	-9.40357
▁lawyer	-9.40357
▁commander	-9.40381
▁Indian	-9.40402
▁injuries	-9.40584
▁join	-9.40587
▁drop	-9.4059
▁diplomatic	-9.40607
▁declared	-9.40646
▁date	-9.40769
▁love	-9.40877
de	-9.40894
▁potential	-9.40907
▁governor	-9.41082
▁field	-9.41112
▁vice	-9.41112
▁Mark	-9.41113
▁citizens	-9.41203
▁e	-9.41238
ma	-9.41741
▁parts	-9.41773
▁vehicle	-9.41855
▁rebels	-9.41864
ian	-9.42058
▁loss	-9.42099
▁appear	-9.42136
▁posted	-9.42241
▁district	-9.42322
▁social	-9.42345
▁steps	-9.42391
▁rescue	-9.42421
▁radio	-9.4246
▁L	-9.42489
▁Prince	-9.42521
▁especially	-9.42529
▁Carolina	-9.42533
▁Group	-9.42539
▁joint	-9.42613
▁Virginia	-9.42618
L	-9.42655
▁brain	-9.4282
▁investment	-9.42837
▁friends	-9.42889
▁Federal	-9.43021
▁attention	-9.43021
▁Spain	-9.43024
▁2008	-9.43043
▁avoid	-9.43073
▁network	-9.43177
▁deliver	-9.43241
▁levels	-9.43376
▁warning	-9.43467
▁adding	-9.435
▁Another	-9.43518
▁King	-9.43642
▁title	-9.43698
▁camp	-9.43834
▁relationship	-9.43846
▁Ki	-9.43853
▁researchers	-9.43926
▁Authorities	-9.44014
▁rising	-9.44016
▁responsible	-9.44024
▁detained	-9.44115
▁employees	-9.44145
▁prevent	-9.44211
▁kept	-9.44514
Maliki	-9.44663
▁voice	-9.44704
▁original	-9.44753
▁currently	-9.44802
▁kill	-9.44805
▁natural	-9.44888
▁success	-9.44935
▁dropped	-9.45019
▁worldwide	-9.45031
▁highest	-9.45107
ton	-9.45228
▁stand	-9.45309
▁Muslim	-9.45414
▁Sea	-9.45447
▁considered	-9.45586
▁additional	-9.45605
▁urg	-9.45631
In	-9.4566
▁accident	-9.45822
AP	-9.46
▁giving	-9.46087
▁prosecutors	-9.46234
▁session	-9.46417
▁70	-9.46529
▁Turki	-9.46597
▁hearing	-9.46832
▁happened	-9.46913
▁serve	-9.47112
▁games	-9.4721
▁park	-9.47383
▁build	-9.47447
▁80	-9.47489
um	-9.47605
▁questions	-9.47707
land	-9.47803
▁exchange	-9.47846
▁cancer	-9.48086
▁massive	-9.48128
▁written	-9.48131
▁personal	-9.48133
▁r	-9.48146
▁Jones	-9.48174
▁shooting	-9.4826
▁Harry	-9.48295
▁contain	-9.4832
▁Dur	-9.48349
▁hands	-9.48373
9	-9.48389
▁changes	-9.48443
▁Former	-9.48614
▁common	-9.48638
▁approved	-9.48692
▁club	-9.48811
▁offered	-9.48856
▁remarks	-9.49049
▁reason	-9.49052
▁dollars	-9.49166
▁actually	-9.49189
ness	-9.49207
▁threatened	-9.49332
▁allegations	-9.49474
▁whom	-9.49535
▁Middle	-9.49648
▁Pennsylvania	-9.49656
▁admitted	-9.49694
▁dollar	-9.49746
▁seeking	-9.49768
▁terrorism	-9.49803
ous	-9.49816
▁aim	-9.50078
▁schools	-9.50083
▁index	-9.5017
▁suspect	-9.50179
▁firm	-9.50198
▁lack	-9.50219
▁someone	-9.5026
▁criticized	-9.50297
▁evening	-9.50318
▁heard	-9.5044
▁allegedly	-9.50449
▁millions	-9.50596
▁sexual	-9.50601
W	-9.5069
▁responsibility	-9.50717
▁baby	-9.50717
▁James	-9.50742
▁combat	-9.50773
▁Most	-9.50812
▁II	-9.5086
way	-9.50919
▁suspended	-9.50933
w	-9.51205
▁contact	-9.5123
▁nearby	-9.51283
▁animals	-9.51343
H	-9.51387
▁career	-9.5145
▁plant	-9.51682
▁mid	-9.51766
▁beat	-9.51782
▁Institute	-9.5179
▁ex	-9.51804
▁Chavez	-9.51805
▁education	-9.51806
▁bit	-9.51827
month	-9.52055
hile	-9.52072
▁target	-9.52256
upreme	-9.52312
▁giant	-9.52328
▁Cabinet	-9.5233
▁costs	-9.52568
▁seek	-9.5264
▁raise	-9.52724
▁critical	-9.52778
▁figure	-9.5278
▁appeal	-9.52788
▁mass	-9.52806
▁jump	-9.52874
▁panel	-9.52876
ally	-9.52898
▁corruption	-9.52909
▁toll	-9.53199
▁actor	-9.5321
▁account	-9.53302
▁quit	-9.53314
▁read	-9.53418
inhua	-9.5342
▁construction	-9.53421
im	-9.53437
▁attorney	-9.53458
ad	-9.53488
▁wrote	-9.53491
▁sides	-9.53549
▁contract	-9.53892
▁Thailand	-9.53975
▁everything	-9.53996
▁effect	-9.54014
▁material	-9.54024
▁Corp	-9.54032
▁training	-9.54048
▁fund	-9.54088
ak	-9.54125
▁receive	-9.54186
But	-9.54326
▁doctors	-9.54386
▁500	-9.544
▁aircraft	-9.54552
▁Officials	-9.5462
▁rain	-9.54843
▁terms	-9.54897
▁dispute	-9.54994
▁spread	-9.54999
▁conducted	-9.55013
▁pre	-9.55072
▁ambassador	-9.55077
▁rather	-9.55078
▁regime	-9.55089
▁convicted	-9.5512
▁Western	-9.55125
▁moving	-9.55134
▁nominee	-9.55151
▁forc	-9.55225
▁Abou	-9.55256
▁poor	-9.55425
citing	-9.55459
▁Cho	-9.55508
▁makes	-9.55602
▁figures	-9.55606
▁envoy	-9.55636
age	-9.55678
▁apparently	-9.55739
▁shut	-9.55862
▁inter	-9.55862
,”	-9.5588
coming	-9.55937
▁complete	-9.55973
▁winning	-9.56002
▁terror	-9.5605
▁safe	-9.56072
8212;	-9.56198
▁commercial	-9.56198
▁daily	-9.56199
▁prosecution	-9.56199
▁itself	-9.56218
▁EU	-9.56267
▁moment	-9.56292
▁senator	-9.56297
▁size	-9.56313
▁numbers	-9.56349
▁vehicles	-9.56423
.''	-9.56528
▁products	-9.5655
▁ice	-9.56626
▁armed	-9.56627
▁criticism	-9.56764
▁Ohio	-9.56764
▁surgery	-9.56765
▁Ben	-9.56794
▁prisoners	-9.56802
▁instead	-9.56873
▁committed	-9.56878
▁neighbor	-9.5688
▁ties	-9.56996
▁buildings	-9.57018
▁remained	-9.57092
▁rules	-9.57111
▁insurgents	-9.57181
▁involv	-9.57219
▁Indonesia	-9.57257
▁cross	-9.57292
▁sentence	-9.57306
▁custody	-9.57331
▁magazine	-9.57331
▁occurred	-9.57332
▁beginning	-9.57336
▁proposed	-9.57403
▁winner	-9.57504
▁rejected	-9.57505
▁shown	-9.57641
▁buy	-9.57715
ful	-9.57752
▁suggested	-9.57791
▁confirm	-9.5794
22	-9.58107
id	-9.58187
▁addition	-9.58383
▁reduce	-9.58392
▁seem	-9.58436
▁church	-9.58455
▁Central	-9.58477
▁Interior	-9.58482
▁leadership	-9.58492
▁suspects	-9.58504
▁built	-9.58518
▁western	-9.58532
▁previously	-9.5871
elect	-9.58779
▁Uri	-9.58804
by	-9.58857
▁resume	-9.58905
▁boost	-9.58979
▁Royal	-9.59067
▁track	-9.59148
ern	-9.5915
▁starting	-9.59194
▁Service	-9.59226
▁movement	-9.59242
▁student	-9.59246
▁visitors	-9.59269
▁investors	-9.59472
▁fear	-9.59531
▁Georgia	-9.59578
et	-9.59635
▁Spanish	-9.59637
▁earthquake	-9.59796
▁bus	-9.60017
▁brother	-9.60085
▁tests	-9.60153
▁created	-9.60192
▁driving	-9.60273
▁explosion	-9.60414
▁Force	-9.6045
▁paper	-9.60456
▁seat	-9.60505
▁events	-9.60516
▁traditional	-9.60575
▁attacked	-9.60662
one	-9.6078
▁fighters	-9.60828
▁reactor	-9.60997
▁includes	-9.61024
▁reform	-9.61055
▁union	-9.61084
▁You	-9.61125
▁player	-9.61292
▁Moscow	-9.61401
▁deputy	-9.61401
▁Abbas	-9.61403
▁conduct	-9.61464
0	-9.61556
▁signs	-9.61618
▁satellite	-9.6163
▁Now	-9.61746
▁90	-9.61751
ment	-9.61757
▁Hollywood	-9.62019
▁industrial	-9.62019
▁planning	-9.62024
▁allies	-9.62158
▁village	-9.62261
▁row	-9.62296
▁arms	-9.62306
▁award	-9.62327
▁showing	-9.62479
▁patients	-9.62535
▁failure	-9.62596
▁weather	-9.62628
▁commission	-9.62634
▁Both	-9.62671
▁1,000	-9.62775
x	-9.62805
▁ruled	-9.62831
▁Olympics	-9.6287
mo	-9.63027
▁Hyundai	-9.63198
▁Microsoft	-9.63198
▁dangerous	-9.63203
▁operating	-9.63211
▁Apple	-9.63235
son	-9.63255
▁Mo	-9.63286
▁civilian	-9.63511
▁29	-9.63513
▁prove	-9.63739
▁owner	-9.63802
▁Dae	-9.63868
▁experience	-9.6393
▁anyone	-9.63955
back	-9.64116
hour	-9.64211
▁immediate	-9.64296
▁spoke	-9.6434
be	-9.64408
▁Herald	-9.64414
▁Cheney	-9.64416
▁mean	-9.64604
▁store	-9.64647
O	-9.64795
▁seats	-9.64827
▁act	-9.64934
▁hurt	-9.64977
▁documents	-9.64993
▁tourists	-9.64997
▁Brazil	-9.65016
▁Open	-9.65027
▁Yahoo	-9.65035
▁truck	-9.65349
▁analysts	-9.65439
▁affected	-9.65586
▁Research	-9.65655
▁carry	-9.6567
▁married	-9.65673
▁everyone	-9.65703
▁What	-9.65717
▁compared	-9.65752
na	-9.65807
▁performance	-9.65967
off	-9.65997
▁honor	-9.66069
▁prompt	-9.66105
▁flights	-9.66168
▁2002	-9.66189
▁dozens	-9.66264
▁Sunni	-9.66269
▁2003	-9.66294
▁self	-9.66321
▁pick	-9.66374
▁bombing	-9.66387
▁consumer	-9.66632
▁amount	-9.66748
▁BBC	-9.66891
▁telephone	-9.66891
▁supply	-9.66891
▁provided	-9.66954
▁powerful	-9.67015
▁rates	-9.67067
▁bin	-9.67183
▁Richard	-9.67213
▁wearing	-9.67245
▁democracy	-9.67293
▁sale	-9.67305
▁votes	-9.67368
ho	-9.67424
▁environment	-9.67439
▁filed	-9.67576
▁Under	-9.67599
▁defeat	-9.6762
▁pull	-9.6763
bak	-9.67673
▁ran	-9.67694
,000	-9.67764
ba	-9.67881
▁pulled	-9.68046
▁alliance	-9.68152
▁domestic	-9.68153
▁Myung	-9.68154
▁snow	-9.68154
▁guilty	-9.68167
▁blue	-9.68171
▁Tibet	-9.68214
▁department	-9.68522
▁troop	-9.68558
ier	-9.68611
▁27	-9.68749
▁traffic	-9.68787
▁policies	-9.68789
▁FBI	-9.68792
▁necessary	-9.68817
▁directly	-9.6893
am	-9.69019
You	-9.69076
▁meters	-9.69106
lo	-9.69157
▁By	-9.69164
▁marriage	-9.69176
▁partner	-9.69224
cat	-9.69247
▁present	-9.69311
ling	-9.69413
▁middle	-9.69431
▁sought	-9.69444
▁related	-9.69475
▁linked	-9.69852
▁b	-9.69867
▁Hu	-9.70033
▁possibility	-9.70076
▁overseas	-9.70076
▁caught	-9.70077
▁Wa	-9.70148
▁affect	-9.70185
▁ongoing	-9.70254
▁independence	-9.70283
nd	-9.70352
▁Although	-9.70368
ter	-9.70462
▁holiday	-9.70509
▁Whi	-9.70545
▁suggest	-9.70582
ol	-9.70625
▁declined	-9.70827
▁mostly	-9.70927
▁concerned	-9.70995
▁independent	-9.71039
▁damaged	-9.71056
▁speak	-9.71071
▁fine	-9.71117
▁Ma	-9.71139
▁deep	-9.71233
▁faces	-9.71277
▁35	-9.713
▁River	-9.71311
▁Peter	-9.71381
▁recession	-9.71381
▁understand	-9.71388
▁shuttle	-9.71408
▁drugs	-9.71595
▁century	-9.7164
American	-9.71702
▁Arab	-9.71757
▁ask	-9.71814
▁conservative	-9.71856
▁word	-9.71973
▁require	-9.71979
▁headquarters	-9.72037
ah	-9.72051
▁Abe	-9.72062
▁east	-9.72153
▁words	-9.72208
tan	-9.7236
li	-9.72386
▁minute	-9.72503
▁Other	-9.72531
▁voted	-9.7258
▁blam	-9.72592
▁Colombia	-9.72625
▁stopped	-9.72706
ul	-9.72789
long	-9.72819
▁assault	-9.72827
▁Shin	-9.72832
▁goes	-9.72918
▁designed	-9.73016
▁shortly	-9.73023
▁package	-9.73197
▁Oscar	-9.73211
▁militant	-9.73224
▁justice	-9.7323
▁names	-9.73265
▁certain	-9.73266
term	-9.73268
▁environmental	-9.73288
▁remaining	-9.73335
▁promised	-9.73343
▁Li	-9.7335
▁regard	-9.73351
▁fresh	-9.7336
▁Lebanon	-9.73365
▁Jong	-9.73383
▁competition	-9.73391
▁vow	-9.73396
▁type	-9.73396
▁famous	-9.73409
ta	-9.73456
▁Ba	-9.73488
▁Gates	-9.7352
▁wasn	-9.73842
▁review	-9.74023
▁Justice	-9.74038
hose	-9.74094
▁street	-9.74281
▁elected	-9.74299
▁pass	-9.74306
▁violent	-9.74577
▁animal	-9.74597
▁bombs	-9.74648
▁birth	-9.74696
▁smoke	-9.74703
▁Charles	-9.7471
▁Lebanese	-9.74712
▁voting	-9.74712
▁display	-9.74713
▁investigating	-9.74721
▁joined	-9.74772
▁check	-9.74816
▁pledged	-9.74863
▁isn	-9.7512
urged	-9.75159
▁Palestinians	-9.7521
▁criminal	-9.75368
▁felt	-9.75393
▁university	-9.75401
▁gold	-9.75407
▁deadline	-9.75414
▁Christmas	-9.75418
▁quake	-9.75419
▁losses	-9.75446
▁activity	-9.75506
▁maintain	-9.75548
ent	-9.75567
▁fears	-9.75573
▁mark	-9.75589
▁regional	-9.75669
lew	-9.7588
▁terrorists	-9.75985
▁rocket	-9.75991
▁Steve	-9.76013
▁Vice	-9.76105
▁surrounding	-9.76125
ized	-9.76317
▁considering	-9.76364
▁range	-9.76419
▁Star	-9.76423
▁territory	-9.76767
code	-9.76796
▁anniversary	-9.76817
▁below	-9.76895
▁placed	-9.7692
▁gathered	-9.76926
▁Prosecutors	-9.77018
ever	-9.77158
▁customers	-9.77297
▁peaceful	-9.77373
▁positive	-9.77384
▁respect	-9.77386
do	-9.77426
▁coach	-9.77435
ck	-9.77447
▁Ilbo	-9.77463
▁ministers	-9.77463
▁hair	-9.77463
▁2007	-9.77537
▁sentenced	-9.77644
▁referr	-9.77688
▁Re	-9.77884
▁climate	-9.77924
▁Tom	-9.77933
▁conflict	-9.78106
▁meetings	-9.78143
▁model	-9.78158
▁seized	-9.78216
▁species	-9.78222
▁blame	-9.78275
ge	-9.7828
▁develop	-9.78283
▁dog	-9.78302
▁port	-9.78345
▁$2	-9.78378
▁$1	-9.78396
▁separate	-9.78553
ted	-9.78629
▁measure	-9.78665
ID	-9.78726
▁drive	-9.78734
▁picture	-9.78856
▁Olmert	-9.78865
▁album	-9.78865
▁twice	-9.78865
▁software	-9.78866
▁college	-9.78874
▁appears	-9.79138
▁26	-9.79189
▁ways	-9.79232
▁choice	-9.79245
▁images	-9.79401
▁card	-9.79491
▁complex	-9.79533
▁controversial	-9.79574
://	-9.79575
htt	-9.79578
▁mobile	-9.79595
▁alone	-9.79624
▁confidence	-9.79631
▁transfer	-9.79706
▁forecast	-9.79741
▁gone	-9.79749
ha	-9.79821
▁direct	-9.79952
▁William	-9.79964
▁kids	-9.80037
▁broadcast	-9.80064
asp	-9.80149
▁talking	-9.80163
▁shares	-9.8017
▁lines	-9.80203
▁laws	-9.80209
▁Syria	-9.80214
cnn	-9.80288
▁Christopher	-9.80289
▁facilities	-9.80289
▁Madrid	-9.80289
▁knew	-9.80289
Total	-9.80293
▁dozen	-9.80327
▁wrong	-9.80328
▁Three	-9.80334
▁produced	-9.80424
▁happen	-9.80441
▁finish	-9.80481
▁suffering	-9.80531
▁initial	-9.80851
▁collapse	-9.80858
▁Tour	-9.80924
▁CEO	-9.81008
▁LONDON	-9.81008
▁politics	-9.81008
▁straight	-9.81009
▁football	-9.81009
▁beyond	-9.81023
▁throughout	-9.81108
▁true	-9.81218
▁Pacific	-9.81259
▁Williams	-9.81336
line	-9.81429
▁prepared	-9.81431
▁draw	-9.81562
▁determine	-9.81593
government	-9.81622
▁Embassy	-9.81733
▁Energy	-9.81733
▁facing	-9.81733
▁behavior	-9.81735
▁disaster	-9.81743
▁victim	-9.8177
▁Trade	-9.81774
▁fifth	-9.81797
▁speaking	-9.81894
v	-9.8196
▁Games	-9.82334
ti	-9.82457
▁District	-9.82463
▁Organization	-9.82463
ap	-9.82477
▁singer	-9.82529
▁zone	-9.82598
▁lift	-9.82728
▁winds	-9.82816
▁increasing	-9.82911
▁challenge	-9.82992
“	-9.83107
▁Pentagon	-9.83198
▁Tehran	-9.83198
▁struggle	-9.83198
▁Labor	-9.83199
▁management	-9.83222
▁audience	-9.83223
▁High	-9.83228
▁version	-9.83234
▁helicopter	-9.8326
▁attend	-9.83488
▁becoming	-9.83659
What	-9.83851
▁developing	-9.83882
▁presence	-9.83939
▁crude	-9.83939
▁Canada	-9.83939
▁Egypt	-9.83942
▁Treasury	-9.83943
▁kidnapped	-9.83949
▁Space	-9.83968
▁activists	-9.83999
▁Democrat	-9.84003
▁soldier	-9.84036
▁Ali	-9.84044
▁Even	-9.84098
ty	-9.84105
ni	-9.84124
▁delay	-9.84242
▁improve	-9.84526
▁flow	-9.84623
▁significant	-9.84637
▁born	-9.84638
▁happy	-9.84685
▁Blair	-9.84685
▁scandal	-9.84769
▁wide	-9.84774
▁barrel	-9.8478
▁Tony	-9.84788
▁cast	-9.84804
▁Since	-9.84835
▁asking	-9.84858
▁journalists	-9.84991
▁wound	-9.85011
me	-9.85034
▁waiting	-9.85298
▁developed	-9.85312
▁Hospital	-9.85437
▁approval	-9.85437
▁value	-9.8544
▁Beckham	-9.85447
▁opportunity	-9.85453
▁welcome	-9.85466
▁losing	-9.85494
▁Island	-9.85546
▁Desp	-9.85548
▁art	-9.85569
▁Burma	-9.85616
▁300	-9.85647
▁served	-9.85657
ja	-9.85722
▁door	-9.85818
▁whole	-9.85866
▁traveling	-9.85912
▁Singapore	-9.86167
▁targeted	-9.8617
▁Gordon	-9.86194
▁currency	-9.86194
▁mosque	-9.86194
▁Among	-9.86196
▁Howard	-9.86198
▁resignation	-9.86204
▁Sudan	-9.86206
▁extreme	-9.86261
▁crimes	-9.86271
▁square	-9.86287
▁decade	-9.8638
fi	-9.86399
▁camera	-9.86426
corporate	-9.86437
joins	-9.8654
▁2006.	-9.86659
▁follow	-9.86688
▁Zimbabwe	-9.86941
▁NEW	-9.86958
▁WASHINGTON	-9.86958
▁encourage	-9.86958
▁sleep	-9.8696
ka	-9.86997
he	-9.87002
▁airline	-9.87048
▁Han	-9.87068
da	-9.87275
▁works	-9.87451
▁class	-9.87483
▁finished	-9.87519
▁secure	-9.87609
▁Marine	-9.87615
forced	-9.87678
▁Ko	-9.87689
▁Mugabe	-9.87727
▁resort	-9.87727
▁supplies	-9.87727
▁injury	-9.87776
▁Reuters	-9.87814
▁Abu	-9.87835
▁mountain	-9.87871
▁neighborhood	-9.87875
▁Sa	-9.87924
▁required	-9.87978
▁exist	-9.88009
▁indicated	-9.88072
▁estimates	-9.88087
▁influence	-9.88397
▁alcohol	-9.88495
▁Administration	-9.88502
▁agencies	-9.88502
tomic	-9.88503
▁ET	-9.88608
▁proposal	-9.88682
▁image	-9.88687
▁doctor	-9.887
▁stars	-9.88879
▁changed	-9.89085
▁demanding	-9.89144
▁photos	-9.89189
▁Hussein	-9.89283
▁School	-9.89283
▁correspondent	-9.89283
▁various	-9.89283
▁religious	-9.89284
▁overall	-9.89355
▁sense	-9.89398
▁lose	-9.89415
▁male	-9.89473
▁hostage	-9.89542
▁speed	-9.89705
▁abuse	-9.89811
▁attempted	-9.89855
▁spark	-9.90073
▁Google	-9.90087
▁auto	-9.90091
▁Tibetan	-9.90146
▁bridge	-9.90261
▁missiles	-9.90272
▁removed	-9.90349
▁decide	-9.90442
▁Bay	-9.90623
▁lived	-9.90637
▁Be	-9.90683
we	-9.9071
▁45	-9.90716
▁headed	-9.90765
▁Cross	-9.90787
▁Thai	-9.90857
▁Francisco	-9.90866
▁1999	-9.90868
▁bailout	-9.90871
▁society	-9.90874
▁draft	-9.90889
▁secret	-9.90897
▁floor	-9.90934
▁produce	-9.90963
▁spend	-9.91017
▁jet	-9.91054
men	-9.91112
▁band	-9.91263
▁bombings	-9.91266
▁actions	-9.91329
▁Ha	-9.91413
▁severe	-9.91438
▁spot	-9.91443
▁modern	-9.91453
▁blow	-9.91593
▁houses	-9.91646
▁Condoleezza	-9.91664
▁Airport	-9.91668
▁demands	-9.91685
▁pounds	-9.91775
▁places	-9.91807
▁weight	-9.91872
rew	-9.91904
▁determined	-9.91914
▁Christian	-9.91921
▁analyst	-9.91932
▁waters	-9.91991
▁Gov	-9.91992
ach	-9.92062
foot	-9.92078
▁defend	-9.92241
aimed	-9.92308
▁parliamentar	-9.92347
▁eye	-9.92349
▁resolve	-9.92362
▁users	-9.92439
▁fraud	-9.9247
▁kidnapping	-9.92471
▁deployment	-9.92473
▁connection	-9.92481
▁DNA	-9.92487
▁alert	-9.92497
▁Communist	-9.92508
ry	-9.92566
No	-9.92597
▁setting	-9.92628
▁widely	-9.92641
▁28	-9.92658
▁visited	-9.92678
▁girls	-9.92682
▁questioned	-9.92704
▁rebel	-9.92765
▁establish	-9.92815
▁pack	-9.92905
▁multi	-9.93056
▁fully	-9.9309
▁hear	-9.93136
▁tough	-9.93183
▁property	-9.93286
▁Four	-9.933
▁reaction	-9.93302
▁actress	-9.93334
of	-9.93349
▁protection	-9.93374
▁telling	-9.93421
▁La	-9.93447
▁screen	-9.93451
▁businesses	-9.93456
▁apartment	-9.93566
▁product	-9.9361
▁consumers	-9.93641
▁mind	-9.93716
▁walk	-9.93736
▁Inc	-9.93788
creasingly	-9.9382
▁cuts	-9.93854
▁finally	-9.93915
▁save	-9.93969
▁deadly	-9.94006
ting	-9.9406
▁Republic	-9.94078
▁Academy	-9.94103
▁Church	-9.94104
▁crackdown	-9.94104
▁march	-9.94107
▁Nobel	-9.94107
▁withdrawal	-9.94174
▁taxes	-9.94192
▁films	-9.94233
▁computers	-9.94277
▁author	-9.94304
ong	-9.94331
▁device	-9.94426
▁sometimes	-9.94566
▁pain	-9.94643
▁31	-9.94697
ine	-9.947
▁stem	-9.94783
▁replace	-9.94824
▁fast	-9.94851
▁Cuba	-9.94856
▁museum	-9.9493
▁Kennedy	-9.94931
▁Laden	-9.94933
▁rock	-9.94943
▁Show	-9.94945
▁Alaska	-9.94947
▁Government	-9.94976
▁Jose	-9.95012
▁provid	-9.95022
▁accepted	-9.95088
▁route	-9.95108
▁caus	-9.95187
▁adviser	-9.95263
▁cells	-9.95301
like	-9.95309
ke	-9.95405
▁2009	-9.95424
der	-9.95487
▁seems	-9.95553
▁block	-9.9568
▁Arabia	-9.95702
▁extra	-9.95718
called	-9.95763
▁example	-9.95763
▁dialogue	-9.95763
▁science	-9.95763
related	-9.95779
▁Martin	-9.95789
▁investigators	-9.95819
▁exile	-9.95844
▁banned	-9.95869
▁serving	-9.95878
ung	-9.95899
▁ensure	-9.95969
▁normal	-9.96004
▁alive	-9.96052
▁imposed	-9.96057
▁pilot	-9.96169
▁approach	-9.96211
▁Speak	-9.96378
▁bomber	-9.96381
▁west	-9.96571
▁Chairman	-9.96604
▁Michigan	-9.96604
▁remote	-9.96604
▁struggling	-9.96614
▁green	-9.96739
▁Republicans	-9.96814
▁2000	-9.96838
▁believes	-9.96849
▁trouble	-9.9696
▁continues	-9.96961
▁doubt	-9.96973
▁hot	-9.96973
▁appearance	-9.96994
▁planet	-9.96999
▁unit	-9.97034
▁withdraw	-9.97035
▁El	-9.97206
mail	-9.9728
▁apparent	-9.97294
▁surprise	-9.97326
▁picked	-9.97377
▁Queen	-9.97451
▁delegation	-9.97451
ncient	-9.97452
▁Kyi	-9.97458
▁stake	-9.97459
▁Kosovo	-9.97462
Korean	-9.97483
▁pictures	-9.97487
▁1980	-9.97496
▁collapsed	-9.97628
▁table	-9.97668
▁wave	-9.9792
em	-9.98033
▁GNP	-9.98084
▁announce	-9.98147
▁raid	-9.98196
▁probe	-9.98216
▁systems	-9.98252
▁virus	-9.98294
▁Affairs	-9.98306
▁Massachusetts	-9.98306
▁Sharif	-9.98307
▁Human	-9.98328
And	-9.98421
▁transition	-9.9846
▁ally	-9.98468
▁ending	-9.98472
▁net	-9.98475
▁completed	-9.98628
▁entering	-9.98657
▁leg	-9.98667
▁prize	-9.98716
▁goals	-9.98738
ish	-9.99039
▁answer	-9.99053
▁minor	-9.99154
▁Manchester	-9.99168
▁penalty	-9.99168
▁personnel	-9.99169
▁1997	-9.99171
rvez	-9.99179
▁southeast	-9.99186
▁located	-9.99194
ribal	-9.99203
minute	-9.99203
▁rush	-9.99217
▁culture	-9.99223
▁Medic	-9.99235
▁scored	-9.99243
▁politicians	-9.99244
▁foreigners	-9.99323
mp	-9.99444
ional	-9.99727
▁piece	-9.99836
ought	-10.0001
▁plot	-10.0003
▁Peninsula	-10.0004
▁Exchange	-10.0004
▁Diana	-10.0004
▁Milan	-10.0005
▁wind	-10.0005
▁pair	-10.0005
▁Arizona	-10.0006
▁orbit	-10.0007
▁grow	-10.0015
▁captured	-10.0016
▁closer	-10.0024
▁ball	-10.0032
▁historic	-10.0034
▁demanded	-10.0045
di	-10.0045
▁items	-10.0047
▁danger	-10.0048
J	-10.0049
▁discussions	-10.0054
go	-10.0065
▁constitution	-10.0067
ural	-10.0091
▁budget	-10.0091
▁declaration	-10.0091
▁possibly	-10.0091
▁heavily	-10.0091
▁foot	-10.0093
▁Soviet	-10.0097
▁42	-10.0102
▁Ho	-10.0106
▁trust	-10.0111
▁stocks	-10.0126
▁projects	-10.0135
▁organizations	-10.0139
▁opinion	-10.0139
▁solution	-10.0146
▁mine	-10.0147
▁exports	-10.0157
ism	-10.0159
▁phones	-10.0161
▁Nicola	-10.018
▁Samsung	-10.018
▁spring	-10.018
▁exploded	-10.0181
▁sports	-10.0193
▁movies	-10.0198
▁heat	-10.0198
▁formal	-10.0205
rd	-10.0208
▁mayor	-10.0227
▁concert	-10.023
▁relative	-10.0233
▁prosecutor	-10.0235
▁journalist	-10.0236
▁tape	-10.0239
▁fly	-10.0252
▁Daniel	-10.0264
▁Premier	-10.0269
▁Palin	-10.027
▁cited	-10.0271
▁box	-10.0284
ate	-10.0295
▁Today	-10.03
ga	-10.0301
▁holds	-10.0311
▁tournament	-10.0322
raising	-10.0323
▁river	-10.033
▁delayed	-10.0336
▁tons	-10.0349
▁council	-10.0359
▁stood	-10.0359
▁trillion	-10.0359
▁uranium	-10.0359
▁involvement	-10.036
▁Kurdish	-10.0361
▁Saddam	-10.0361
▁Lone	-10.0361
▁Navy	-10.0363
▁count	-10.0364
▁keeping	-10.0368
▁attempts	-10.0375
▁fled	-10.0375
▁restrictions	-10.038
▁greater	-10.0381
▁meant	-10.0393
▁torch	-10.0394
▁bar	-10.0396
▁highly	-10.041
▁critics	-10.0412
▁demonstrations	-10.0419
sa	-10.043
ru	-10.043
▁records	-10.0437
▁arm	-10.0441
▁gun	-10.0446
▁hoped	-10.0447
▁demonstrators	-10.045
▁estate	-10.0451
▁Province	-10.0451
▁eventually	-10.0454
ors	-10.0459
level	-10.046
▁brief	-10.0461
▁suggests	-10.0478
▁m	-10.048
▁standing	-10.0494
▁watch	-10.051
▁weapon	-10.0513
▁watching	-10.0515
▁aide	-10.0517
▁provinc	-10.0527
▁attract	-10.0541
▁YORK	-10.0542
▁housing	-10.0542
▁$5	-10.0556
▁broken	-10.0564
▁teams	-10.0571
▁Real	-10.0578
▁touch	-10.059
▁content	-10.0601
▁commitment	-10.0604
▁seeing	-10.0612
nation	-10.063
▁Constitution	-10.0635
▁Chirac	-10.0635
▁Liverpool	-10.0635
▁embassy	-10.0635
▁strategy	-10.0635
▁relief	-10.0635
▁nationwide	-10.0636
▁Simpson	-10.0638
▁winter	-10.0638
▁sub	-10.0639
▁ethnic	-10.0641
▁cold	-10.0642
▁promote	-10.0643
po	-10.0646
▁initially	-10.0655
▁guard	-10.0656
▁smaller	-10.0668
▁treated	-10.0674
▁standards	-10.0687
▁Ford	-10.0687
▁negotiator	-10.07
▁counter	-10.0702
very	-10.0716
▁supporting	-10.0717
▁suit	-10.0725
▁books	-10.0725
▁Chelsea	-10.0728
▁advantage	-10.0728
▁jury	-10.0728
▁bought	-10.0729
▁1990	-10.0729
▁Ukraine	-10.0732
ley	-10.0742
▁canceled	-10.0745
▁buying	-10.0746
▁God	-10.0748
▁newspapers	-10.0754
▁lawyers	-10.0772
▁cents	-10.0772
▁income	-10.0773
▁warming	-10.0783
▁favor	-10.0789
▁entire	-10.0807
▁boat	-10.0811
▁`	-10.0815
▁transport	-10.0821
▁Dubai	-10.0822
▁junta	-10.0822
▁peninsula	-10.0822
▁festival	-10.0823
▁speculation	-10.0823
▁Stock	-10.0823
▁aboard	-10.0827
▁dogs	-10.0829
▁Senator	-10.0829
▁intended	-10.0835
▁Se	-10.084
▁Home	-10.0844
▁opposed	-10.0847
for	-10.0847
▁2001	-10.0859
fire	-10.0859
ud	-10.0866
▁decline	-10.0875
▁10-	-10.0889
▁bear	-10.0891
hi	-10.0897
▁Santa	-10.0897
▁rape	-10.0916
▁active	-10.0918
▁lawsuit	-10.0918
▁presidency	-10.0918
▁equipment	-10.0918
▁Joong	-10.0918
▁Vegas	-10.0924
▁Musa	-10.0926
▁reasons	-10.0927
pe	-10.0942
▁crashed	-10.0947
▁indicate	-10.095
▁en	-10.096
tic	-10.0974
▁agent	-10.0991
▁d	-10.1008
▁Parliament	-10.1014
▁path	-10.1014
▁easy	-10.1014
▁facility	-10.1014
▁footage	-10.1015
▁authority	-10.1015
▁visiting	-10.1017
▁Nevada	-10.1017
▁evacuated	-10.1022
When	-10.1028
That	-10.1028
▁2,000	-10.1034
▁officially	-10.104
▁explosives	-10.1044
▁travelers	-10.1048
ab	-10.1075
▁champion	-10.109
▁zoo	-10.1092
▁finding	-10.1092
▁driver	-10.1095
▁detail	-10.1103
▁status	-10.1111
▁cooperation	-10.1111
▁gay	-10.1111
▁Iowa	-10.1111
▁Economic	-10.1113
▁tensions	-10.1116
▁dismissed	-10.1124
point	-10.1125
She	-10.1136
ng	-10.114
▁revealed	-10.1145
▁Di	-10.1156
▁toys	-10.1161
▁th	-10.1163
▁reporter	-10.1171
▁resign	-10.1187
▁freedom	-10.1187
▁looks	-10.1205
▁Don	-10.1206
▁featur	-10.1206
▁Fatah	-10.1209
▁Mahmoud	-10.1209
▁Spears	-10.1209
▁offensive	-10.1209
▁unemployment	-10.1209
▁Nadal	-10.1209
▁fellow	-10.121
▁Also	-10.1211
▁c	-10.1213
▁choose	-10.1216
▁Thaksin	-10.1218
▁language	-10.1225
▁jailed	-10.1235
▁condemned	-10.1239
▁assistance	-10.124
▁Bo	-10.1243
wa	-10.1244
▁seriously	-10.125
My	-10.1252
tor	-10.1257
▁Na	-10.1273
▁Min	-10.1283
▁represent	-10.1288
▁wait	-10.129
▁faced	-10.1291
▁lawmaker	-10.1293
▁seed	-10.1293
▁g	-10.1307
▁auction	-10.1308
▁Diego	-10.1308
▁Kabul	-10.1308
▁invasion	-10.1308
▁Governor	-10.1308
▁relay	-10.1309
▁else	-10.1309
▁Kang	-10.131
▁crucial	-10.131
▁51	-10.131
▁downtown	-10.131
▁wild	-10.1311
▁150	-10.1314
▁75	-10.1316
▁Mike	-10.1319
▁governing	-10.1322
▁Sun	-10.1327
▁From	-10.1332
▁offices	-10.1334
▁angry	-10.1338
▁Bar	-10.1354
▁sixth	-10.1359
▁fish	-10.1365
▁ships	-10.1366
▁walked	-10.1372
▁freed	-10.1382
▁selling	-10.1382
ant	-10.1383
▁heading	-10.1388
▁sport	-10.1395
▁sun	-10.1403
▁haven	-10.1405
▁Me	-10.1407
▁Ocean	-10.1408
▁Scorsese	-10.1408
▁casualties	-10.1408
▁atmosphere	-10.1408
▁wake	-10.1408
▁sky	-10.1408
▁perhaps	-10.1409
▁clashes	-10.141
▁Johnson	-10.1413
▁executives	-10.1419
ious	-10.1419
ang	-10.142
▁quality	-10.1429
Ang	-10.1438
▁completely	-10.1444
▁learned	-10.1454
▁hop	-10.1466
▁watched	-10.1472
▁landing	-10.1495
▁favorite	-10.1499
▁specific	-10.1501
▁Venezuela	-10.1502
ot	-10.1505
▁Dutch	-10.1508
▁anonymity	-10.1509
▁simply	-10.1509
▁compound	-10.1509
▁abroad	-10.1509
▁via	-10.1511
▁Karzai	-10.1511
▁catch	-10.1514
▁benefits	-10.1515
▁400	-10.1519
▁introduced	-10.1519
▁drama	-10.1521
▁1998	-10.1523
Our	-10.1529
che	-10.1543
▁forest	-10.1544
▁testing	-10.1548
▁stress	-10.1554
▁boycott	-10.1557
▁extended	-10.156
▁roads	-10.1566
▁assets	-10.1571
▁heads	-10.1572
▁weekly	-10.1575
▁ideas	-10.1578
housands	-10.1578
undreds	-10.1584
▁calm	-10.1595
▁respond	-10.1595
▁walking	-10.1595
▁differences	-10.1596
▁subject	-10.1598
▁sharp	-10.1598
▁sister	-10.1599
▁tested	-10.1604
▁threats	-10.1604
▁buried	-10.1611
▁cleric	-10.1611
▁knee	-10.1611
▁humanitarian	-10.1611
▁CIA	-10.1611
▁Deput	-10.1611
▁mention	-10.1613
▁cutting	-10.1614
▁witnesses	-10.1615
▁lowest	-10.1615
▁NBC	-10.1616
▁tear	-10.1626
▁Northern	-10.1632
▁creat	-10.1636
va	-10.1652
▁birds	-10.1655
▁link	-10.1662
▁gains	-10.1667
▁pushing	-10.1674
▁37	-10.1693
▁physical	-10.1698
▁purchase	-10.1701
▁Election	-10.1703
▁rich	-10.1704
▁perfect	-10.1705
▁sound	-10.1712
▁Thomas	-10.1714
▁detention	-10.1714
▁stadium	-10.1714
▁studies	-10.1714
▁hospitalized	-10.1717
▁assassination	-10.1717
▁command	-10.1721
▁label	-10.1722
▁Champions	-10.1722
▁Mayor	-10.1724
▁fashion	-10.1728
▁Colombian	-10.1728
▁ill	-10.173
▁unveiled	-10.1732
ists	-10.1732
▁halt	-10.1765
▁edge	-10.1777
▁describe	-10.1791
▁upon	-10.1796
▁successful	-10.1804
▁benefit	-10.1812
mer	-10.1818
▁grand	-10.1818
▁Jerusalem	-10.1818
▁conspiracy	-10.1818
▁exit	-10.182
▁inches	-10.1823
▁Black	-10.1823
▁Green	-10.1823
▁begun	-10.1824
▁carbon	-10.1824
▁burned	-10.1844
ey	-10.1855
▁relatives	-10.1861
▁fewer	-10.1862
▁humans	-10.1866
▁worse	-10.1879
▁Forces	-10.1887
▁flying	-10.19
30	-10.1907
▁Catholic	-10.1917
ca	-10.1917
▁52	-10.1922
▁Vietnam	-10.1923
▁goods	-10.1924
▁apology	-10.1924
▁Potter	-10.1929
▁CBS	-10.193
▁recovery	-10.193
ut	-10.1934
Sadr	-10.1946
▁Dan	-10.1961
▁climb	-10.1961
▁narrow	-10.1975
▁landed	-10.1977
ham	-10.1978
uch	-10.1993
▁eyes	-10.1994
▁marked	-10.2005
▁Rio	-10.2006
▁agree	-10.201
▁effects	-10.2019
▁regular	-10.2024
▁debt	-10.2026
▁split	-10.2029
▁destruction	-10.203
▁widespread	-10.203
▁basis	-10.203
▁assistant	-10.203
▁Coast	-10.2031
▁tourism	-10.2031
▁overnight	-10.2035
▁girlfriend	-10.2035
▁repeated	-10.2036
▁Chrysler	-10.2037
▁engag	-10.204
▁tens	-10.2049
▁acknowledged	-10.205
▁3,000	-10.2056
▁rooms	-10.2058
▁beach	-10.2072
ory	-10.2083
ver	-10.2096
▁equal	-10.2097
▁direction	-10.2101
▁formed	-10.2104
▁$4	-10.2114
▁Of	-10.2116
▁tight	-10.2119
ance	-10.2121
▁lay	-10.2123
▁Fed	-10.2124
ated	-10.2125
▁gets	-10.2128
▁simple	-10.2134
▁babies	-10.2137
▁insurance	-10.2137
▁Airlines	-10.2137
▁Reserve	-10.2137
▁sort	-10.2138
▁Hilton	-10.2138
▁agenda	-10.2138
▁unusual	-10.2138
▁unclear	-10.2138
▁Ronaldo	-10.214
▁Daily	-10.2141
▁corner	-10.2142
▁continuing	-10.2146
▁stations	-10.2147
▁10,000	-10.2149
▁affiliate	-10.215
▁certainly	-10.2163
▁ride	-10.2167
▁insisted	-10.2168
moon	-10.218
putting	-10.2182
▁limited	-10.2184
▁prepar	-10.2188
At	-10.2192
▁judges	-10.2194
▁contest	-10.22
▁character	-10.2207
▁rivals	-10.2212
ating	-10.2215
▁attended	-10.222
▁Col	-10.2221
▁Iraqis	-10.2225
▁refugees	-10.223
vi	-10.2236
▁Guard	-10.2244
▁suburb	-10.2245
▁Nepal	-10.2246
▁Attorney	-10.2246
▁Canadian	-10.2246
▁closing	-10.2246
▁Prize	-10.2246
▁Great	-10.2246
▁associate	-10.2247
▁plants	-10.2248
▁Brazilian	-10.2248
▁invited	-10.225
▁passenger	-10.225
▁models	-10.2253
▁organized	-10.2255
▁killings	-10.2255
ize	-10.227
▁Muslims	-10.2273
▁loans	-10.2275
▁ring	-10.2295
▁owned	-10.2301
ran	-10.2302
▁extend	-10.2303
▁48	-10.2303
▁Then	-10.2303
▁affairs	-10.2315
▁farmers	-10.232
▁Watch	-10.2322
au	-10.2325
▁Bu	-10.2328
▁strikes	-10.2328
▁die	-10.2331
▁quick	-10.2333
bout	-10.2336
▁virtual	-10.2338
▁coup	-10.234
▁investigate	-10.2341
over	-10.2342
▁Yang	-10.2355
▁Food	-10.2356
▁Peace	-10.2356
▁Qala	-10.2356
▁rank	-10.2358
▁writing	-10.2359
▁Five	-10.2361
▁vessel	-10.2361
▁throw	-10.2364
▁tourist	-10.2364
▁chances	-10.2365
▁document	-10.2365
▁monks	-10.2372
▁focused	-10.2373
▁deployed	-10.2373
▁percentage	-10.2375
▁$10	-10.238
▁2003.	-10.2382
▁earned	-10.2385
▁Sean	-10.239
▁triggered	-10.2391
house	-10.2393
made	-10.2398
▁witness	-10.241
if	-10.241
▁38	-10.2421
state	-10.2427
▁maker	-10.2439
▁dis	-10.2447
▁offering	-10.2448
ev	-10.2451
▁practice	-10.2458
▁Malaysia	-10.246
▁tank	-10.2461
.6	-10.2465
▁ease	-10.2466
▁Colorado	-10.2467
▁controversy	-10.2467
▁Fayed	-10.2467
▁bilateral	-10.2467
▁Boston	-10.2467
▁43	-10.2468
▁electricity	-10.2468
▁renew	-10.2468
▁herself	-10.2469
▁grave	-10.247
▁Public	-10.247
▁reality	-10.2472
▁arrival	-10.2472
▁slightly	-10.2473
▁finance	-10.2474
▁expert	-10.2476
GNP	-10.2496
ring	-10.2498
ure	-10.25
▁warm	-10.2502
▁drinking	-10.2506
▁threatening	-10.2543
▁55	-10.2545
▁scale	-10.255
▁allows	-10.2552
▁returning	-10.2562
▁surface	-10.2571
▁basic	-10.2579
urricane	-10.2579
▁ABC	-10.2579
▁negative	-10.2579
▁Year	-10.258
▁Film	-10.2581
▁proud	-10.2581
▁Fire	-10.2583
▁Mohammed	-10.2584
▁pump	-10.2586
▁visa	-10.2586
▁dream	-10.2588
▁exercise	-10.2588
▁location	-10.259
▁interests	-10.259
▁treaty	-10.2591
▁concluded	-10.2592
▁patient	-10.2594
▁professional	-10.2596
▁electronic	-10.2598
▁trapped	-10.26
▁targeting	-10.2602
▁Roman	-10.2611
▁era	-10.2626
ex	-10.2627
To	-10.2631
ner	-10.2644
▁Not	-10.2645
▁strongly	-10.2645
▁questioning	-10.2647
cal	-10.2652
ler	-10.2672
▁tonight	-10.2672
▁Big	-10.2673
▁dark	-10.2688
▁Wen	-10.2689
▁learn	-10.2689
io	-10.269
▁royal	-10.2692
▁Argentina	-10.2693
▁Blagojevich	-10.2693
▁HIV	-10.2693
▁Sarah	-10.2693
▁gap	-10.2694
▁Maryland	-10.2694
▁Yongbyon	-10.2695
▁solar	-10.2696
▁innocent	-10.2696
▁Sony	-10.2697
▁gang	-10.2701
▁Life	-10.2702
▁task	-10.2704
▁photo	-10.2704
▁matches	-10.2706
▁sector	-10.2706
▁smoking	-10.2707
:30	-10.271
▁ticket	-10.2711
▁Gold	-10.2714
▁managed	-10.2721
▁Lama	-10.2726
tra	-10.2732
▁diplomats	-10.2734
▁Ed	-10.2735
▁regulations	-10.2742
▁reaching	-10.2761
▁Mar	-10.2768
▁clean	-10.2772
▁wear	-10.2775
▁healthy	-10.2785
▁follows	-10.2787
▁celebrate	-10.2788
▁challenges	-10.2799
▁supported	-10.2802
▁strength	-10.2808
▁Hezbollah	-10.2808
▁legislation	-10.2808
▁Macau	-10.2808
▁frozen	-10.2809
▁flag	-10.2814
▁Post	-10.2815
▁lights	-10.2818
▁sit	-10.2821
▁difference	-10.2824
▁Islam	-10.283
▁musical	-10.2831
▁Dala	-10.2831
▁discussed	-10.2832
▁constitutional	-10.2844
▁warnings	-10.2847
▁destroy	-10.2854
▁accus	-10.2856
os	-10.2857
▁$3	-10.2863
azir	-10.2876
▁recall	-10.2886
▁lifted	-10.2891
▁fate	-10.2892
25	-10.29
▁presented	-10.2903
▁runs	-10.2912
▁remove	-10.2916
za	-10.2924
▁drove	-10.2924
▁funeral	-10.2924
▁firing	-10.2924
▁Berlin	-10.2924
▁standoff	-10.2926
▁Hall	-10.2931
▁democratic	-10.2934
▁tied	-10.2934
▁escaped	-10.2936
▁100,000	-10.2938
min	-10.2939
▁feeling	-10.2941
▁thank	-10.2941
▁refugee	-10.2948
▁Joe	-10.2952
▁Mary	-10.2952
ari	-10.2979
ny	-10.2983
▁Edwards	-10.3006
▁Car	-10.3012
▁skin	-10.3017
▁targets	-10.3038
▁Atlanta	-10.3042
▁Darfur	-10.3042
▁palace	-10.3042
▁tomorrow	-10.3042
▁Federer	-10.3042
hud	-10.3043
▁retired	-10.3045
▁wedding	-10.3045
▁Khan	-10.3046
▁hole	-10.3049
▁32	-10.3053
ci	-10.3054
▁highlight	-10.3064
▁driven	-10.3067
▁surge	-10.3067
▁internal	-10.3068
▁ability	-10.3074
▁older	-10.3074
▁boats	-10.3075
mi	-10.3082
▁36	-10.3083
▁inspectors	-10.3098
▁km	-10.3101
▁stores	-10.3103
▁falling	-10.3104
▁beating	-10.3104
▁resigned	-10.3106
har	-10.3112
▁couldn	-10.3112
▁Con	-10.3118
head	-10.312
▁clearly	-10.3127
▁””	-10.313
▁map	-10.3135
▁neighbors	-10.3136
▁schedule	-10.3146
▁materials	-10.3149
▁journey	-10.3161
▁digital	-10.3161
▁memory	-10.3161
▁grew	-10.3162
▁gunmen	-10.3162
▁northeast	-10.3162
▁Barcelona	-10.3163
▁Abdullah	-10.3163
▁meaning	-10.3168
▁fallen	-10.3168
▁enemy	-10.3169
▁pursu	-10.317
▁advance	-10.3176
▁Indonesian	-10.3176
▁failing	-10.3179
ac	-10.3187
▁delivery	-10.3192
▁recovered	-10.3193
▁euro	-10.3204
op	-10.3208
▁founder	-10.3218
▁responded	-10.3223
As	-10.3223
ko	-10.3238
▁V	-10.3246
so	-10.3256
▁Mu	-10.3259
▁cat	-10.3264
▁permanent	-10.3265
▁fair	-10.3266
▁Lu	-10.3269
▁survive	-10.3277
▁Bangkok	-10.3281
▁YouTube	-10.3281
▁captain	-10.3281
▁greet	-10.3281
▁margin	-10.3281
▁Jesus	-10.3281
▁Hwang	-10.3282
▁Still	-10.3282
▁bottom	-10.3287
▁du	-10.3289
▁First	-10.3295
▁medicine	-10.3307
▁predicted	-10.3309
▁drivers	-10.3309
▁restaurant	-10.3309
▁outbreak	-10.3309
▁tree	-10.3309
▁reflect	-10.331
▁wall	-10.331
▁findings	-10.3315
style	-10.3317
▁reporting	-10.3318
▁appointed	-10.3319
Watch	-10.332
▁offers	-10.3334
▁nor	-10.3336
.3	-10.3338
▁option	-10.3338
▁features	-10.334
▁Jan	-10.3356
pa	-10.3358
▁limit	-10.3379
▁Ask	-10.339
▁Authority	-10.3403
▁Square	-10.3403
▁Sydney	-10.3403
▁Reagan	-10.3403
▁shopping	-10.3404
▁vast	-10.3404
▁Gulf	-10.3404
ig	-10.3404
▁44	-10.3408
▁chosen	-10.3408
▁alternative	-10.3415
▁farm	-10.3423
▁emissions	-10.3424
▁Super	-10.3425
▁provinces	-10.3426
everal	-10.3428
▁Six	-10.3432
▁gathering	-10.3438
▁resources	-10.3443
third	-10.3444
ju	-10.3459
▁Zealand	-10.3466
▁shared	-10.3467
▁Do	-10.3473
ai	-10.3482
▁individuals	-10.349
▁export	-10.3495
bu	-10.35
▁hospitals	-10.3507
▁technical	-10.3507
ov	-10.3511
▁arrive	-10.3512
▁convention	-10.3512
hu	-10.3518
▁Rights	-10.3522
▁closely	-10.3524
▁text	-10.3526
▁Yonhap	-10.3527
▁radical	-10.3527
▁stability	-10.3527
▁changing	-10.3527
▁leads	-10.3528
▁collection	-10.3529
▁Though	-10.353
jung	-10.353
▁Scientists	-10.3531
▁pregnant	-10.3532
▁Near	-10.3532
▁aides	-10.3532
▁Mars	-10.354
▁rockets	-10.3544
▁larger	-10.3548
▁write	-10.3556
▁militia	-10.356
▁resident	-10.356
▁3-	-10.3561
dy	-10.3565
▁van	-10.3568
▁controlled	-10.359
▁spy	-10.3593
▁Just	-10.3599
▁teachers	-10.3599
▁recorded	-10.361
▁treat	-10.3618
▁options	-10.3622
▁fit	-10.3624
con	-10.3633
▁Scotland	-10.3652
▁Development	-10.3652
▁Foundation	-10.3652
▁observers	-10.3653
▁Major	-10.3654
▁tiny	-10.3654
▁Law	-10.3655
▁attitude	-10.3657
▁surrounded	-10.3659
▁Venezuelan	-10.3661
▁Inter	-10.3665
ard	-10.3667
▁requested	-10.367
▁repeatedly	-10.367
▁design	-10.3672
▁pledge	-10.3674
▁magnitude	-10.3675
▁striker	-10.3679
▁commit	-10.3684
▁survived	-10.3686
▁suspicion	-10.3687
▁individual	-10.3689
▁illegally	-10.3703
▁Rock	-10.3712
▁signal	-10.3716
wept	-10.3717
▁planes	-10.372
▁Van	-10.3721
▁awards	-10.3725
▁import	-10.3729
ice	-10.3732
▁34	-10.3746
▁2008.	-10.3763
▁wealth	-10.3765
▁couples	-10.3768
▁Mr	-10.3774
▁trail	-10.3776
▁Jersey	-10.3778
▁Vladimir	-10.3778
▁convoy	-10.3778
▁Delta	-10.3779
▁Director	-10.3779
▁Instead	-10.378
▁pace	-10.378
▁gunman	-10.3781
▁acting	-10.3786
▁maybe	-10.3788
▁fill	-10.3788
▁cultural	-10.3789
▁campus	-10.3792
▁staying	-10.3798
▁Dong	-10.3799
▁inflation	-10.3803
▁reduction	-10.382
largest	-10.3823
▁brand	-10.3824
▁highway	-10.3826
▁waste	-10.3827
zo	-10.3828
▁producer	-10.3829
▁flooding	-10.383
▁adults	-10.3832
▁identify	-10.384
▁accord	-10.3842
den	-10.3852
▁remember	-10.3856
▁papers	-10.3863
▁banking	-10.3905
▁Abdul	-10.3906
▁Intelligence	-10.3907
▁Investigator	-10.3907
▁disarmament	-10.3907
▁1970	-10.3908
▁birthday	-10.3909
▁Young	-10.3911
▁pretty	-10.3913
▁successor	-10.3914
▁erupted	-10.3915
▁length	-10.3917
▁$8	-10.3923
▁funding	-10.393
▁performed	-10.394
▁stronger	-10.3941
▁younger	-10.3943
▁channel	-10.3948
▁demonstration	-10.3951
▁organizers	-10.3951
democracy	-10.3953
General	-10.3953
ell	-10.3959
▁nav	-10.3964
▁knows	-10.3971
▁Lo	-10.398
pi	-10.3982
▁note	-10.3983
▁suspend	-10.3984
▁powers	-10.3987
bo	-10.3994
▁anger	-10.4012
▁slow	-10.4026
▁congress	-10.4035
▁tsunami	-10.4037
▁Hotel	-10.4037
▁bigger	-10.4039
▁Stone	-10.4039
▁stepped	-10.4043
▁Dick	-10.4044
▁noted	-10.4046
▁mph	-10.405
▁lock	-10.4053
▁shock	-10.4058
▁46	-10.4062
▁squad	-10.4065
▁metal	-10.4071
air	-10.4073
▁adopted	-10.4079
▁promot	-10.4082
▁guy	-10.4082
pound	-10.4084
▁runway	-10.4084
▁stretch	-10.4085
People	-10.4085
winning	-10.4085
election	-10.4093
▁$100	-10.4098
▁pose	-10.4101
▁generation	-10.4106
▁survivors	-10.411
▁patrol	-10.4145
ning	-10.4149
▁participate	-10.4153
▁Madeleine	-10.4168
▁Manhattan	-10.4168
▁supposed	-10.4168
▁BAGHDAD	-10.4168
▁verdict	-10.4168
▁entertainment	-10.4168
▁Patrick	-10.4168
▁stories	-10.4169
▁appointment	-10.4169
▁Financial	-10.417
▁comedy	-10.4171
▁62	-10.4182
▁Before	-10.4183
▁divided	-10.4185
▁views	-10.4191
▁Speaker	-10.4204
▁Representatives	-10.4211
▁communications	-10.4212
▁How	-10.4216
▁artist	-10.4222
▁profit	-10.4224
▁shoot	-10.4228
▁2005.	-10.423
▁filled	-10.4241
▁colleagues	-10.4258
▁style	-10.4259
▁super	-10.4263
▁militias	-10.4265
▁assembly	-10.4277
▁temperatures	-10.4281
””	-10.4284
▁opponents	-10.4284
▁Alexander	-10.4301
▁Elizabeth	-10.4301
▁Osama	-10.4301
▁plastic	-10.4301
▁genetic	-10.4302
▁preliminar	-10.4302
▁intention	-10.4304
▁outcome	-10.4304
▁Atlantic	-10.4309
▁capable	-10.4311
▁expand	-10.4317
▁Oil	-10.4321
▁sharply	-10.4322
red	-10.4326
▁fan	-10.4327
▁2.5	-10.4328
▁aren	-10.4331
▁Ro	-10.4339
▁strip	-10.4343
▁wins	-10.4343
▁guards	-10.4344
▁forum	-10.4345
▁Pa	-10.4346
▁counterpart	-10.4354
▁bound	-10.4356
drew	-10.4357
ow	-10.436
▁hundred	-10.4363
ick	-10.4364
fa	-10.4365
▁astronauts	-10.4379
▁enjoy	-10.4381
▁Chris	-10.4395
▁messages	-10.4402
00	-10.4409
▁accounts	-10.4427
▁Hawaii	-10.4437
▁Vatican	-10.4437
▁apply	-10.4437
▁coffee	-10.4437
▁soccer	-10.4437
▁worried	-10.4437
▁intense	-10.4437
▁disappointed	-10.4437
▁Kevin	-10.4437
▁understanding	-10.4437
▁Islamist	-10.4439
▁discovery	-10.4442
▁appropriate	-10.4445
▁Song	-10.4452
▁drawn	-10.4454
▁troubled	-10.4461
▁Because	-10.4462
▁Easter	-10.4464
▁threaten	-10.447
▁express	-10.4471
▁license	-10.4475
▁expectations	-10.4477
▁Ear	-10.4478
sex	-10.4479
all	-10.448
▁replaced	-10.448
our	-10.4487
▁fun	-10.4491
▁mortgage	-10.4491
▁Steven	-10.4493
▁2007,	-10.4493
▁Science	-10.4493
▁automaker	-10.4494
▁teacher	-10.4497
▁discussion	-10.4499
▁astronaut	-10.45
▁orders	-10.451
▁color	-10.4514
member	-10.4518
.5	-10.4519
▁abandon	-10.452
▁blocked	-10.4523
▁Jo	-10.4523
▁sp	-10.4559
▁directing	-10.4562
▁airports	-10.4566
ical	-10.4568
▁Po	-10.4569
▁Men	-10.457
ana	-10.4572
▁Stephen	-10.4573
▁bail	-10.4573
lin	-10.4573
▁capacity	-10.4574
▁trend	-10.4574
▁switch	-10.4574
▁Boeing	-10.4574
▁standard	-10.4575
▁tend	-10.4575
▁Egyptian	-10.4576
▁accuse	-10.4576
▁punishment	-10.4576
▁enforcement	-10.4578
▁Senna	-10.4579
▁firms	-10.4581
▁depend	-10.4582
▁upper	-10.4585
▁20,000	-10.4591
▁begins	-10.4592
law	-10.4595
▁reading	-10.46
▁65	-10.4607
▁Arm	-10.4611
▁bloody	-10.4613
▁registered	-10.4616
▁Lt	-10.4622
▁counts	-10.4626
▁cleared	-10.4628
70	-10.4631
free	-10.4632
▁scientist	-10.4636
For	-10.4637
8,000	-10.4645
▁positions	-10.4652
▁diet	-10.4653
▁pop	-10.4676
ger	-10.4683
▁ski	-10.4685
▁divorce	-10.4697
▁flames	-10.4698
▁Sam	-10.47
▁helicopters	-10.4701
▁article	-10.4702
▁Ra	-10.4703
▁Philippines	-10.4707
▁editor	-10.4712
▁motor	-10.4712
▁cease	-10.4712
▁Hampshire	-10.4712
▁Phoenix	-10.4712
▁guild	-10.4712
▁televised	-10.4712
▁typical	-10.4712
▁queen	-10.4712
▁routine	-10.4713
▁expensive	-10.4713
▁Judge	-10.4713
▁Buddhist	-10.4713
▁wing	-10.4715
▁deny	-10.4715
▁Journal	-10.4722
▁faster	-10.4725
▁none	-10.4725
▁infected	-10.4727
▁Good	-10.4728
chi	-10.4735
▁briefly	-10.4737
▁Rep	-10.4739
▁nominated	-10.474
▁61	-10.4747
▁restore	-10.4747
▁loved	-10.4756
ven	-10.4765
▁800	-10.4767
▁publicly	-10.4768
▁error	-10.4775
▁paying	-10.4777
▁seconds	-10.4781
▁2007.	-10.4784
▁reforms	-10.4801
ions	-10.4817
▁restaurants	-10.4821
▁Ya	-10.4824
▁directed	-10.4826
▁Serbia	-10.4846
▁Tim	-10.485
▁Mohammad	-10.4853
▁Pelosi	-10.4853
▁Petraeus	-10.4853
▁Shanghai	-10.4853
▁easier	-10.4853
▁shrine	-10.4853
▁watchdog	-10.4853
▁GOP	-10.4853
▁Miami	-10.4853
▁Board	-10.4854
▁1995	-10.4854
▁charity	-10.4855
▁Kerry	-10.4855
▁transportation	-10.4856
▁unlikely	-10.4857
▁beaten	-10.486
▁sensitive	-10.4863
▁circumstances	-10.4867
▁tall	-10.4872
▁beef	-10.4885
▁argued	-10.4887
▁obtained	-10.4892
▁1994	-10.4896
▁Rome	-10.4899
▁nominations	-10.49
▁aware	-10.4912
young	-10.4913
▁1,	-10.4913
▁GMT	-10.4916
▁warrant	-10.4922
▁window	-10.4923
▁violation	-10.4924
mile	-10.4924
▁stressed	-10.4927
ris	-10.4928
▁villages	-10.4937
▁succeed	-10.4942
que	-10.4944
▁33	-10.4945
▁payments	-10.4947
▁Ja	-10.4948
▁47	-10.4951
▁truth	-10.4955
▁Services	-10.4958
▁trees	-10.4963
▁wouldn	-10.4965
ina	-10.4969
▁regions	-10.4986
▁newly	-10.4987
▁stone	-10.4989
▁sight	-10.4993
▁contests	-10.4994
▁journal	-10.4994
▁Ahmadinejad	-10.4996
▁Control	-10.4996
▁Finance	-10.4996
▁Islamabad	-10.4996
▁Portugal	-10.4996
▁depression	-10.4996
▁nature	-10.4996
▁communities	-10.4996
▁immigration	-10.4996
electoral	-10.4996
▁departure	-10.4996
▁breakthrough	-10.4996
▁lady	-10.4997
▁emerged	-10.5002
▁Fox	-10.5003
▁trains	-10.5005
▁Chile	-10.5007
▁Congo	-10.5012
▁causes	-10.5015
Once	-10.5017
▁boys	-10.5059
▁talked	-10.5061
▁division	-10.5066
▁clinic	-10.5066
▁McCann	-10.5066
▁prospect	-10.5067
▁$6	-10.5084
▁string	-10.5086
▁implement	-10.5087
▁owners	-10.5098
▁briefing	-10.5099
▁fires	-10.5108
war	-10.5119
▁urge	-10.5123
▁Ne	-10.5124
▁escape	-10.5126
ki	-10.5131
han	-10.5132
bbed	-10.5136
▁Researcher	-10.5139
▁knock	-10.514
ade	-10.5141
▁Almeida	-10.5141
▁UEFA	-10.5141
▁rallies	-10.5141
▁receiving	-10.5141
▁IOC	-10.5141
▁harsh	-10.5141
▁Hicks	-10.5141
▁gasoline	-10.5141
▁Basra	-10.5141
▁sovereignty	-10.5141
▁Nancy	-10.5141
▁stance	-10.5141
▁1996	-10.5142
▁veto	-10.5142
▁stable	-10.5143
▁Morgan	-10.5144
j	-10.5145
▁Pope	-10.5145
▁shape	-10.5146
▁Gore	-10.5149
▁Second	-10.5149
▁settlement	-10.515
▁distance	-10.5152
▁Frank	-10.5153
▁neck	-10.5154
.4	-10.5159
▁Over	-10.5159
▁apologized	-10.5168
▁plus	-10.5173
▁stands	-10.5178
▁camps	-10.5188
▁rescued	-10.5189
▁Indiana	-10.5191
▁la	-10.5194
▁estimate	-10.5206
▁decisions	-10.5209
page	-10.5213
▁pitch	-10.522
▁boom	-10.5222
▁established	-10.5236
▁imports	-10.5244
▁Or	-10.5244
than	-10.5265
▁moderate	-10.5265
▁add	-10.5267
▁teen	-10.5269
V	-10.5274
▁tradition	-10.5277
▁con	-10.5278
▁breaking	-10.5278
▁recognize	-10.5282
ji	-10.5283
▁dealing	-10.5285
▁knowledge	-10.5286
▁Jewish	-10.5288
▁easily	-10.5288
▁primaries	-10.5288
▁stimulus	-10.5288
▁testimony	-10.5288
▁yellow	-10.5288
▁Airbus	-10.5288
▁battling	-10.5288
▁participants	-10.5288
▁Valley	-10.5288
▁peak	-10.5288
▁Lohan	-10.5288
▁Kingdom	-10.5289
▁firefighters	-10.5289
▁southwestern	-10.5289
▁yen	-10.5289
▁Staff	-10.529
▁Columbia	-10.5291
▁Global	-10.5291
▁prepare	-10.5293
▁abducted	-10.5298
▁rapidly	-10.5299
▁exactly	-10.53
▁links	-10.5302
▁factory	-10.5302
rank	-10.5305
▁bed	-10.5307
▁sick	-10.5308
▁object	-10.5313
▁thinking	-10.5317
pl	-10.5326
▁burning	-10.5333
jo	-10.5334
▁guns	-10.5341
field	-10.5345
▁eating	-10.5349
▁teens	-10.5358
▁legs	-10.5362
▁king	-10.5363
▁Il	-10.5363
▁feature	-10.5369
▁vacation	-10.537
▁invest	-10.538
▁Somali	-10.539
▁pursue	-10.5425
▁Jim	-10.5428
▁beer	-10.5429
▁Austria	-10.543
▁handle	-10.5433
▁afford	-10.5435
▁Jordan	-10.5437
▁Ambassador	-10.5437
▁BEIJING	-10.5437
▁Benedict	-10.5437
▁Czech	-10.5437
▁Greece	-10.5437
▁Joseph	-10.5437
▁Mississippi	-10.5437
▁Mumbai	-10.5437
▁Swiss	-10.5437
▁manufacturing	-10.5437
▁multiple	-10.5437
▁reiterat	-10.5437
▁cabinet	-10.5438
▁enrichment	-10.5438
▁effective	-10.544
▁unknown	-10.544
▁Henry	-10.5442
▁Radio	-10.5443
▁mainland	-10.5444
hal	-10.5457
▁marks	-10.546
▁16-	-10.5469
Larry	-10.5473
▁hotels	-10.549
▁Awards	-10.5491
▁sole	-10.5505
runner	-10.5508
▁ages	-10.5511
▁acts	-10.5514
right	-10.5518
▁section	-10.5523
▁adult	-10.5525
ik	-10.553
▁strain	-10.5536
▁reveal	-10.5537
▁$7	-10.5541
TA	-10.556
ped	-10.5563
▁capture	-10.5578
▁Mac	-10.5578
▁ho	-10.558
▁solve	-10.5581
▁tackle	-10.5582
▁welcom	-10.5583
▁Information	-10.5589
▁Kibaki	-10.5589
▁debris	-10.5589
▁identity	-10.5589
▁occupation	-10.5589
▁legend	-10.5589
▁everybody	-10.559
▁hail	-10.559
▁caucuses	-10.559
▁2010	-10.5591
▁Mexican	-10.5592
▁toxic	-10.5593
▁mate	-10.5593
▁detonated	-10.5593
▁sand	-10.5597
▁30,000	-10.5601
formally	-10.5606
▁IAEA	-10.5606
ill	-10.561
▁AIDS	-10.5613
▁Maj	-10.5614
▁24-	-10.5614
▁degrees	-10.5616
▁Go	-10.5621
▁granted	-10.5624
▁grown	-10.5624
end	-10.5625
TV	-10.5637
▁violated	-10.5639
▁floods	-10.5639
▁pirates	-10.5658
▁o	-10.5663
▁factor	-10.5674
▁sitt	-10.5678
▁shelter	-10.5679
▁airstrike	-10.568
▁shop	-10.5682
▁classic	-10.5683
50	-10.5684
ya	-10.5697
▁Z	-10.5703
fe	-10.5707
▁crowds	-10.5716
▁song	-10.5723
▁thanks	-10.5725
▁northwest	-10.5729
▁39	-10.5731
▁drawing	-10.5733
ber	-10.574
▁faith	-10.574
▁Disney	-10.5742
▁Only	-10.5743
▁1991	-10.5743
▁Ghazni	-10.5743
▁Museum	-10.5743
▁plutonium	-10.5743
▁PC	-10.5743
▁worries	-10.5743
▁Delhi	-10.5743
▁stick	-10.5743
▁scientific	-10.5743
▁Jack	-10.5743
▁1960	-10.5744
ef	-10.5746
▁confident	-10.5746
▁familiar	-10.5749
▁pope	-10.5756
▁greatest	-10.5757
▁stalled	-10.5758
▁Ru	-10.5781
▁mixed	-10.5781
▁describ	-10.579
▁monitoring	-10.5799
▁Ka	-10.5806
South	-10.5816
▁Sri	-10.582
▁machine	-10.5843
▁bombers	-10.5847
ranging	-10.5848
range	-10.585
▁Bob	-10.5851
▁Cha	-10.5869
▁Time	-10.5871
20	-10.5872
▁values	-10.5876
▁compete	-10.5883
▁feared	-10.5884
▁41	-10.5896
▁civic	-10.5899
▁maximum	-10.5899
▁Mohamed	-10.5899
▁false	-10.5899
▁FARC	-10.5899
▁native	-10.5899
▁shore	-10.5899
▁Castro	-10.5899
▁dinner	-10.5899
▁surveillance	-10.5899
▁Roger	-10.5899
▁midnight	-10.5899
▁Poland	-10.59
▁rice	-10.59
▁Beach	-10.59
▁contained	-10.5901
▁Alex	-10.5901
▁Mount	-10.5902
▁56	-10.5902
▁clothes	-10.5907
▁Andrew	-10.5908
▁2,	-10.5909
▁duty	-10.5915
60	-10.5916
▁64	-10.5923
ping	-10.5931
▁selected	-10.5931
▁page	-10.5934
▁dress	-10.5935
▁hunt	-10.5944
Y	-10.5948
▁samples	-10.5964
▁bird	-10.5978
▁windows	-10.598
▁strict	-10.5992
▁devices	-10.5996
won	-10.5997
▁bullet	-10.5998
▁studio	-10.5999
▁diplomat	-10.5999
▁59	-10.6
▁2004.	-10.6001
ship	-10.6006
ization	-10.6007
ative	-10.6009
▁winners	-10.6022
▁Award	-10.6027
tion	-10.6029
▁locations	-10.6043
▁Ar	-10.6045
▁structure	-10.6049
▁guests	-10.6051
▁leaves	-10.6052
▁Hudson	-10.6058
▁Switzerland	-10.6058
▁concrete	-10.6058
▁numerous	-10.6058
▁Power	-10.6058
ging	-10.6058
▁benchmark	-10.6058
▁edition	-10.6058
▁1993	-10.6058
▁priority	-10.6059
▁documentary	-10.606
▁Society	-10.606
▁moves	-10.6061
▁southwest	-10.6063
▁bills	-10.6064
tro	-10.6065
▁oldest	-10.6066
"".	-10.6071
▁mail	-10.6078
▁complained	-10.6084
ily	-10.6086
▁normally	-10.6088
▁producing	-10.6102
kin	-10.6103
?"	-10.6105
▁settle	-10.6107
▁Somalia	-10.6109
▁react	-10.611
most	-10.6135
▁Gul	-10.6138
hand	-10.6141
not	-10.6155
▁Can	-10.6158
ast	-10.6159
▁veteran	-10.6163
lu	-10.6164
▁adopt	-10.6165
▁chemical	-10.6168
▁communication	-10.6169
ition	-10.6172
▁cameras	-10.6191
▁balance	-10.6204
▁approve	-10.6204
▁achieve	-10.6207
▁flood	-10.621
▁freeze	-10.6215
▁chest	-10.6215
▁videos	-10.6218
▁Philip	-10.6219
ville	-10.6219
▁Rescue	-10.6219
▁contrast	-10.6219
▁globe	-10.6219
▁bankruptcy	-10.6219
▁exposure	-10.6219
▁hurricane	-10.6219
▁1992	-10.622
▁Chun	-10.622
quo	-10.6223
▁Seven	-10.6223
▁Richardson	-10.6223
▁Pitt	-10.6224
▁transferred	-10.6227
▁glass	-10.6228
▁league	-10.6236
▁weak	-10.6237
▁2008,	-10.6237
iya	-10.6242
▁Ryan	-10.6245
▁saved	-10.6249
▁mis	-10.6252
▁lying	-10.6254
▁slaves	-10.6257
▁whatever	-10.6257
round	-10.6258
▁scores	-10.626
mar	-10.6262
▁leak	-10.6262
wing	-10.6276
10	-10.6276
▁amounts	-10.6292
▁fields	-10.6294
known	-10.6297
.8	-10.6304
▁willing	-10.6318
▁cool	-10.6318
▁mistake	-10.6323
▁eat	-10.6323
▁desert	-10.6329
▁trigger	-10.633
▁household	-10.6331
▁explosive	-10.6332
▁Motor	-10.6333
▁bag	-10.6335
▁49	-10.6357
▁attending	-10.6363
▁letters	-10.6371
▁except	-10.6376
▁Camp	-10.6378
▁prince	-10.6378
ron	-10.6379
per	-10.638
▁Radcliffe	-10.6383
▁Festival	-10.6383
▁Nasdaq	-10.6383
▁announcing	-10.6383
▁privacy	-10.6383
▁spacecraft	-10.6383
▁Jobs	-10.6383
▁baseball	-10.6384
▁Workers	-10.6384
▁Sir	-10.6392
▁revolution	-10.6399
▁notice	-10.64
▁Chad	-10.64
▁plays	-10.6401
▁whales	-10.6402
▁foundation	-10.6407
aw	-10.6418
▁significantly	-10.6418
▁champions	-10.6419
▁busy	-10.642
▁purposes	-10.6424
▁cap	-10.6428
▁Moore	-10.6429
80	-10.6432
▁Motors	-10.6435
▁broadcaster	-10.6439
▁Join	-10.6457
▁worker	-10.6469
▁institutions	-10.6473
▁Mi	-10.6482
▁54	-10.6483
▁file	-10.6484
ster	-10.649
▁operate	-10.6491
▁chain	-10.6499
▁venue	-10.6499
▁experiment	-10.6499
▁tracks	-10.6502
.7	-10.6507
hee	-10.6507
▁w	-10.6508
▁citizen	-10.6511
▁shoes	-10.6513
roughly	-10.6518
▁68	-10.6521
▁Assistan	-10.6524
▁correct	-10.6535
▁crossed	-10.6537
km	-10.6539
▁Libya	-10.6542
row	-10.6546
▁exhibit	-10.6548
clusive	-10.6549
▁Scott	-10.6549
▁striking	-10.655
▁unrest	-10.655
▁College	-10.655
▁Antonio	-10.655
▁Latin	-10.655
▁petition	-10.655
▁fierce	-10.655
▁Club	-10.655
▁spotted	-10.6551
▁Tennessee	-10.6552
▁handling	-10.6554
▁poverty	-10.6555
▁authorized	-10.6559
▁sweep	-10.6559
▁entry	-10.6564
▁Cuban	-10.6565
▁improved	-10.6583
▁seventh	-10.6586
▁makers	-10.6591
▁missed	-10.6596
▁Maria	-10.6599
rin	-10.6603
▁symbol	-10.6608
▁Officer	-10.6617
▁Leader	-10.6625
ward	-10.6651
▁15-	-10.6653
▁approached	-10.6656
▁guarantee	-10.6657
US	-10.6665
▁condemn	-10.6665
▁4-	-10.6668
▁Revolution	-10.6669
les	-10.667
▁carrier	-10.6671
▁conversation	-10.6671
▁representative	-10.6673
▁employee	-10.6674
star	-10.6675
▁loan	-10.6675
▁stag	-10.6677
▁euros	-10.6685
90	-10.6696
▁declare	-10.6704
▁broad	-10.6712
▁(1	-10.6716
▁pet	-10.6716
▁Detroit	-10.6719
▁Philadelphia	-10.6719
▁celebrity	-10.6719
▁repair	-10.6719
▁retain	-10.6719
▁McCormack	-10.6719
▁sectarian	-10.6719
▁Murray	-10.6719
▁Unification	-10.6719
▁compensation	-10.6719
▁uh	-10.6719
▁anthem	-10.6719
▁worry	-10.672
▁Euro	-10.672
▁Eight	-10.6722
▁cargo	-10.6724
▁PKK	-10.6728
▁endangered	-10.6732
new	-10.6733
▁Tech	-10.6734
▁Jon	-10.6734
▁Miss	-10.6734
▁statements	-10.6735
▁2001,	-10.6735
▁denounc	-10.6737
▁oppose	-10.6738
▁successfully	-10.6745
▁2002,	-10.6753
▁soil	-10.6756
▁hopeful	-10.676
▁unity	-10.6762
▁1.5	-10.6764
▁5-	-10.6765
▁increases	-10.6768
▁bags	-10.6772
▁partners	-10.6781
▁withdrew	-10.6781
born	-10.6787
▁shops	-10.6787
▁factors	-10.679
ged	-10.6794
▁ten	-10.6811
▁Will	-10.6812
ide	-10.6816
▁weigh	-10.6819
qui	-10.6824
▁score	-10.683
wi	-10.6831
king	-10.6835
▁reject	-10.6837
well	-10.6846
▁economist	-10.6848
▁purpose	-10.6852
▁theater	-10.6855
▁Pan	-10.6873
▁120	-10.688
▁aged	-10.6881
▁illness	-10.6889
▁submit	-10.6891
▁urban	-10.6891
▁Athens	-10.6892
▁Capitol	-10.6892
▁WHO	-10.6892
▁Winehouse	-10.6892
▁referendum	-10.6892
▁Lake	-10.6892
▁sentiment	-10.6892
▁Donald	-10.6892
▁float	-10.6892
▁Airways	-10.6892
▁Palace	-10.6892
▁Davis	-10.6892
▁slowdown	-10.6892
▁Carter	-10.6892
▁acres	-10.6893
▁Christ	-10.6893
▁1,500	-10.6893
▁Elect	-10.6894
▁Gazprom	-10.6894
▁Children	-10.6895
▁popularity	-10.6897
▁backing	-10.6898
▁stroke	-10.69
▁icon	-10.6902
▁Old	-10.6903
▁temporary	-10.6904
▁200,000	-10.6905
▁publication	-10.691
▁advertising	-10.6913
▁600	-10.6913
ei	-10.6919
▁centers	-10.6921
▁surprised	-10.6922
45	-10.6925
▁Aung	-10.6926
▁riding	-10.6927
▁agents	-10.6933
▁athletes	-10.6948
▁experienced	-10.6955
▁hitt	-10.6956
▁addressed	-10.6964
▁aside	-10.6974
down	-10.6975
▁raids	-10.6981
With	-10.6984
▁Sha	-10.6986
ese	-10.6996
▁Ke	-10.7001
▁fishing	-10.7006
▁Doctor	-10.7015
q	-10.7016
▁weaken	-10.7016
light	-10.7023
▁2003,	-10.7023
gi	-10.7025
▁prais	-10.7035
▁delegate	-10.7037
▁complaint	-10.7039
▁cruise	-10.704
▁Bell	-10.704
tech	-10.7053
▁Kuwait	-10.7054
▁Sever	-10.7058
▁electric	-10.706
ranking	-10.7061
▁53	-10.7061
▁Caribbean	-10.7067
▁Education	-10.7067
▁Erdogan	-10.7067
▁Odinga	-10.7067
▁Romney	-10.7067
▁Wolfowitz	-10.7067
▁burst	-10.7067
▁inauguration	-10.7067
▁legislative	-10.7067
▁pregnancy	-10.7067
▁scheme	-10.7067
▁variety	-10.7067
▁Sichuan	-10.7067
▁Ireland	-10.7067
▁instance	-10.7067
▁Greek	-10.7067
▁Corporation	-10.7067
▁Powell	-10.7067
▁Yong	-10.7067
▁Winter	-10.7067
▁Gambari	-10.7068
▁underground	-10.7069
▁reward	-10.7069
▁Chong	-10.7069
▁dust	-10.7071
ker	-10.7072
▁indicted	-10.7074
▁Kate	-10.7077
▁sponsor	-10.708
▁rail	-10.7081
▁bitter	-10.7082
▁eighth	-10.7083
▁Water	-10.7086
▁county	-10.7093
▁slamm	-10.7095
gu	-10.71
ze	-10.7103
▁pointed	-10.7104
▁code	-10.7105
▁graduate	-10.7111
▁4,000	-10.7111
▁Rod	-10.7129
qu	-10.7142
izing	-10.7147
ink	-10.7151
▁recalled	-10.7152
▁cave	-10.7153
profile	-10.7161
▁Ni	-10.7172
▁promotion	-10.7175
▁profits	-10.7178
ou	-10.7181
▁Gu	-10.7181
All	-10.7182
▁unions	-10.7186
ue	-10.719
gen	-10.7194
▁listen	-10.7197
▁turns	-10.7198
▁volunteers	-10.7199
▁Cor	-10.7204
▁walls	-10.7205
slated	-10.7206
▁gallon	-10.7213
▁Mer	-10.7214
▁GM	-10.7214
▁bright	-10.722
▁historical	-10.7221
meter	-10.7223
▁doors	-10.7226
▁Free	-10.7228
▁Corps	-10.7229
▁Week	-10.723
▁appealed	-10.724
▁apologize	-10.7243
One	-10.7245
▁lobby	-10.7245
▁luxur	-10.7245
▁Gonzales	-10.7246
▁Mehdi	-10.7246
▁Netherlands	-10.7246
▁Taylor	-10.7246
▁swimming	-10.7246
▁advice	-10.7246
▁Jerry	-10.7246
▁spill	-10.7246
▁submitted	-10.7246
▁breach	-10.7247
▁Phil	-10.7247
▁Emergency	-10.7248
▁Later	-10.7248
▁constant	-10.7249
▁earth	-10.725
▁negotiate	-10.7251
40	-10.7253
▁decid	-10.7255
▁cards	-10.7256
▁isolated	-10.7256
▁wonder	-10.7256
▁indicat	-10.7264
▁bases	-10.7267
▁Yi	-10.7268
▁monitor	-10.7271
▁66	-10.7273
hit	-10.7273
▁pleaded	-10.7276
▁Da	-10.7278
▁detected	-10.7279
▁topped	-10.728
▁matters	-10.7293
▁fix	-10.7306
▁objects	-10.7327
▁$9	-10.733
▁ma	-10.734
▁print	-10.7346
▁wine	-10.7355
▁58	-10.7366
▁wish	-10.7369
▁clash	-10.7372
▁assist	-10.7381
named	-10.7382
▁conclusion	-10.7389
▁shots	-10.739
▁Chen	-10.7394
▁shortages	-10.7396
▁wounds	-10.7403
▁thousand	-10.7404
▁250	-10.7405
ther	-10.7405
▁mental	-10.7411
▁contracts	-10.7411
▁attorneys	-10.7415
▁retail	-10.7417
▁slipp	-10.7423
▁vital	-10.7426
▁Portuguese	-10.7427
▁Sharapova	-10.7427
▁Television	-10.7427
▁tunnel	-10.7427
▁improving	-10.7427
▁Darwin	-10.7427
▁chaos	-10.7428
▁motion	-10.7428
▁lake	-10.7428
▁phase	-10.7428
▁Nowak	-10.743
▁Peru	-10.7431
▁ordinary	-10.7435
▁degree	-10.7437
▁boyfriend	-10.7438
▁homeland	-10.7445
board	-10.7447
can	-10.7449
▁incidents	-10.7453
▁premier	-10.7472
▁resumed	-10.7475
low	-10.7482
▁Analysts	-10.7482
ned	-10.7483
▁negotiators	-10.7484
▁Per	-10.7484
▁kick	-10.7486
▁potentially	-10.7487
av	-10.7496
▁abandoned	-10.7498
▁strengthen	-10.7503
▁homeless	-10.751
▁uses	-10.7514
▁Ron	-10.7518
▁Un	-10.7524
week	-10.7528
face	-10.7532
▁automakers	-10.7534
▁negotiat	-10.7534
dis	-10.7544
▁insist	-10.7545
▁ends	-10.7546
ack	-10.7551
▁feed	-10.7557
▁signals	-10.7559
▁$20	-10.7566
▁63	-10.7569
▁provides	-10.7572
▁Here	-10.7578
▁blaze	-10.7578
▁passport	-10.758
▁cloud	-10.758
▁cable	-10.7585
▁teenager	-10.7586
▁Bangladesh	-10.7592
15	-10.7593
▁engage	-10.7594
shaped	-10.7596
▁fatal	-10.7601
▁Lanka	-10.7605
▁notes	-10.7605
▁characters	-10.7609
▁Barbara	-10.7613
▁Federation	-10.7613
▁Guantanamo	-10.7613
▁Jakarta	-10.7613
▁Memorial	-10.7613
▁Orleans	-10.7613
▁Wimbledon	-10.7613
▁consecutive	-10.7613
▁ocean	-10.7613
▁turmoil	-10.7613
▁tobacco	-10.7613
▁neither	-10.7613
▁Merkel	-10.7613
▁Morning	-10.7613
▁Local	-10.7613
▁relocation	-10.7613
▁hint	-10.7613
▁greenhouse	-10.7613
▁6-4	-10.7613
▁Arsenal	-10.7613
▁Albert	-10.7614
▁Hugo	-10.7614
▁curb	-10.7614
▁golf	-10.7614
▁miners	-10.7615
▁stolen	-10.7616
▁pour	-10.7616
▁Wales	-10.7617
▁flash	-10.7617
▁Warner	-10.7617
▁copy	-10.7618
▁runoff	-10.7618
▁mom	-10.762
▁pleased	-10.7623
▁suddenly	-10.7626
▁portion	-10.7626
ek	-10.7626
▁emotional	-10.7628
▁disappeared	-10.763
▁Princess	-10.763
▁campaigning	-10.7633
▁photographs	-10.7634
▁20-	-10.7635
ert	-10.7638
▁abus	-10.7638
iz	-10.7638
▁hide	-10.764
▁Ga	-10.7647
▁superdelegates	-10.7648
▁violat	-10.765
▁safely	-10.7665
▁recording	-10.767
▁$25	-10.7678
▁networks	-10.7679
▁bars	-10.768
port	-10.7682
▁sons	-10.7682
▁resolved	-10.7686
her	-10.7695
▁adds	-10.77
▁drink	-10.7705
▁interested	-10.7706
▁8-	-10.7707
use	-10.7708
▁units	-10.7715
water	-10.7716
controlled	-10.7718
▁learning	-10.772
▁LO	-10.7723
room	-10.7731
▁friendly	-10.7733
▁Har	-10.7733
iling	-10.7734
▁representing	-10.7736
▁130	-10.7738
▁diamond	-10.7773
▁Fund	-10.7773
▁revenue	-10.7774
▁medal	-10.7774
ility	-10.7776
▁barrels	-10.7778
▁Yu	-10.7779
▁happening	-10.7784
▁desire	-10.7785
▁chair	-10.779
▁tool	-10.7791
▁cheap	-10.7794
med	-10.7795
▁Top	-10.7797
▁teenage	-10.7798
▁impose	-10.7799
▁flat	-10.7799
▁Tsvangirai	-10.7801
▁ambush	-10.7801
▁stuff	-10.7801
▁residence	-10.7801
▁Light	-10.7802
▁hike	-10.7802
▁Sweden	-10.7802
▁possession	-10.7802
▁northeastern	-10.7803
▁gear	-10.7804
▁Louisiana	-10.7804
has	-10.7804
▁confrontation	-10.7806
▁reserved	-10.7808
▁classified	-10.7811
▁crown	-10.7813
▁combined	-10.7813
▁parent	-10.7814
▁hall	-10.7815
sized	-10.7819
▁battles	-10.7819
▁ousted	-10.7822
▁clothing	-10.7826
▁administrative	-10.7826
▁shootings	-10.783
▁wartime	-10.783
▁assessment	-10.7831
▁advanced	-10.784
▁pound	-10.7842
set	-10.7851
▁disputed	-10.7853
▁sexually	-10.7858
▁investigations	-10.7861
▁extremists	-10.7867
▁accusations	-10.7867
▁700	-10.7871
▁suffer	-10.7876
▁deeply	-10.7877
mm	-10.789
▁12-	-10.7893
▁waves	-10.7901
ble	-10.7902
▁towns	-10.791
▁photograph	-10.7913
▁Du	-10.7913
bi	-10.7913
Nuri	-10.7927
▁Northeast	-10.7937
▁tie	-10.7939
▁obtain	-10.7941
▁Je	-10.7946
▁moon	-10.7951
ullah	-10.7952
▁Che	-10.7953
▁Virgin	-10.7958
▁controls	-10.7967
▁Blue	-10.7968
▁whale	-10.797
▁Our	-10.7971
▁Base	-10.7974
▁conservation	-10.7978
5,000	-10.7979
▁aggressive	-10.7983
▁designat	-10.7984
mate	-10.7989
▁storms	-10.7992
▁stream	-10.7993
▁ANGELES	-10.7994
▁Alliance	-10.7994
▁Cruise	-10.7994
▁Metropoli	-10.7994
▁clinch	-10.7994
▁reconciliation	-10.7994
▁Management	-10.7994
▁iPhone	-10.7994
▁Amazon	-10.7994
▁Media	-10.7994
▁technologies	-10.7994
▁Graham	-10.7994
▁republic	-10.7994
▁impossible	-10.7994
▁1989	-10.7994
▁laid	-10.7995
▁truce	-10.7995
▁hub	-10.7995
▁copies	-10.7995
▁membership	-10.7996
▁sheriff	-10.7996
▁cup	-10.7996
▁Hamid	-10.7997
▁replacement	-10.7997
▁rescuers	-10.7998
▁volume	-10.7998
▁timetable	-10.7998
▁loyal	-10.8
▁starr	-10.8001
▁minimum	-10.8001
▁executed	-10.8002
ib	-10.8003
▁prevented	-10.8004
▁convinced	-10.8005
▁Like	-10.8006
▁Jae	-10.801
▁Mass	-10.8011
▁behalf	-10.8014
▁Q	-10.8014
▁informed	-10.8015
▁thin	-10.8016
▁concessions	-10.8017
▁Bond	-10.802
▁yes	-10.802
▁Paulo	-10.802
▁Masters	-10.8022
▁spreading	-10.8027
▁roll	-10.8036
▁engineering	-10.8049
▁spoken	-10.8054
pro	-10.8056
...”	-10.8064
▁legally	-10.8067
▁crack	-10.8069
▁rumors	-10.8072
▁Chi	-10.8073
ight	-10.8086
▁Nor	-10.8103
general	-10.8106
▁sees	-10.8117
▁opens	-10.8123
▁convert	-10.8137
▁plea	-10.8149
▁compromise	-10.8158
san	-10.816
▁wor	-10.8161
▁acted	-10.8162
▁initiative	-10.8166
▁trained	-10.8166
▁tickets	-10.8167
▁Woods	-10.8171
▁ballot	-10.8173
▁politician	-10.8175
▁deals	-10.8177
ntil	-10.8182
▁steel	-10.8188
promising	-10.8189
▁tropic	-10.819
unidentified	-10.819
▁Giuliani	-10.819
▁Huckabee	-10.819
▁Oklahoma	-10.819
▁Rooney	-10.819
▁arriving	-10.819
▁burden	-10.819
▁episode	-10.819
▁naked	-10.819
▁transplant	-10.819
▁steady	-10.819
▁Jews	-10.819
▁talent	-10.819
▁dramatic	-10.819
▁Rodriguez	-10.819
▁principles	-10.8191
▁dry	-10.8191
▁wireless	-10.8191
▁villagers	-10.8193
▁Wright	-10.8193
▁Vo	-10.8193
▁Feb	-10.8193
▁Snow	-10.8194
ft	-10.8195
▁Annan	-10.8196
▁turnout	-10.8197
▁meat	-10.82
▁exposed	-10.8202
▁Missouri	-10.8204
rich	-10.8207
▁theory	-10.8212
▁absolutely	-10.8213
▁tale	-10.8217
▁investigated	-10.8217
▁polling	-10.8219
▁clock	-10.8219
▁oversee	-10.8237
▁dominated	-10.8244
▁di	-10.8254
▁projected	-10.8259
▁recover	-10.8259
▁sailors	-10.8263
▁Bur	-10.8268
▁miss	-10.8273
▁2009.	-10.8274
unt	-10.829
▁crops	-10.8292
ini	-10.8294
Z	-10.8301
strong	-10.8306
quarter	-10.8306
went	-10.8309
▁habitat	-10.8309
▁Vi	-10.8316
▁riot	-10.8323
▁Dean	-10.8324
▁collect	-10.8326
▁punish	-10.8334
▁broker	-10.8335
▁reduc	-10.8364
▁bones	-10.837
▁indication	-10.8374
▁engine	-10.8375
▁investigator	-10.8376
▁torture	-10.8377
▁praise	-10.8378
▁vessels	-10.838
▁marking	-10.8381
▁engineers	-10.8381
▁undermine	-10.8381
▁substantial	-10.8381
▁chose	-10.8384
▁prohibit	-10.8386
▁95	-10.8388
▁Harvard	-10.839
▁Medvedev	-10.839
▁Rumsfeld	-10.839
▁beauty	-10.839
▁centuries	-10.839
▁economies	-10.839
▁hybrid	-10.839
▁mammoth	-10.839
▁memorial	-10.839
▁pollution	-10.839
▁testify	-10.839
▁inquiry	-10.839
▁denies	-10.839
▁legitimate	-10.839
▁inquest	-10.839
▁expansion	-10.839
▁disappearance	-10.839
▁cooperate	-10.839
▁Seattle	-10.839
▁spray	-10.839
▁wildlife	-10.839
▁landmark	-10.839
▁abduction	-10.8391
▁Zone	-10.8391
▁6-3	-10.8391
▁extinction	-10.8391
▁momentum	-10.8392
▁Long	-10.8392
▁Consumer	-10.8394
▁prominent	-10.8394
▁craft	-10.8395
▁creation	-10.8395
▁Ku	-10.8397
▁yuan	-10.8397
ec	-10.8398
▁ultimately	-10.8398
▁airplane	-10.84
▁classes	-10.84
▁2012	-10.8401
▁extraordinary	-10.8407
▁Civil	-10.841
▁Tr	-10.841
▁effectively	-10.8411
ax	-10.8413
▁fleet	-10.8413
▁Sung	-10.8414
▁Roma	-10.8414
▁Port	-10.8415
▁mouth	-10.8428
▁Matt	-10.8429
29	-10.8435
▁complaints	-10.8435
▁Act	-10.8436
▁parking	-10.8444
▁conservatives	-10.8445
▁dressed	-10.8457
will	-10.8457
▁titles	-10.8457
▁liberal	-10.8462
▁perform	-10.8464
iest	-10.8464
▁Up	-10.8473
▁Mon	-10.8473
▁2-	-10.8473
▁earnings	-10.8482
▁69	-10.8483
▁tech	-10.8486
▁injur	-10.8486
▁arrests	-10.8487
▁earn	-10.8493
▁violations	-10.8494
soo	-10.8501
-0	-10.8508
border	-10.8511
▁2000.	-10.8514
▁starts	-10.8515
ities	-10.8516
▁apart	-10.8517
gg	-10.8519
top	-10.8527
▁hat	-10.8531
▁upset	-10.8538
▁30-	-10.8539
▁surrender	-10.854
▁blasts	-10.8545
bound	-10.8546
▁Wal	-10.8549
▁sweet	-10.8551
▁Eric	-10.8558
▁quiet	-10.8578
▁Command	-10.8578
▁guide	-10.8578
▁bureau	-10.8578
▁exact	-10.8579
▁viewers	-10.858
▁moral	-10.8581
▁concept	-10.8582
▁tension	-10.8587
▁OPEC	-10.8594
▁Toyota	-10.8594
▁Critics	-10.8594
▁Industrial	-10.8594
▁Jintao	-10.8594
▁Survey	-10.8594
▁Technology	-10.8594
▁absence	-10.8594
▁deadliest	-10.8594
▁extensive	-10.8594
▁tabloid	-10.8594
▁stranded	-10.8594
▁empty	-10.8594
▁respondents	-10.8594
▁cyclone	-10.8594
▁Madoff	-10.8594
▁releasing	-10.8594
▁interrogation	-10.8594
▁abortion	-10.8594
▁Sheriff	-10.8594
▁testified	-10.8595
▁Windows	-10.8596
▁nice	-10.8599
▁Rudd	-10.86
▁Arabic	-10.8601
▁plunged	-10.8602
▁consistent	-10.8604
▁sad	-10.8607
▁thrown	-10.8608
▁properly	-10.8609
▁studying	-10.8612
▁dragg	-10.8613
▁master	-10.8615
▁recommended	-10.862
mon	-10.8626
▁pool	-10.8637
▁(3	-10.8641
iv	-10.8642
▁lab	-10.8652
▁Ta	-10.866
▁Carlos	-10.8665
▁($1	-10.8665
spired	-10.8675
▁founded	-10.8679
▁Live	-10.8679
▁Yo	-10.8679
▁pen	-10.8681
▁AC	-10.8681
▁Kenyan	-10.8682
▁5,000	-10.8684
▁expecting	-10.8712
RA	-10.8718
century	-10.8719
Harry	-10.8719
▁tip	-10.872
▁shoulder	-10.8722
▁Te	-10.8723
▁mob	-10.8723
▁Oh	-10.8724
sen	-10.8727
▁function	-10.8736
▁gr	-10.8738
ino	-10.874
▁Christians	-10.8741
nna	-10.8742
▁wire	-10.8746
▁BA	-10.875
ail	-10.8751
▁Ten	-10.8755
▁posts	-10.8761
cy	-10.8763
more	-10.8777
▁Championship	-10.8792
▁execution	-10.8796
▁passing	-10.8796
▁Ca	-10.8796
▁proceed	-10.8801
▁volcano	-10.8801
▁Sp	-10.8801
aught	-10.8802
▁dictator	-10.8802
▁Broadcasting	-10.8802
▁Commerce	-10.8802
▁Experts	-10.8802
▁Travolta	-10.8802
▁cloning	-10.8802
▁devastating	-10.8802
▁institute	-10.8802
▁otherwise	-10.8802
▁religion	-10.8802
▁MBC	-10.8802
▁MySpace	-10.8802
▁elevator	-10.8802
▁Safety	-10.8802
▁Utah	-10.8802
▁ballistic	-10.8802
▁spiritual	-10.8802
▁soaring	-10.8802
▁importance	-10.8803
▁1987	-10.8803
NE	-10.8803
▁Chance	-10.8803
▁specifically	-10.8804
▁background	-10.8804
▁carries	-10.8804
▁robbery	-10.8804
▁uncovered	-10.8804
▁fever	-10.8805
▁coverage	-10.8806
▁Video	-10.8807
▁deficit	-10.8807
▁excited	-10.8807
▁bond	-10.8807
▁followers	-10.8809
ee	-10.8811
▁brutal	-10.8814
,500	-10.8817
▁Change	-10.8819
▁My	-10.8819
▁lies	-10.882
▁gross	-10.882
▁grass	-10.8821
ura	-10.8823
denuclearization	-10.8828
▁boss	-10.8829
▁comfort	-10.8829
▁da	-10.8832
▁Land	-10.8835
▁Bi	-10.8836
▁commissioner	-10.8836
▁Line	-10.8838
▁detainees	-10.8842
▁Yet	-10.8845
▁coal	-10.8858
▁representatives	-10.8859
berg	-10.8861
▁clashed	-10.8863
53	-10.8883
▁defendants	-10.8894
▁74	-10.8903
▁burn	-10.8921
▁pilots	-10.8923
▁(2	-10.8926
North	-10.8932
▁raided	-10.8932
▁dealers	-10.8946
▁brothers	-10.8947
hr	-10.8957
▁harm	-10.8958
▁mix	-10.8962
ral	-10.8965
▁maintained	-10.8966
▁sh	-10.897
▁stops	-10.8986
▁nominees	-10.8986
▁transform	-10.8993
shi	-10.8995
▁designers	-10.9001
▁Pro	-10.9002
▁revive	-10.9005
▁generate	-10.9007
▁portray	-10.9008
▁marine	-10.9011
▁filmmaker	-10.9012
▁Cleveland	-10.9015
▁Division	-10.9015
▁Katrina	-10.9015
▁Winfrey	-10.9015
▁Wisconsin	-10.9015
▁steep	-10.9015
▁Collins	-10.9015
▁Ecuador	-10.9015
▁Kansas	-10.9015
▁solid	-10.9015
▁tissue	-10.9015
▁Sgt	-10.9015
▁category	-10.9015
▁Movement	-10.9015
▁Bahamas	-10.9015
▁goalkeep	-10.9015
▁persuade	-10.9016
▁terminal	-10.9016
▁principle	-10.9016
▁Louis	-10.9019
▁Project	-10.9019
▁Michelle	-10.9021
▁endorsed	-10.9022
▁Yoon	-10.9024
▁broader	-10.9024
▁attached	-10.9027
▁Malaysian	-10.9029
▁buses	-10.9029
▁whaling	-10.9034
▁tougher	-10.9034
35	-10.9037
▁pending	-10.9042
▁Far	-10.9044
▁Gar	-10.9045
▁marketing	-10.9046
▁criminals	-10.905
▁Out	-10.9055
posed	-10.9064
24	-10.9064
▁Oscars	-10.9065
ita	-10.907
▁attribut	-10.9087
▁seal	-10.9098
▁Nazi	-10.9106
▁Pat	-10.9109
▁Series	-10.9113
owned	-10.9114
▁Yun	-10.9116
▁discussing	-10.9123
-1	-10.9127
▁touched	-10.914
▁2001.	-10.9141
play	-10.9145
▁rocks	-10.9146
▁PA	-10.9146
▁outrage	-10.9151
ay	-10.9151
▁manufacturers	-10.9152
looking	-10.9163
▁Alan	-10.9176
▁register	-10.9179
MA	-10.918
▁Marines	-10.9187
▁senators	-10.9194
▁forget	-10.9203
▁youth	-10.9209
▁delays	-10.9209
▁73	-10.9211
▁realize	-10.922
▁proper	-10.9222
wide	-10.9224
▁actors	-10.9225
▁Nigeria	-10.9225
▁stationed	-10.923
▁occur	-10.9232
▁reference	-10.9232
▁Program	-10.9232
▁Emirates	-10.9232
▁Executive	-10.9232
▁Ibrahim	-10.9232
▁Koizumi	-10.9232
▁association	-10.9232
▁battery	-10.9232
▁beneath	-10.9232
▁consensus	-10.9232
▁declaring	-10.9232
▁escort	-10.9232
▁extension	-10.9232
▁predecessor	-10.9232
▁suspension	-10.9232
▁temporarily	-10.9232
▁tragedy	-10.9232
▁Uganda	-10.9232
▁Kelly	-10.9232
▁Warren	-10.9232
▁Mosul	-10.9232
▁pardon	-10.9232
▁Mitchell	-10.9232
▁Rafael	-10.9232
▁admission	-10.9232
▁myself	-10.9233
▁gift	-10.9233
▁Omar	-10.9234
▁stepping	-10.9234
▁midfielder	-10.9235
▁visible	-10.9235
▁lung	-10.9236
▁Timor	-10.9236
▁confirmation	-10.9237
▁personality	-10.9237
▁contribute	-10.9237
▁15,000	-10.9242
▁Nine	-10.9249
stone	-10.9251
▁En	-10.9255
▁sustained	-10.9256
▁continent	-10.9256
▁suggestion	-10.9257
▁proof	-10.9261
▁happens	-10.9265
▁teenagers	-10.9269
▁Kia	-10.927
▁recognized	-10.9276
▁Victoria	-10.9278
▁consequences	-10.9279
▁presumpti	-10.9281
▁Ana	-10.9282
▁shed	-10.9284
▁prisoner	-10.9295
inch	-10.9296
▁Kar	-10.9297
▁14-	-10.9299
▁flooded	-10.9304
rry	-10.9305
▁personally	-10.9306
▁Moon	-10.9311
▁Pi	-10.9324
ara	-10.9331
▁Dec	-10.9335
but	-10.9337
▁trucks	-10.9339
▁pieces	-10.934
▁USA	-10.9346
shar	-10.9369
high	-10.937
language	-10.9371
front	-10.9371
President	-10.9371
have	-10.9371
speed	-10.9373
selling	-10.9374
▁fame	-10.9378
▁78	-10.9379
Some	-10.9383
▁risks	-10.9386
gar	-10.9397
▁abuses	-10.9401
cha	-10.9404
▁trick	-10.9405
je	-10.9408
▁defending	-10.9412
car	-10.9417
▁wood	-10.9432
▁download	-10.9433
▁Ahmadi	-10.9438
▁instant	-10.9438
▁sudden	-10.9439
▁rapid	-10.9439
▁secular	-10.9445
▁Yemen	-10.9447
▁prior	-10.9453
▁Craig	-10.9454
▁Politic	-10.9454
▁Fortune	-10.9454
▁Jolie	-10.9454
▁Nicole	-10.9454
▁Securities	-10.9454
▁Stadium	-10.9454
▁entrance	-10.9454
▁impoverished	-10.9454
▁mandatory	-10.9454
▁meanwhile	-10.9454
▁aftermath	-10.9454
▁elsewhere	-10.9454
▁rubble	-10.9454
▁shook	-10.9454
▁Houston	-10.9455
▁everywhere	-10.9455
▁massacre	-10.9455
▁employment	-10.9455
▁opposite	-10.9455
▁permission	-10.9455
▁1986	-10.9455
▁shutdown	-10.9455
▁extinct	-10.9455
▁Drug	-10.9456
▁Discovery	-10.9456
▁hunger	-10.9457
▁remarkable	-10.9457
▁outlook	-10.9457
▁Kentucky	-10.9457
▁Bad	-10.9458
▁spirit	-10.9458
▁overcome	-10.9458
▁Stern	-10.9458
▁v	-10.946
▁DVD	-10.946
▁Bowl	-10.946
▁advised	-10.9461
▁communicate	-10.9461
▁impeachment	-10.9461
▁colonial	-10.9461
▁client	-10.9462
▁unprecedented	-10.9463
▁guest	-10.9463
▁Philippine	-10.9464
▁spa	-10.9467
▁ranking	-10.9473
▁cow	-10.9475
▁ambitions	-10.9477
▁Heart	-10.9479
▁Right	-10.948
▁88	-10.9494
▁serves	-10.9499
▁swing	-10.9501
▁separated	-10.9503
▁theft	-10.9503
▁18-	-10.9513
▁fighter	-10.9513
▁Rob	-10.9527
▁badly	-10.9538
▁leftist	-10.9538
▁songs	-10.9546
▁Ph	-10.9552
ford	-10.9555
▁plent	-10.9571
▁40-	-10.9575
▁influ	-10.9582
ug	-10.9587
▁gather	-10.9588
▁covering	-10.9594
▁missions	-10.9596
▁returns	-10.9598
After	-10.9598
Now	-10.9604
▁lie	-10.9605
▁producers	-10.9614
▁wash	-10.9622
▁grant	-10.9631
▁posting	-10.9632
▁sentences	-10.9633
▁engineer	-10.9637
▁moments	-10.9642
▁27-	-10.9643
▁Football	-10.9644
llor	-10.9648
▁attacking	-10.9662
▁procedures	-10.9663
▁frequent	-10.9666
▁reverse	-10.9671
▁29,	-10.9671
▁thinks	-10.9674
▁rent	-10.9678
▁Yeltsin	-10.9682
▁burial	-10.9682
▁diplomacy	-10.9682
▁legislature	-10.9682
▁opportunities	-10.9682
▁suspicious	-10.9682
▁Arctic	-10.9682
▁Karachi	-10.9682
▁Rowling	-10.9682
▁combination	-10.9682
▁consumption	-10.9682
▁wreckage	-10.9682
▁regret	-10.9683
▁dating	-10.9683
▁Brad	-10.9684
▁displaced	-10.9684
▁vulnerable	-10.9685
▁selection	-10.9687
▁discount	-10.9687
▁31,	-10.9687
▁respectively	-10.9688
▁outstanding	-10.9688
ami	-10.969
14	-10.969
▁elderly	-10.9691
▁dropping	-10.9692
▁platform	-10.9692
▁youngest	-10.9694
▁method	-10.9695
▁shark	-10.9696
▁frequently	-10.9698
▁realized	-10.9702
▁operated	-10.9703
ain	-10.9703
▁bottle	-10.9704
▁noticed	-10.9704
▁lending	-10.9707
▁crews	-10.971
▁accompani	-10.9711
▁elect	-10.9712
▁speaker	-10.9717
▁guidelines	-10.9725
▁writer	-10.9725
▁gate	-10.9726
▁insists	-10.9728
▁mounting	-10.9729
▁Station	-10.9733
31	-10.9735
▁economists	-10.9739
▁islands	-10.9756
llied	-10.9767
▁launching	-10.977
▁pages	-10.977
So	-10.9773
bar	-10.9778
▁Wood	-10.9779
▁shareholders	-10.9787
pper	-10.9803
▁protected	-10.9804
380	-10.9813
▁responding	-10.983
cious	-10.9833
▁rains	-10.9834
▁interviews	-10.9837
▁explosions	-10.9837
▁pray	-10.984
26	-10.9844
▁11,	-10.9844
▁rebuild	-10.9848
itz	-10.9849
▁Shi	-10.9856
ats	-10.9861
▁Nov	-10.9868
▁airlines	-10.9871
▁prefer	-10.9877
▁flags	-10.9882
▁cr	-10.9895
▁predict	-10.9902
▁writers	-10.9902
▁fundamental	-10.9903
▁Ronald	-10.9909
▁Channel	-10.9914
▁Denver	-10.9914
▁Military	-10.9914
▁PARIS	-10.9914
▁Vienna	-10.9914
▁bacteria	-10.9914
▁crunch	-10.9914
▁insurgency	-10.9914
▁penalties	-10.9914
▁regain	-10.9914
▁stabilize	-10.9914
▁telescope	-10.9914
▁Small	-10.9914
▁vision	-10.9914
▁motorcycle	-10.9914
▁celebrities	-10.9914
▁Auto	-10.9914
▁disorder	-10.9914
▁reconstruction	-10.9915
▁Miller	-10.9915
▁advisor	-10.9915
▁acid	-10.9915
▁thick	-10.9915
▁mice	-10.9915
▁endorsement	-10.9915
▁fake	-10.9916
cover	-10.9917
▁rebound	-10.9917
▁Play	-10.9917
▁exciting	-10.9917
▁Flight	-10.9918
▁emphasized	-10.9919
▁watchers	-10.9921
town	-10.9925
▁Lewis	-10.9925
▁wrapped	-10.9926
▁complicated	-10.9927
▁remov	-10.9929
▁50,000	-10.993
▁Simon	-10.9932
▁procedure	-10.9935
▁mo	-10.9936
dom	-10.9936
▁activist	-10.9937
story	-10.9944
▁longest	-10.9944
▁81	-10.9945
▁designer	-10.9947
▁interior	-10.9954
▁publicist	-10.9957
▁Art	-10.996
▁killer	-10.9964
▁Sao	-10.9976
▁rough	-10.9982
▁tru	-10.9983
ins	-10.9984
▁jobless	-10.9984
▁politically	-10.9988
27	-10.9989
▁Tae	-10.9993
NA	-10.9994
▁sing	-10.9997
▁tomb	-10.9998
▁acknowledge	-11.0002
ky	-11.0018
▁?	-11.0028
▁expanding	-11.0029
▁85	-11.004
▁waited	-11.004
▁silence	-11.0042
▁Call	-11.0051
▁quote	-11.0052
▁opt	-11.0056
▁ads	-11.0059
ray	-11.0062
author	-11.0069
Pacific	-11.0069
▁tap	-11.0076
ise	-11.0092
▁Mir	-11.0093
▁Sadr	-11.0102
▁fees	-11.0102
▁stages	-11.0105
▁Woo	-11.0115
▁25-	-11.0129
▁exam	-11.0151
▁Yoo	-11.0151
▁diseases	-11.0151
▁Alabama	-11.0152
▁Alzheimer	-11.0152
▁Conference	-11.0152
▁Kyodo	-11.0152
▁Kyoto	-11.0152
▁Madonna	-11.0152
▁analysis	-11.0152
▁bargain	-11.0152
▁closure	-11.0152
▁cocaine	-11.0152
▁competing	-11.0152
▁statistics	-11.0152
▁universities	-11.0152
▁vitamin	-11.0152
▁infrastructure	-11.0152
▁mood	-11.0152
▁peacekeeping	-11.0152
▁wrongdoing	-11.0152
▁Mideast	-11.0152
▁cholesterol	-11.0152
▁emerging	-11.0152
▁videotape	-11.0152
▁reunit	-11.0152
▁chamber	-11.0152
▁fault	-11.0153
▁Blitzer	-11.0153
▁Member	-11.0153
▁gray	-11.0153
▁mud	-11.0153
▁Seung	-11.0154
▁awareness	-11.0154
▁Liberal	-11.0158
eastern	-11.0159
▁el	-11.016
avy	-11.0163
enior	-11.0164
▁robot	-11.017
▁publisher	-11.0171
▁conviction	-11.0174
▁infection	-11.0175
▁Tiger	-11.0175
ney	-11.0176
▁monkey	-11.0177
▁Ex	-11.0179
▁flame	-11.0181
▁67	-11.0183
▁hiding	-11.0185
▁bone	-11.0186
▁shipping	-11.0189
▁7,	-11.0195
▁Mil	-11.0197
▁Kun	-11.0199
▁hero	-11.0207
▁fined	-11.0209
▁topic	-11.0209
▁accidents	-11.0212
▁$700	-11.0215
▁Ad	-11.0223
▁trips	-11.0228
▁core	-11.0232
hye	-11.0236
▁guerrillas	-11.0236
▁Rose	-11.0237
▁mere	-11.0243
▁interviewed	-11.0245
▁enjoyed	-11.0247
▁fat	-11.026
▁Rev	-11.0271
▁Fred	-11.0286
work	-11.0293
pping	-11.0304
▁artists	-11.0304
▁campaigns	-11.0312
▁supporter	-11.0312
▁slip	-11.0314
class	-11.0316
▁iron	-11.0316
▁mile	-11.0322
▁fulfill	-11.0342
▁mountains	-11.0345
▁borders	-11.0347
ok	-11.035
▁connect	-11.0351
▁lunch	-11.0355
▁prov	-11.0358
▁scrap	-11.0359
ER	-11.036
An	-11.0363
95	-11.0365
▁methods	-11.0382
▁searched	-11.0385
pinion	-11.0396
▁Argentine	-11.0396
▁Benjamin	-11.0396
▁Bureau	-11.0396
▁Democracy	-11.0396
▁Oregon	-11.0396
▁Roddick	-11.0396
▁SEOUL	-11.0396
▁Schwarzenegger	-11.0396
▁Summer	-11.0396
▁Vermont	-11.0396
▁Weather	-11.0396
▁Witness	-11.0396
▁asylum	-11.0396
▁bolster	-11.0396
▁distress	-11.0396
▁gesture	-11.0396
▁intervention	-11.0396
▁landscape	-11.0396
▁principal	-11.0396
▁pyramid	-11.0396
▁scoring	-11.0396
▁tiger	-11.0396
▁Index	-11.0396
▁palm	-11.0396
▁anchor	-11.0396
▁Wilson	-11.0396
▁tribute	-11.0396
▁devote	-11.0397
▁fortune	-11.0397
▁Terry	-11.0397
▁Singh	-11.0397
▁Oct	-11.0397
▁Anderson	-11.0397
▁dying	-11.0398
▁subway	-11.0398
▁unique	-11.0398
▁passage	-11.0399
▁Nick	-11.0399
▁2-1	-11.04
UL	-11.0401
▁Yangon	-11.0401
▁embrace	-11.0401
▁prestig	-11.0401
▁charter	-11.0402
▁princess	-11.0404
▁output	-11.0405
▁Follow	-11.0406
▁wider	-11.0407
▁Forest	-11.0408
▁hearts	-11.0412
48	-11.0418
▁dawn	-11.0418
▁clubs	-11.0423
▁shield	-11.0423
act	-11.0425
▁landslide	-11.0427
▁argument	-11.0427
▁82	-11.0427
▁opponent	-11.0428
▁qualifying	-11.0433
▁height	-11.0433
▁surveyed	-11.0438
int	-11.0438
▁Holy	-11.044
ential	-11.0441
▁crowded	-11.0442
▁7-	-11.0451
suk	-11.0453
▁hanging	-11.0454
▁rulers	-11.0454
▁urgent	-11.046
▁offenders	-11.0461
▁crossing	-11.0461
▁harder	-11.0462
▁Hills	-11.0464
▁Ge	-11.0469
▁mistakes	-11.0475
▁Gi	-11.048
▁skills	-11.0482
ani	-11.0502
▁57	-11.0502
vin	-11.0505
seat	-11.0508
▁Wolf	-11.0508
▁13-	-11.0513
▁aired	-11.0517
47	-11.0523
ified	-11.0528
rk	-11.0545
tent	-11.0547
era	-11.0548
scale	-11.0549
85	-11.055
▁flee	-11.0554
▁minds	-11.0554
▁imp	-11.0555
lon	-11.0555
making	-11.0563
Qaeda	-11.0563
founder	-11.0569
▁ratings	-11.057
▁Sc	-11.0573
lan	-11.0579
oc	-11.0584
▁root	-11.0585
▁71	-11.0587
▁reflects	-11.0591
▁cats	-11.0601
▁shell	-11.0604
▁restrict	-11.0607
she	-11.0618
▁sectors	-11.0619
▁chip	-11.0623
▁rounds	-11.0623
take	-11.0624
▁Bon	-11.0625
▁actual	-11.0631
▁convince	-11.0631
▁signing	-11.0631
▁bottles	-11.0631
ez	-11.0635
▁decrease	-11.0636
▁introduce	-11.0642
▁branch	-11.0642
ire	-11.0644
bra	-11.0645
▁Everest	-11.0646
▁Facebook	-11.0646
▁cautious	-11.0646
▁curfew	-11.0646
▁dioxide	-11.0646
▁equity	-11.0646
▁kidnappers	-11.0646
▁pilgrims	-11.0646
▁romantic	-11.0646
▁tumor	-11.0646
▁evil	-11.0646
▁Kandahar	-11.0646
▁Tampa	-11.0646
▁resistance	-11.0646
▁Henin	-11.0646
▁Helmand	-11.0647
▁registration	-11.0647
▁distribution	-11.0647
▁echo	-11.0647
▁teeth	-11.0648
▁Cooperation	-11.0648
▁proceedings	-11.0648
▁Ahmed	-11.0648
▁$40	-11.0648
▁tea	-11.0648
uk	-11.0649
▁6-2	-11.0649
▁Bear	-11.0651
ular	-11.0651
▁refusal	-11.0653
▁trafficking	-11.0655
▁Sheikh	-11.0656
▁sail	-11.0657
▁Nikk	-11.0657
▁Libyan	-11.0657
▁theme	-11.0659
▁useful	-11.0659
▁zero	-11.066
▁Chang	-11.0661
▁300,000	-11.0661
▁expell	-11.0669
▁CDC	-11.0675
▁anticipated	-11.0676
▁argue	-11.0676
▁technique	-11.0682
▁application	-11.0683
▁remark	-11.0684
▁temperature	-11.0685
▁novel	-11.0686
▁checks	-11.0693
▁Palm	-11.0705
▁collected	-11.0713
Mart	-11.0714
▁guarantees	-11.0716
▁preventing	-11.0725
▁presidents	-11.0733
▁lists	-11.0734
▁mon	-11.0736
▁chat	-11.0738
▁160	-11.0741
▁ideal	-11.0744
08	-11.0745
cular	-11.075
▁hunting	-11.0752
▁divide	-11.0755
18	-11.0758
▁17-	-11.0761
maker	-11.0786
▁dam	-11.0787
On	-11.079
teen	-11.0792
rie	-11.0799
held	-11.0805
thy	-11.0811
surge	-11.0821
▁requests	-11.0821
▁pressed	-11.0822
▁strategic	-11.0826
ball	-11.083
▁paint	-11.083
▁movements	-11.0832
▁Win	-11.0834
Ma	-11.0835
▁resolv	-11.0836
-3	-11.0839
▁19-	-11.084
▁jets	-11.0841
▁detain	-11.085
▁50-	-11.085
▁repeat	-11.085
▁rely	-11.0851
▁crush	-11.0851
▁slump	-11.086
wo	-11.0883
-2	-11.0897
▁2002.	-11.0897
▁Cooper	-11.0901
▁Amnesty	-11.0903
▁Bernanke	-11.0903
▁Interpol	-11.0903
▁Pittsburgh	-11.0903
▁Zardari	-11.0903
▁applied	-11.0903
▁elaborate	-11.0903
▁industries	-11.0903
▁motive	-11.0903
▁sacrifice	-11.0903
▁comply	-11.0903
▁radar	-11.0903
▁denial	-11.0903
▁exceed	-11.0903
▁participating	-11.0903
▁Lahore	-11.0903
▁afraid	-11.0903
▁garden	-11.0903
▁Campbell	-11.0903
▁enormous	-11.0903
▁prostitution	-11.0903
▁optimistic	-11.0903
▁Ramos	-11.0903
▁Hubble	-11.0903
▁Haiti	-11.0903
▁gunshot	-11.0903
▁Wayne	-11.0903
▁existence	-11.0903
▁Brian	-11.0903
▁yourself	-11.0903
▁Christie	-11.0904
▁Cheong	-11.0904
▁manipulation	-11.0904
▁residential	-11.0905
▁branches	-11.0907
▁regardless	-11.0908
▁mutual	-11.0908
▁ignored	-11.0913
pre	-11.0914
▁summoned	-11.0916
▁taste	-11.0919
▁refuse	-11.0933
hor	-11.0933
▁distributed	-11.0934
▁Hindu	-11.0939
▁separatist	-11.0944
▁substance	-11.0945
Let	-11.0948
▁Game	-11.0949
my	-11.0951
▁manage	-11.0953
▁shortage	-11.0953
▁tanker	-11.0954
▁hostil	-11.0954
▁Love	-11.0976
▁Israelis	-11.0979
▁critically	-11.0979
▁blog	-11.0981
▁imagine	-11.0983
tta	-11.1008
hy	-11.1016
▁transactions	-11.1021
▁dates	-11.1026
▁commanders	-11.1036
▁Part	-11.104
▁agreements	-11.1045
▁intends	-11.1046
ui	-11.1049
freezing	-11.105
▁totally	-11.1052
▁Transport	-11.1054
05	-11.1073
ude	-11.1073
color	-11.1083
chang	-11.1083
Today	-11.1086
▁End	-11.1094
ira	-11.1112
▁wrap	-11.1116
▁select	-11.1119
ock	-11.1122
▁honored	-11.1126
▁Islands	-11.1129
▁disputes	-11.1134
lar	-11.1144
▁widow	-11.1145
▁recruit	-11.1158
▁supports	-11.1158
▁Cambodia	-11.1158
▁Antarctic	-11.1159
▁enrich	-11.1166
▁Belgium	-11.1166
▁Broadway	-11.1166
▁FIFA	-11.1166
▁Family	-11.1166
▁Ferguson	-11.1166
▁eager	-11.1166
▁enemies	-11.1166
▁primarily	-11.1166
▁tribunal	-11.1166
▁visual	-11.1166
▁Animal	-11.1166
▁venture	-11.1166
▁reputation	-11.1166
▁proliferation	-11.1166
▁anywhere	-11.1167
▁FDA	-11.1167
▁deadlock	-11.1167
▁spike	-11.1167
▁Taiwanese	-11.1167
▁engagement	-11.1168
▁Reid	-11.1168
▁sworn	-11.1168
▁Luis	-11.1169
▁centered	-11.1169
▁contacted	-11.117
▁fastest	-11.117
▁sprawling	-11.117
▁Angela	-11.117
▁postponed	-11.117
▁Paulson	-11.117
▁competitive	-11.1171
▁mall	-11.1171
▁parade	-11.1172
▁wonderful	-11.1173
▁sorry	-11.1173
▁epic	-11.1173
▁Twenty	-11.1174
▁automatic	-11.1174
▁Casey	-11.1175
▁Idol	-11.1176
az	-11.1177
▁depth	-11.1178
▁Sept	-11.118
▁40,000	-11.118
▁Oprah	-11.118
uri	-11.1184
▁loud	-11.1185
▁riots	-11.1188
▁Price	-11.1189
▁Back	-11.119
▁Gang	-11.1192
▁revised	-11.1192
nic	-11.1193
night	-11.1194
ose	-11.1195
▁doubled	-11.1197
▁Amy	-11.1197
▁regularly	-11.1205
org	-11.121
▁entirely	-11.1211
▁offense	-11.1214
▁toilet	-11.1214
▁operator	-11.1216
▁twin	-11.1216
▁ranch	-11.1216
▁visits	-11.123
▁undergoing	-11.123
▁sealed	-11.1242
▁kicked	-11.1243
Iraq	-11.1243
▁bears	-11.1245
▁eggs	-11.1246
▁deposit	-11.1246
▁rivers	-11.1254
▁hits	-11.1254
▁expanded	-11.1271
ual	-11.1272
(	-11.1285
▁investments	-11.1285
▁defender	-11.1291
▁profile	-11.1293
▁8,	-11.1304
▁Va	-11.1305
▁polar	-11.1306
▁spin	-11.1311
▁paintings	-11.1318
▁canal	-11.1333
▁buyers	-11.1336
yong	-11.1337
▁admit	-11.1338
▁Am	-11.134
▁Ve	-11.135
ect	-11.1358
let	-11.1361
nam	-11.1371
▁intent	-11.1372
▁refer	-11.1375
▁st	-11.1375
▁Wi	-11.1377
▁screening	-11.1381
▁photographers	-11.1382
▁Pre	-11.1384
sumption	-11.1384
are	-11.1392
▁Fa	-11.1399
▁PM	-11.1406
▁po	-11.1417
▁cla	-11.1417
▁tanks	-11.142
▁exclusive	-11.1422
ence	-11.1434
▁liquid	-11.1435
▁compil	-11.1436
▁Grammy	-11.1436
Zawahiri	-11.1436
▁1982	-11.1436
▁Atlantis	-11.1436
▁Beirut	-11.1436
▁Burmese	-11.1436
▁Dallas	-11.1436
▁DiCaprio	-11.1436
▁Hitler	-11.1436
▁ISLAMABAD	-11.1436
▁Kremlin	-11.1436
▁Maradona	-11.1436
▁Mercury	-11.1436
▁NBA	-11.1436
▁Panama	-11.1436
▁Swedish	-11.1436
▁asteroid	-11.1436
▁diabetes	-11.1436
▁dismantling	-11.1436
▁equivalent	-11.1436
▁pioneer	-11.1436
▁skull	-11.1436
▁Citigroup	-11.1436
▁audio	-11.1436
▁rallied	-11.1436
▁comprehensive	-11.1436
▁eligib	-11.1436
▁therefore	-11.1436
▁Relations	-11.1436
▁kidney	-11.1436
▁spectacular	-11.1436
▁billionaire	-11.1436
▁Short	-11.1436
▁2010.	-11.1436
▁probation	-11.1436
Man	-11.1437
▁Kyung	-11.1437
▁1979	-11.1437
▁laser	-11.1437
▁elite	-11.1437
▁weakness	-11.1437
▁Knight	-11.1438
▁Mountain	-11.1438
▁comfortable	-11.1439
▁outdoor	-11.1441
▁disruption	-11.1442
▁6-1	-11.1444
▁executions	-11.1445
▁grabb	-11.1447
▁Lord	-11.1448
▁populated	-11.1449
▁prolonged	-11.145
▁Serbian	-11.1451
▁fee	-11.1456
▁Allen	-11.1457
▁counterfeiting	-11.1459
▁Ken	-11.1459
▁Music	-11.1462
▁Beatles	-11.1464
▁withdrawn	-11.1464
▁hired	-11.1467
▁slide	-11.1469
chan	-11.1469
▁laundering	-11.1475
▁Sch	-11.1476
log	-11.1481
▁achieved	-11.1487
▁infant	-11.1489
▁jungle	-11.149
▁Every	-11.1491
▁evacuation	-11.1491
▁vaccine	-11.1492
▁temple	-11.1492
▁embryo	-11.1493
▁nose	-11.1494
▁championship	-11.1494
▁checkpoint	-11.1495
▁shoe	-11.1496
▁Mor	-11.1503
▁FTA	-11.1505
▁photographer	-11.1505
▁fleeing	-11.1508
▁surged	-11.1509
mit	-11.1512
▁Jin	-11.1525
▁recovering	-11.1527
▁secured	-11.153
▁elements	-11.1531
▁donations	-11.1531
▁18,	-11.1531
▁obligations	-11.1537
▁steal	-11.1542
ozens	-11.1548
▁recommendations	-11.1555
▁raped	-11.156
was	-11.1561
▁Sh	-11.1578
▁represented	-11.1583
▁Eve	-11.1586
▁77	-11.1588
AL	-11.1589
▁appearances	-11.1589
▁barriers	-11.1592
▁blocks	-11.1599
▁($2	-11.1619
▁counsel	-11.1634
▁kiss	-11.1643
▁$11	-11.1651
val	-11.1653
▁disrupt	-11.1655
▁hang	-11.167
▁applications	-11.1673
mber	-11.1674
under	-11.1681
▁broadcasting	-11.169
▁slight	-11.1701
▁overwhelming	-11.1703
▁bo	-11.1706
▁depict	-11.1711
▁$15	-11.1711
▁accompany	-11.1714
▁Dakota	-11.1714
▁Geneva	-11.1714
▁Grenada	-11.1714
▁Kaesong	-11.1714
▁Norwegian	-11.1714
▁Thompson	-11.1714
▁academic	-11.1714
▁breakfast	-11.1714
▁conglomerate	-11.1714
▁dolphin	-11.1714
▁explanation	-11.1714
▁incumbent	-11.1714
▁lecture	-11.1714
▁smuggling	-11.1714
▁strategist	-11.1714
▁volatile	-11.1714
▁Fossett	-11.1714
▁Company	-11.1714
▁Henley	-11.1714
▁Statistic	-11.1714
▁guess	-11.1714
▁Mosque	-11.1714
▁participation	-11.1714
▁ivory	-11.1714
▁fingerprint	-11.1714
▁subprime	-11.1714
▁subsequent	-11.1714
▁rhetoric	-11.1714
▁Heathrow	-11.1714
▁epicenter	-11.1714
▁Geological	-11.1714
▁financing	-11.1714
▁hidden	-11.1714
▁swine	-11.1714
▁kingdom	-11.1714
▁Strait	-11.1714
ving	-11.1714
▁1988	-11.1714
▁graphic	-11.1715
▁Norway	-11.1715
▁Danish	-11.1715
▁trademark	-11.1715
▁observation	-11.1715
▁mountainous	-11.1717
▁definitely	-11.1717
▁overhaul	-11.1717
▁2-0	-11.1717
▁encouraging	-11.1717
▁mandate	-11.1718
▁rampage	-11.1718
▁7,000	-11.1719
▁Cristian	-11.172
▁Cambodian	-11.1722
▁examination	-11.1723
▁Share	-11.1724
▁agriculture	-11.1725
▁vers	-11.1726
▁marry	-11.1726
▁genocide	-11.1728
▁confessed	-11.1728
▁setback	-11.1733
▁shouted	-11.1733
▁amazing	-11.1733
▁br	-11.1739
Q	-11.174
▁armor	-11.1742
▁wealthy	-11.1743
▁smashed	-11.1748
▁Pen	-11.1749
gan	-11.175
19	-11.1754
▁interfer	-11.1757
▁settled	-11.1758
▁sc	-11.1759
virtually	-11.1761
▁dispatched	-11.1761
▁clues	-11.1763
▁severely	-11.177
▁celebrating	-11.1773
▁belief	-11.1778
▁challenged	-11.1778
▁cafe	-11.1778
▁muscle	-11.1778
▁rifle	-11.1778
▁Carl	-11.1779
▁peacefully	-11.178
▁inspection	-11.178
▁customer	-11.1786
▁1950-	-11.1789
▁implemented	-11.1817
▁Electronics	-11.1818
▁machines	-11.1823
▁Geu	-11.183
▁Val	-11.1833
▁immigrants	-11.1837
ets	-11.1838
fin	-11.1845
▁forms	-11.1856
▁privately	-11.1859
▁warrants	-11.1861
▁odds	-11.1875
▁managers	-11.1875
▁preparations	-11.1881
▁3,	-11.1903
friendly	-11.1919
▁32-	-11.1927
▁detect	-11.1932
▁surveys	-11.1935
▁Tu	-11.1937
▁disc	-11.1939
▁undergo	-11.1939
97	-11.1939
▁northwester	-11.1939
▁involves	-11.1944
▁limits	-11.1947
▁Gra	-11.1949
▁coincide	-11.195
▁holes	-11.1951
▁user	-11.1964
▁feelings	-11.1969
▁aims	-11.1983
▁unfair	-11.1984
▁disclose	-11.1986
▁obvious	-11.1987
▁smile	-11.1988
▁str	-11.1991
cher	-11.1994
ries	-11.1995
▁triumph	-11.1999
▁blind	-11.2
▁Connecticut	-11.2
▁Diyala	-11.2
▁Nawaz	-11.2
▁Osaka	-11.2
▁challenging	-11.2
▁impressive	-11.2
▁ransom	-11.2
▁slush	-11.2
▁toddler	-11.2
▁verify	-11.2
▁IBM	-11.2
▁animated	-11.2
▁convey	-11.2
▁ultra	-11.2
▁warehouse	-11.2
▁ceremonies	-11.2
ennifer	-11.2
▁crocodile	-11.2
▁Greenpeace	-11.2
▁gender	-11.2
▁leap	-11.2
▁beautiful	-11.2
▁Operation	-11.2
▁laboratory	-11.2
▁Iceland	-11.2
▁Jacques	-11.2
▁excessive	-11.2
▁Bridge	-11.2
▁Bruni	-11.2001
▁Bolton	-11.2001
▁ownership	-11.2001
▁factories	-11.2002
▁disable	-11.2002
▁Juan	-11.2003
▁constitute	-11.2003
▁Minnesota	-11.2003
▁Strip	-11.2004
▁assured	-11.2008
▁hip	-11.2009
▁symptoms	-11.201
▁carefully	-11.2014
▁falls	-11.2014
wan	-11.2014
▁duck	-11.2014
▁Environmental	-11.2015
body	-11.2016
99	-11.202
▁yield	-11.202
▁murders	-11.2024
▁businessman	-11.2026
▁PPP	-11.203
▁efficient	-11.2031
▁tears	-11.2033
▁1.3	-11.2035
▁remind	-11.2039
▁Java	-11.204
▁Sang	-11.2041
▁drinks	-11.2043
▁Boy	-11.2048
▁gases	-11.2051
▁operational	-11.2059
aro	-11.206
▁occasion	-11.2061
▁fines	-11.2062
▁connected	-11.2062
▁Socialist	-11.207
▁tower	-11.2071
▁roof	-11.2071
▁shar	-11.2074
▁Others	-11.2076
pposition	-11.2076
▁insurgent	-11.2078
▁volunteer	-11.2079
▁$12	-11.2086
rous	-11.2088
▁titled	-11.2088
▁weighed	-11.2089
▁households	-11.2093
▁relationships	-11.2098
▁appearing	-11.2098
▁Pu	-11.2104
▁performing	-11.2107
▁Ms	-11.2109
▁slot	-11.2113
▁involve	-11.212
▁characteriz	-11.2123
▁Tal	-11.2126
▁Lin	-11.2126
ible	-11.2128
mat	-11.2134
ology	-11.2148
▁pit	-11.2149
▁shocked	-11.2149
▁prayers	-11.2149
▁researcher	-11.2151
▁contenders	-11.2154
12	-11.2162
gas	-11.2164
bin	-11.217
▁traded	-11.2177
▁provision	-11.218
▁refus	-11.2183
ants	-11.2188
▁guys	-11.219
PA	-11.2191
▁scan	-11.2206
lia	-11.221
either	-11.2212
▁argu	-11.2224
▁checked	-11.2229
ku	-11.2229
torn	-11.223
▁confront	-11.2232
life	-11.2233
▁cancel	-11.224
▁hack	-11.2249
▁Age	-11.2255
▁landslides	-11.2257
▁scandals	-11.226
▁grounds	-11.2264
▁Za	-11.2272
▁intervene	-11.2278
▁Clark	-11.2281
▁Mag	-11.2281
▁clients	-11.2283
▁tornado	-11.229
▁cult	-11.2293
▁cyber	-11.2294
▁micro	-11.2294
▁Denmark	-11.2294
▁Sevilla	-11.2294
▁Guild	-11.2294
▁Istanbul	-11.2294
▁Johndroe	-11.2294
▁Prevention	-11.2294
▁Shinawatra	-11.2294
▁TOKYO	-11.2294
▁ambitious	-11.2294
▁chicken	-11.2294
▁eBay	-11.2294
▁epidemic	-11.2294
▁grandmother	-11.2294
▁incursion	-11.2294
▁mirror	-11.2294
▁outskirts	-11.2294
▁psychology	-11.2294
▁consent	-11.2294
▁Crocker	-11.2294
▁AIG	-11.2294
▁stunning	-11.2294
▁LPGA	-11.2294
▁desk	-11.2294
▁merger	-11.2295
▁revision	-11.2295
▁Dodi	-11.2295
▁eruption	-11.2295
▁pride	-11.2295
▁willingness	-11.2296
▁Anne	-11.2297
▁Highway	-11.2297
▁Jung	-11.2298
▁hormone	-11.2299
▁essential	-11.2299
▁LG	-11.2299
▁presentation	-11.2299
▁welfare	-11.23
▁Qa	-11.2301
▁favorable	-11.2301
▁difficulties	-11.2301
▁Ross	-11.2304
▁Bruce	-11.2305
iscal	-11.2305
see	-11.2305
▁comeback	-11.2307
▁viruses	-11.2307
▁obviously	-11.231
▁pronounced	-11.231
▁unacceptable	-11.2313
▁Plan	-11.2313
▁engines	-11.2317
▁islets	-11.2327
▁belonged	-11.2331
▁dumped	-11.2333
Al	-11.2341
▁sued	-11.2345
▁contributed	-11.2347
▁lo	-11.2348
▁accounting	-11.2353
▁Ri	-11.2367
▁interi	-11.237
▁11-	-11.237
▁theaters	-11.2371
▁23,	-11.2371
▁daughters	-11.2372
▁railway	-11.2375
▁medication	-11.2376
▁plate	-11.2376
soon	-11.2376
▁76	-11.2377
▁banner	-11.2381
▁investor	-11.2383
yo	-11.2384
▁commitments	-11.2395
zi	-11.2398
▁Kha	-11.2401
pur	-11.2403
▁Parker	-11.2407
loaded	-11.241
erial	-11.241
86	-11.2417
▁saving	-11.2423
ished	-11.2433
inal	-11.2435
▁taxi	-11.244
▁halted	-11.2447
▁traders	-11.2448
vel	-11.2458
42	-11.2466
▁Cold	-11.2469
▁counted	-11.247
▁Ji	-11.2511
producing	-11.2513
wood	-11.2515
ection	-11.252
▁knowing	-11.2521
▁manag	-11.2525
▁criticiz	-11.2527
stra	-11.2533
▁transit	-11.2543
▁unveil	-11.2544
▁install	-11.2544
▁inmates	-11.2549
▁DA	-11.2564
▁strange	-11.2571
illa	-11.2573
▁breaks	-11.2573
itting	-11.258
▁refuge	-11.2581
▁celebrat	-11.2585
▁ranks	-11.259
▁demonstrate	-11.2594
▁drunk	-11.2594
▁assess	-11.2596
▁racial	-11.2597
Horta	-11.2597
▁Belgian	-11.2597
▁FTSE	-11.2597
▁Gonzalez	-11.2597
▁Holland	-11.2597
▁Margaret	-11.2597
▁Murphy	-11.2597
▁Polaroid	-11.2597
▁batteries	-11.2597
▁candidacy	-11.2597
▁imminent	-11.2597
▁junior	-11.2597
▁legacy	-11.2597
▁perception	-11.2597
▁scenario	-11.2597
▁universe	-11.2597
▁Field	-11.2597
▁captors	-11.2597
▁website	-11.2597
▁Cannes	-11.2597
▁Phillies	-11.2597
▁Standard	-11.2597
▁autopsy	-11.2597
▁Wildlife	-11.2597
▁bathroom	-11.2597
▁Montana	-11.2597
▁Perino	-11.2597
▁duties	-11.2597
▁soared	-11.2597
▁Protection	-11.2597
▁phenomenon	-11.2597
▁retaliation	-11.2597
▁spell	-11.2597
▁expedition	-11.2598
▁desperate	-11.2598
▁outfit	-11.2598
▁Lisa	-11.2599
▁pact	-11.26
▁dedicated	-11.26
▁Almost	-11.26
▁Uribe	-11.26
▁Poor	-11.26
▁Ethiopian	-11.2601
▁3-0	-11.2602
▁indeed	-11.2603
▁hometown	-11.2603
road	-11.2604
▁Wild	-11.2604
▁consideration	-11.2605
▁lucky	-11.2605
▁Forum	-11.2605
▁Sky	-11.2606
▁diverse	-11.2606
▁midst	-11.2608
rmal	-11.2608
▁manner	-11.2609
▁assume	-11.2609
▁boxes	-11.261
▁brave	-11.2611
1,000	-11.2613
▁mad	-11.2613
▁protein	-11.2614
jin	-11.2614
ability	-11.2616
▁Rove	-11.2619
▁approximate	-11.2619
▁Jr	-11.262
▁belt	-11.2621
▁Gay	-11.2624
▁occupied	-11.2624
▁mourning	-11.2624
▁ballots	-11.2625
▁anybody	-11.2626
▁ear	-11.2627
▁shooter	-11.263
▁barred	-11.2631
▁breathing	-11.2634
▁Why	-11.2635
▁KEB	-11.2637
16	-11.2638
▁teaching	-11.264
▁belonging	-11.2644
▁140	-11.2647
▁handled	-11.2647
▁Little	-11.2648
▁parks	-11.2656
▁restored	-11.2656
▁preserve	-11.266
terrorism	-11.2666
▁sponsors	-11.2667
part	-11.2672
▁ver	-11.2674
.9	-11.2679
fully	-11.2679
▁damages	-11.2681
▁billions	-11.2681
▁deserve	-11.2687
▁contribution	-11.2687
▁fixed	-11.2687
▁laptop	-11.2689
▁creature	-11.269
▁uniform	-11.269
▁permitt	-11.2691
▁Edward	-11.2692
▁mortar	-11.2692
▁retailers	-11.2694
cho	-11.2704
lov	-11.2704
place	-11.2705
oh	-11.2712
▁aging	-11.2717
▁troubles	-11.2721
signed	-11.2723
▁slowed	-11.2723
▁airstrikes	-11.2723
▁explained	-11.2731
▁ca	-11.2734
▁noon	-11.2734
▁Penn	-11.2736
▁choices	-11.274
▁Fort	-11.2742
▁Sports	-11.2743
▁treasure	-11.2743
▁Lev	-11.2744
▁rap	-11.2746
▁performances	-11.2746
▁27,	-11.2747
ium	-11.2748
▁shirt	-11.2748
▁hill	-11.2748
▁pile	-11.275
just	-11.2754
▁swap	-11.2755
▁rating	-11.2757
▁Pr	-11.2764
tter	-11.2764
▁Liber	-11.2766
▁Justin	-11.2771
▁Sciences	-11.2779
▁Amin	-11.2781
▁bans	-11.2788
▁Reports	-11.2788
▁Rays	-11.2793
▁warn	-11.2795
▁satellites	-11.2795
▁25,	-11.2801
▁4,	-11.2806
▁Raj	-11.2809
Star	-11.2826
China	-11.2826
VI	-11.2841
els	-11.2846
64	-11.2847
gotten	-11.2848
▁Del	-11.2856
▁dispatch	-11.2856
▁defeated	-11.2859
that	-11.2859
tun	-11.2865
▁arguments	-11.2871
▁roots	-11.2871
▁electronics	-11.2883
▁mount	-11.2883
Do	-11.2888
▁unexpected	-11.2895
▁please	-11.2897
▁agricultur	-11.2897
▁attacker	-11.2897
▁Wu	-11.29
▁enhance	-11.29
▁chart	-11.2902
▁hate	-11.2902
ots	-11.2902
▁Monet	-11.2905
▁territori	-11.2905
▁Travel	-11.2906
▁adapt	-11.2908
▁Bernard	-11.2909
▁9/11	-11.2909
▁Betancourt	-11.2909
▁Bloomberg	-11.2909
▁Chaudhry	-11.2909
▁Child	-11.2909
▁Convention	-11.2909
▁Future	-11.2909
▁Galaxy	-11.2909
▁Jankovic	-11.2909
▁Lincoln	-11.2909
▁Mogadishu	-11.2909
▁Pavarotti	-11.2909
▁Pichushkin	-11.2909
▁Policy	-11.2909
▁invitation	-11.2909
▁lieutenant	-11.2909
▁ninth	-11.2909
▁oxygen	-11.2909
▁restructuring	-11.2909
▁studied	-11.2909
▁blessing	-11.2909
▁Construction	-11.2909
▁Network	-11.2909
▁collid	-11.2909
▁foster	-11.2909
▁pepper	-11.2909
▁securities	-11.2909
▁fortified	-11.2909
▁unspe	-11.2909
▁capability	-11.2909
▁chapter	-11.2909
▁Pusan	-11.2909
▁Garden	-11.291
▁Armstrong	-11.291
▁citizenship	-11.291
▁bedroom	-11.291
▁plead	-11.291
▁astronomers	-11.291
▁flick	-11.291
▁stronghold	-11.2911
▁Agriculture	-11.2911
▁Medicine	-11.2911
▁Johnston	-11.2912
▁restart	-11.2912
▁Lance	-11.2913
▁Conservative	-11.2913
▁Professor	-11.2913
▁minority	-11.2914
▁thus	-11.2915
▁Fair	-11.2915
▁tragic	-11.2916
Charts	-11.2916
▁tips	-11.2916
▁Investment	-11.2918
▁tired	-11.2919
▁removal	-11.2919
▁Mitt	-11.2919
had	-11.2919
▁golden	-11.2921
▁sensor	-11.2923
▁Austrian	-11.2925
cker	-11.2926
▁passes	-11.2928
▁painful	-11.2931
▁Ahmad	-11.2933
▁demonstrated	-11.2938
▁policemen	-11.2947
▁cautioned	-11.2947
▁Nixon	-11.2951
▁orchestra	-11.2953
▁rid	-11.2965
▁forests	-11.2968
▁languages	-11.2975
ula	-11.2976
▁rat	-11.2989
▁par	-11.2993
bon	-11.3
▁issu	-11.3
▁singing	-11.3004
▁stated	-11.3005
▁Serb	-11.301
▁elephant	-11.3011
▁Globe	-11.3011
▁colleague	-11.3014
fer	-11.3015
▁peer	-11.3017
▁specialist	-11.302
ties	-11.3023
▁Shia	-11.3025
▁button	-11.3025
▁nationals	-11.3033
▁policeman	-11.3037
▁semifinal	-11.3037
lic	-11.3039
▁shelters	-11.304
ransportation	-11.3043
▁customs	-11.3047
▁enable	-11.3048
▁28,	-11.305
going	-11.3057
▁scenes	-11.3062
▁violate	-11.3066
▁$50	-11.3074
lay	-11.3087
▁complain	-11.309
power	-11.3097
▁Ch	-11.3097
▁counterparts	-11.3105
borne	-11.3105
▁united	-11.3118
▁alarm	-11.3118
▁assert	-11.312
▁developments	-11.3134
▁scar	-11.3135
▁Who	-11.3137
pass	-11.3142
world	-11.3143
piece	-11.3147
▁courts	-11.3148
hold	-11.3151
▁premiere	-11.3152
11	-11.3152
▁farms	-11.3156
▁proposals	-11.316
▁marr	-11.3163
▁Stalin	-11.3166
▁discover	-11.3166
press	-11.3167
▁93	-11.3167
▁drill	-11.3171
▁Seg	-11.3172
▁manipulat	-11.3179
oli	-11.3183
▁hu	-11.3187
▁slam	-11.3188
zar	-11.3191
kyu	-11.3202
hether	-11.3204
▁attackers	-11.321
▁trace	-11.3217
▁slum	-11.3218
▁honest	-11.3219
▁evacuate	-11.3219
▁defect	-11.3222
▁Did	-11.3224
▁Southeast	-11.3224
,800	-11.323
▁unpopular	-11.3231
▁harbor	-11.3232
▁knife	-11.3232
Tayyi	-11.3232
▁Ankara	-11.3232
▁Endeavour	-11.3232
▁Fernando	-11.3232
▁Jiabao	-11.3232
▁Lennon	-11.3232
▁McCartney	-11.3232
▁Rawalpindi	-11.3232
▁Russell	-11.3232
▁Toronto	-11.3232
▁UNICEF	-11.3232
▁Ukrainian	-11.3232
▁administrator	-11.3232
▁anonymous	-11.3232
▁declining	-11.3232
▁keynote	-11.3232
▁nightclub	-11.3232
▁sketch	-11.3232
▁umbrella	-11.3232
▁legislators	-11.3232
▁mystery	-11.3232
▁notorious	-11.3232
▁Hawass	-11.3232
▁silent	-11.3232
▁Tripoli	-11.3232
▁lottery	-11.3232
▁steer	-11.3232
▁Bryan	-11.3232
▁substitute	-11.3232
▁Bosnia	-11.3232
▁pension	-11.3232
▁beloved	-11.3232
▁steam	-11.3232
▁1949	-11.3232
▁candle	-11.3233
▁elementary	-11.3233
▁NFL	-11.3233
▁extent	-11.3233
▁qualified	-11.3233
▁Raul	-11.3233
▁Lady	-11.3233
▁carpet	-11.3233
▁Road	-11.3234
▁physician	-11.3234
▁exhibition	-11.3235
▁downturn	-11.3235
▁stopping	-11.3236
unk	-11.3236
▁pornography	-11.3236
▁counties	-11.3236
▁retirement	-11.3237
▁Roll	-11.3238
▁Maine	-11.3239
▁lifestyle	-11.324
▁Linda	-11.3245
▁takeover	-11.3246
▁sophisticated	-11.3247
▁Mission	-11.3247
▁Economy	-11.3253
▁humanity	-11.3253
▁23-	-11.3253
▁Ball	-11.3254
▁arson	-11.3254
anuel	-11.3256
▁Death	-11.3258
came	-11.3261
▁artificial	-11.3262
▁sounds	-11.3263
▁overturned	-11.3263
▁adoption	-11.3264
aff	-11.3272
▁slowly	-11.3272
▁practical	-11.3273
▁foe	-11.3278
▁define	-11.3281
▁crying	-11.3284
▁encounter	-11.3286
iff	-11.3287
▁patroll	-11.3289
mis	-11.3291
▁Head	-11.3291
some	-11.3293
▁medics	-11.3294
▁generated	-11.3296
▁monitors	-11.3299
▁Mong	-11.3301
▁restricted	-11.3301
▁1.2	-11.3305
▁Jay	-11.3313
▁125	-11.3314
acre	-11.3323
▁musicians	-11.3332
oy	-11.3338
▁meals	-11.3338
▁expense	-11.3341
▁precaution	-11.3343
,200	-11.3346
▁Walter	-11.3347
▁kid	-11.3348
dong	-11.3352
rg	-11.3353
par	-11.3354
▁(10	-11.3354
▁factions	-11.3356
▁gaining	-11.336
▁payment	-11.3363
yard	-11.3369
▁farmer	-11.3374
▁regulators	-11.3375
▁donor	-11.338
▁mines	-11.3381
▁captives	-11.3383
GA	-11.3383
▁witnessed	-11.339
▁87	-11.3399
▁professors	-11.3403
▁quarterfinal	-11.3408
▁unhapp	-11.3419
▁Pra	-11.3425
▁organs	-11.3427
ending	-11.3431
Re	-11.3432
fu	-11.3432
▁RO	-11.3435
yn	-11.3436
win	-11.3439
▁i	-11.344
▁Well	-11.3443
half	-11.345
▁protested	-11.346
OM	-11.3461
▁danc	-11.3465
▁spots	-11.3466
▁suspicions	-11.3471
pan	-11.3474
▁1950	-11.3478
▁Mrs	-11.348
screen	-11.3481
From	-11.3482
court	-11.3482
educated	-11.3483
▁Choi	-11.3483
▁nud	-11.3484
New	-11.3486
running	-11.3491
▁adjust	-11.3493
▁breed	-11.3497
▁melt	-11.3499
▁coat	-11.35
▁deploy	-11.3511
mark	-11.3513
▁interfere	-11.3514
oma	-11.3515
ES	-11.3517
▁shame	-11.3522
▁Let	-11.353
▁monkeys	-11.3532
aid	-11.3533
ico	-11.3534
viation	-11.3538
▁191	-11.3539
▁format	-11.3551
even	-11.3552
▁Puert	-11.3563
▁Clooney	-11.3565
▁Coalition	-11.3565
▁Eagle	-11.3565
▁Fashion	-11.3565
▁Gibbons	-11.3565
▁Irbil	-11.3565
▁Lopez	-11.3565
▁Nelson	-11.3565
▁Okinawa	-11.3565
▁Residents	-11.3565
▁Rogge	-11.3565
▁Viacom	-11.3565
▁aggravat	-11.3565
▁devastated	-11.3565
▁entitled	-11.3565
▁fossil	-11.3565
▁grandfather	-11.3565
▁optimism	-11.3565
▁reluctant	-11.3565
▁revenge	-11.3565
▁surplus	-11.3565
▁Keith	-11.3565
▁Mercedes	-11.3565
▁Sierra	-11.3565
▁crater	-11.3565
▁oath	-11.3565
▁ceiling	-11.3565
▁quell	-11.3565
▁layoffs	-11.3565
▁transparent	-11.3565
▁Muqtada	-11.3565
▁ankle	-11.3565
▁biological	-11.3565
▁battered	-11.3565
▁1981	-11.3566
▁bread	-11.3566
▁Brand	-11.3566
▁Sachs	-11.3566
▁Protesters	-11.3566
▁harmful	-11.3566
▁sprint	-11.3566
▁typhoon	-11.3566
▁7-5	-11.3567
▁somewhere	-11.3567
▁editorial	-11.3567
▁Orange	-11.3569
▁creative	-11.3569
▁heighten	-11.3569
▁burns	-11.3569
▁representation	-11.3569
▁assassinated	-11.357
Americans	-11.3572
▁Stewart	-11.3572
▁soft	-11.3574
▁somebody	-11.3575
▁stuck	-11.3575
▁Nigerian	-11.3578
▁aggression	-11.3578
▁judicial	-11.3578
▁brush	-11.358
▁shattered	-11.3582
aritime	-11.3583
▁31-	-11.3584
▁Tran	-11.3584
ians	-11.3584
▁1.7	-11.3592
▁heritage	-11.3592
▁script	-11.3592
▁Cre	-11.3597
▁Ye	-11.3598
bed	-11.3601
▁filming	-11.3603
▁deeper	-11.3603
▁bl	-11.3605
nan	-11.3607
▁antibiotics	-11.3618
eb	-11.3619
DA	-11.3622
covered	-11.3624
▁72	-11.3627
▁disrupted	-11.363
")	-11.3631
▁Dar	-11.3632
▁electrical	-11.3635
ix	-11.3636
▁CO	-11.3637
▁Bin	-11.3639
▁installed	-11.3643
▁hearings	-11.3644
▁worsen	-11.3646
ski	-11.3647
▁ta	-11.365
▁3.5	-11.3657
apped	-11.3657
nce	-11.3663
▁su	-11.3664
▁experiments	-11.3667
▁Kath	-11.3675
▁Shah	-11.3675
▁5,	-11.3677
nder	-11.368
▁blanket	-11.3689
▁statue	-11.3689
▁pipeline	-11.3689
▁Market	-11.3693
▁manufacturer	-11.3693
▁bell	-11.3694
▁pill	-11.3694
▁glaciers	-11.3698
▁yards	-11.3698
▁lone	-11.3703
acute	-11.3709
▁alien	-11.3709
▁affair	-11.3714
▁horse	-11.3716
▁Ber	-11.3718
lip	-11.373
▁patterns	-11.3752
▁elders	-11.376
▁Bl	-11.3761
▁planets	-11.3767
▁advisers	-11.3773
▁Mel	-11.3774
▁Amid	-11.3774
▁Ray	-11.3782
rated	-11.3783
65	-11.3786
▁laugh	-11.3788
ctor	-11.3797
▁uniforms	-11.3805
▁Kwa	-11.3806
▁roles	-11.3811
▁bow	-11.3814
etic	-11.3817
dollar	-11.3827
bank	-11.3827
However	-11.3827
FTA	-11.3828
▁inspections	-11.3829
oun	-11.383
olen	-11.383
▁Shiites	-11.3834
▁86	-11.3836
▁championships	-11.3837
▁survival	-11.3841
ttled	-11.3841
▁stamp	-11.3842
▁Take	-11.3845
▁finds	-11.3845
▁Ham	-11.3847
▁tent	-11.3847
mates	-11.385
ada	-11.3853
▁retreat	-11.3855
art	-11.3857
▁27.	-11.3858
about	-11.3858
▁1998.	-11.3862
▁interesting	-11.3863
▁ab	-11.387
▁heated	-11.3872
100	-11.3876
▁runner	-11.3886
▁consist	-11.3893
▁swift	-11.3894
▁sat	-11.3895
▁enforce	-11.3898
▁careful	-11.3901
▁update	-11.3904
with	-11.3908
ments	-11.3909
▁Special	-11.3909
▁kidnap	-11.3909
▁Britney	-11.391
▁Details	-11.391
▁Holocaust	-11.391
▁Karbala	-11.391
▁Kurdistan	-11.391
▁Orlando	-11.391
▁Saakashvili	-11.391
▁Samarra	-11.391
▁Shipman	-11.391
▁Thirty	-11.391
▁Yousuf	-11.391
▁acquitted	-11.391
▁albatross	-11.391
▁blockbuster	-11.391
▁collision	-11.391
▁concentration	-11.391
▁intensified	-11.391
▁judgment	-11.391
▁marathon	-11.391
▁pistol	-11.391
▁portrait	-11.391
▁psychologist	-11.391
▁throat	-11.391
▁throne	-11.391
▁IMF	-11.391
▁implant	-11.391
▁internet	-11.391
▁Thanksgiving	-11.391
▁excuse	-11.391
▁Douglas	-11.391
▁Hassan	-11.391
▁justify	-11.391
▁historian	-11.391
▁mild	-11.391
▁GPS	-11.391
▁transmission	-11.391
▁spokesperson	-11.391
▁Express	-11.391
▁Bennett	-11.391
▁framework	-11.391
▁uprising	-11.391
▁Honda	-11.391
▁joy	-11.391
▁rehabilitation	-11.391
▁fatalities	-11.391
▁determination	-11.391
▁isolation	-11.391
lihood	-11.391
▁Lynch	-11.3911
▁tenure	-11.3911
▁uncertain	-11.3911
▁convene	-11.3911
▁utility	-11.3911
▁$300	-11.3911
▁gunfire	-11.3912
▁Tourism	-11.3912
▁filing	-11.3913
cified	-11.3913
▁Duke	-11.3913
▁consumed	-11.3913
▁Rick	-11.3914
▁Industry	-11.3915
▁brilliant	-11.3915
▁diagnosed	-11.3915
▁pure	-11.3917
▁purported	-11.3918
▁tentative	-11.3919
▁Antarctica	-11.3919
isease	-11.392
▁centre	-11.392
▁25,000	-11.392
▁patience	-11.392
▁Next	-11.392
▁Wang	-11.3921
▁bump	-11.3923
▁formation	-11.3923
▁cheaper	-11.3924
▁restraint	-11.3925
olo	-11.3926
▁clay	-11.3927
▁2,500	-11.3934
▁shouting	-11.394
nch	-11.394
▁cub	-11.394
read	-11.3944
yphoon	-11.3947
▁Fla	-11.3948
ore	-11.395
lateral	-11.3951
▁cheering	-11.3952
▁fairly	-11.3956
▁Hawking	-11.3958
▁revenues	-11.3961
▁caps	-11.3964
▁Roy	-11.3966
▁actively	-11.3969
▁employed	-11.3972
▁del	-11.3977
▁Report	-11.3979
▁appealing	-11.3983
▁Gary	-11.3991
▁implications	-11.3992
▁fr	-11.3999
06	-11.4003
▁contractors	-11.4003
▁Girls	-11.4005
▁rolled	-11.4006
▁rotat	-11.4012
▁deliberate	-11.4012
▁covers	-11.4016
▁venues	-11.4016
▁jointly	-11.4024
▁annually	-11.4027
▁holidays	-11.4028
75	-11.4028
▁mammals	-11.4032
▁Cape	-11.4033
▁symbolic	-11.4035
oom	-11.4042
▁$200	-11.4042
▁amendment	-11.4044
▁destination	-11.4045
▁allegation	-11.4051
▁angered	-11.4055
rim	-11.4057
▁500)	-11.406
▁spur	-11.4062
▁shipments	-11.4072
cantil	-11.4073
▁Doo	-11.4086
▁Indians	-11.4087
▁dig	-11.4088
▁180	-11.4091
300	-11.4093
▁Dell	-11.4095
▁plain	-11.41
▁dealt	-11.4102
bre	-11.4102
▁Jam	-11.4114
hara	-11.4124
▁routes	-11.4128
▁shutt	-11.4129
▁climbing	-11.4129
▁asset	-11.4134
▁84	-11.415
▁17,	-11.415
▁tag	-11.4153
1-1	-11.4157
39	-11.4159
▁Jane	-11.4159
▁fed	-11.416
▁trails	-11.4161
▁compar	-11.4167
▁surviv	-11.4175
BI	-11.4176
open	-11.4177
fo	-11.4177
fri	-11.418
mission	-11.4181
Syrian	-11.4183
degree	-11.4183
speaking	-11.4184
three	-11.4184
▁Romania	-11.4187
200	-11.419
▁19,	-11.419
ME	-11.4191
Yes	-11.4192
cut	-11.4196
▁secur	-11.4197
▁Engineer	-11.4201
host	-11.4203
▁21-	-11.4207
▁boast	-11.4212
▁appoint	-11.4213
▁Sand	-11.4213
tries	-11.4213
wal	-11.4215
▁Anna	-11.4216
▁rig	-11.4225
▁FA	-11.4239
▁loose	-11.424
▁sharks	-11.4248
▁ultimate	-11.4251
dding	-11.4256
▁shake	-11.4258
▁magic	-11.426
▁pan	-11.4262
▁bi	-11.4263
▁possess	-11.4265
▁Recent	-11.4265
erhaps	-11.4265
understood	-11.4267
augural	-11.4267
▁($4	-11.4267
▁Abraham	-11.4267
▁Baquba	-11.4267
▁Business	-11.4267
▁Glasgow	-11.4267
▁Gusmao	-11.4267
▁McDonald	-11.4267
▁Nebraska	-11.4267
▁Silva	-11.4267
▁Solomon	-11.4267
▁Waziristan	-11.4267
▁ammunition	-11.4267
▁artillery	-11.4267
▁captivity	-11.4267
▁certificate	-11.4267
▁consortium	-11.4267
▁earliest	-11.4267
▁fishermen	-11.4267
▁laureate	-11.4267
▁nervous	-11.4267
▁peacekeepers	-11.4267
▁recognition	-11.4267
▁streak	-11.4267
▁victories	-11.4267
▁impression	-11.4267
▁intensive	-11.4267
▁milk	-11.4267
▁powder	-11.4267
▁reaffirm	-11.4267
▁Manila	-11.4267
▁ferry	-11.4267
▁decree	-11.4267
▁sank	-11.4267
▁Irish	-11.4267
▁introduction	-11.4267
▁damaging	-11.4267
▁memories	-11.4267
▁Stanley	-11.4267
▁Train	-11.4267
▁foment	-11.4268
▁predominant	-11.4268
▁defectors	-11.4268
▁Chosun	-11.4268
▁Theater	-11.4268
▁piracy	-11.4268
▁tennis	-11.4268
▁1973	-11.4268
▁Portland	-11.4268
▁modest	-11.4269
▁Ivan	-11.4269
▁7-6	-11.4269
▁Jeong	-11.4269
▁Harrison	-11.4269
▁friendship	-11.4269
▁Night	-11.4269
▁unconscious	-11.427
▁Greenland	-11.427
▁rattl	-11.427
▁youths	-11.427
▁pants	-11.4271
▁pursuit	-11.4271
▁Fisher	-11.4271
▁attractive	-11.4271
▁territories	-11.4272
▁Yale	-11.4274
▁dug	-11.4274
▁thriller	-11.4275
▁buzz	-11.4275
▁prescription	-11.4275
▁System	-11.4275
▁3-1	-11.4277
▁nobody	-11.4277
▁mechanical	-11.4278
▁MDC	-11.4278
▁passion	-11.4279
▁Wie	-11.428
▁beaches	-11.4281
▁chanted	-11.4284
koo	-11.4284
▁hardest	-11.4285
38	-11.4286
▁Rita	-11.4287
▁overwhelmingly	-11.4288
▁Anti	-11.4289
▁ratio	-11.4295
▁faithful	-11.4296
▁waged	-11.4297
▁Key	-11.4298
key	-11.4299
handed	-11.4301
▁outlaw	-11.4302
▁bench	-11.4305
▁Jona	-11.4306
▁lean	-11.4309
▁lifetime	-11.4309
▁relaxed	-11.4309
▁45-	-11.4314
bel	-11.4316
▁guided	-11.4317
▁nam	-11.4318
▁170	-11.432
grid	-11.432
▁gorillas	-11.432
▁seeming	-11.4321
▁partial	-11.4322
▁liter	-11.4326
▁flare	-11.4328
start	-11.433
4,000	-11.4331
▁spat	-11.4333
▁hood	-11.4334
ori	-11.4339
▁complaining	-11.4341
▁slumped	-11.4343
mes	-11.4344
▁stemm	-11.4352
▁tools	-11.4353
ech	-11.4359
▁murdered	-11.436
▁prostitutes	-11.4361
▁h	-11.437
af	-11.4372
▁tactics	-11.4372
▁critic	-11.4375
96	-11.4378
▁MI	-11.4378
▁files	-11.4378
lit	-11.4379
▁bother	-11.4385
▁dated	-11.4385
▁aspects	-11.4385
▁Syrian	-11.4391
▁organ	-11.4397
USA	-11.44
tte	-11.4404
▁conclude	-11.4405
▁folks	-11.4409
▁tribes	-11.441
6,000	-11.4412
▁biologist	-11.4412
▁Spaniard	-11.4414
▁fence	-11.4414
▁objective	-11.4415
▁bull	-11.4416
▁cigarette	-11.4417
▁celebration	-11.4419
▁Andre	-11.4421
▁preparation	-11.4422
▁Qu	-11.4422
▁AK	-11.4424
▁Cas	-11.4436
▁poster	-11.4439
try	-11.4441
▁pandas	-11.4443
▁coordinat	-11.4446
▁belongs	-11.4453
▁container	-11.4459
▁reserves	-11.446
▁buyer	-11.4466
▁din	-11.4471
▁lighting	-11.4472
hwan	-11.4473
▁doubts	-11.4474
▁Days	-11.4475
▁1.1	-11.448
▁celebrations	-11.4485
-19	-11.4486
▁answered	-11.4493
▁horses	-11.4502
▁emerge	-11.4515
87	-11.4515
▁Fi	-11.4516
▁Globes	-11.4517
▁donors	-11.452
▁directors	-11.4531
▁secrets	-11.4534
propell	-11.4541
▁polled	-11.4542
ological	-11.4544
▁pointing	-11.4546
Islam	-11.4551
wheel	-11.4553
million	-11.4554
worth	-11.4554
phone	-11.4555
▁impos	-11.4559
AS	-11.456
▁Pal	-11.457
around	-11.457
▁Brig	-11.457
▁origin	-11.4572
▁highlights	-11.4575
▁prop	-11.458
▁sleeping	-11.4585
▁reopen	-11.4585
-16	-11.4589
nom	-11.4593
▁dreams	-11.4608
89	-11.4611
yang	-11.4612
Equ	-11.4612
▁Environment	-11.4617
▁wage	-11.4619
▁monarch	-11.4624
▁Kitt	-11.4625
▁smooth	-11.4629
put	-11.463
▁Michel	-11.4631
▁corps	-11.4634
▁lungs	-11.4634
▁rankings	-11.4634
▁lure	-11.4636
burg	-11.4636
▁audit	-11.4636
▁emba	-11.4637
▁pipe	-11.4637
▁swim	-11.4637
▁Arkansas	-11.4637
▁CITY	-11.4637
▁Computer	-11.4637
▁Conservation	-11.4637
▁ElBaradei	-11.4637
▁Enterprise	-11.4637
▁Fernandez	-11.4637
▁Fitzgerald	-11.4637
▁Guatemala	-11.4637
▁Interfax	-11.4637
▁Janeiro	-11.4637
▁Kerviel	-11.4637
▁Libby	-11.4637
▁Spitzer	-11.4637
▁Taipei	-11.4637
▁Talabani	-11.4637
▁accurate	-11.4637
▁broadband	-11.4637
▁condolences	-11.4637
▁decisive	-11.4637
▁drought	-11.4637
▁homicide	-11.4637
▁mechanism	-11.4637
▁relevant	-11.4637
▁staunch	-11.4637
▁undisclosed	-11.4637
▁Petersburg	-11.4637
▁Stearns	-11.4637
▁dignity	-11.4637
▁humor	-11.4637
▁pocket	-11.4637
▁saddened	-11.4637
▁shoppers	-11.4637
▁Arnold	-11.4637
▁Ashley	-11.4637
▁Kazakhstan	-11.4637
▁Gerrard	-11.4637
▁racing	-11.4637
▁reign	-11.4637
▁domain	-11.4638
▁chocolate	-11.4638
▁trash	-11.4638
▁Fifty	-11.4638
▁hurl	-11.4638
▁embezzlement	-11.4638
▁stunned	-11.4638
▁keen	-11.4638
▁verification	-11.4638
yacht	-11.4638
▁indictment	-11.4638
▁Gyeonggi	-11.4638
▁smell	-11.4638
▁Fujimori	-11.4638
▁ashore	-11.4638
▁milestone	-11.4638
▁glow	-11.4638
▁Venus	-11.4638
▁Nature	-11.4638
▁Twelve	-11.4639
▁bride	-11.4639
▁1975	-11.4639
▁Globo	-11.4639
uperior	-11.4639
▁Book	-11.4639
▁grim	-11.4639
▁raw	-11.4639
▁Centre	-11.464
▁Glor	-11.464
▁Leonardo	-11.464
▁plotting	-11.464
▁implementation	-11.4641
▁affiliates	-11.4642
▁Mediterranean	-11.4642
▁secretive	-11.4643
▁Eli	-11.4643
▁Goldman	-11.4643
▁unanimously	-11.4644
▁Bulgarian	-11.4644
▁outpost	-11.4645
▁KCNA	-11.4646
▁UFO	-11.4646
▁frontier	-11.4647
▁imprisoned	-11.4647
▁mastermind	-11.4647
▁Currently	-11.4649
cation	-11.4649
▁Lawmaker	-11.465
▁Barry	-11.4651
▁pois	-11.4651
▁Liu	-11.4651
▁4.5	-11.4652
▁happiness	-11.4652
▁Jiang	-11.4653
1/2	-11.4653
▁scatter	-11.4654
▁Order	-11.4656
▁Hang	-11.4658
▁safer	-11.466
▁ministerial	-11.4663
▁procession	-11.4666
23	-11.4667
▁applicants	-11.4672
▁reasonable	-11.4673
▁examine	-11.4675
▁Midwest	-11.4678
▁drowned	-11.4681
92	-11.4684
▁sisters	-11.4684
▁Sin	-11.4684
now	-11.4685
▁scare	-11.4693
tall	-11.4695
▁doping	-11.4698
▁disabled	-11.4699
▁buck	-11.47
GO	-11.47
▁penguins	-11.4701
▁shelves	-11.4701
eat	-11.4711
▁6-	-11.4713
▁facts	-11.4715
Bar	-11.4715
▁OK	-11.4717
▁chips	-11.4719
preferred	-11.4719
ress	-11.4721
▁pastor	-11.4723
ique	-11.4724
who	-11.4728
▁Records	-11.4735
▁employers	-11.4737
▁internationally	-11.4738
▁difficulty	-11.4743
▁indoor	-11.4744
▁Mwa	-11.4744
▁bio	-11.4744
▁suits	-11.4744
seeded	-11.4746
▁Arabs	-11.475
▁AT	-11.4752
▁weakened	-11.4752
▁popp	-11.4757
▁measured	-11.4765
▁headlines	-11.4769
▁veterans	-11.4769
▁Dominica	-11.4771
▁dissidents	-11.4777
▁grenades	-11.4777
▁studios	-11.4778
▁negotiated	-11.4779
▁te	-11.4788
▁elder	-11.4788
▁nod	-11.4791
▁load	-11.4792
▁brick	-11.4799
▁sheets	-11.4801
▁odd	-11.4803
▁barrier	-11.4803
▁survivor	-11.4806
▁finals	-11.4812
▁outlets	-11.4812
▁lots	-11.4821
▁finger	-11.4837
▁riches	-11.4838
▁afterward	-11.4842
▁cartoons	-11.4843
▁await	-11.4844
▁Adams	-11.4846
▁cop	-11.4861
ado	-11.4863
igan	-11.4864
ement	-11.4874
iang	-11.4879
▁quarterfinals	-11.4887
▁wheel	-11.4887
far	-11.4888
ew	-11.4895
▁semifinals	-11.4895
▁painting	-11.4904
▁83	-11.4906
▁laptops	-11.4906
▁creatures	-11.4906
▁reli	-11.4914
AM	-11.4915
▁tube	-11.4918
▁examin	-11.4922
▁li	-11.4926
▁sometime	-11.4927
▁tours	-11.4928
▁(6	-11.4936
▁Gett	-11.4936
quality	-11.4938
Bush	-11.4939
▁Com	-11.4939
wife	-11.4939
▁replac	-11.4943
plus	-11.4945
▁Ger	-11.4949
OR	-11.4954
3,000	-11.4956
▁employ	-11.4958
▁circle	-11.4959
▁dismiss	-11.4962
shan	-11.4965
▁abolish	-11.4967
▁Monte	-11.4976
ova	-11.498
▁choos	-11.4994
▁Lead	-11.4996
cla	-11.4998
wind	-11.5002
73	-11.5003
▁practices	-11.5003
▁unsuccessful	-11.5005
▁dismantle	-11.5005
▁ignore	-11.5007
▁plunge	-11.5007
▁explore	-11.5013
▁smart	-11.5014
▁presum	-11.5016
▁caucus	-11.5018
▁Nichol	-11.5021
▁preced	-11.5022
▁mini	-11.5022
responsibilities	-11.5022
▁1984	-11.5022
▁Anthony	-11.5022
▁Arafat	-11.5022
▁Aziz	-11.5022
▁BMW	-11.5022
▁Brussels	-11.5022
▁Campaign	-11.5022
▁Economist	-11.5022
▁Emanuel	-11.5022
▁Geithner	-11.5022
▁Ghraib	-11.5022
▁KAB	-11.5022
▁Passenger	-11.5022
▁Rouge	-11.5022
▁Starbucks	-11.5022
▁Vershbow	-11.5022
▁companion	-11.5022
▁default	-11.5022
▁franchise	-11.5022
▁glimpse	-11.5022
▁iTunes	-11.5022
▁kangaroo	-11.5022
▁mysterious	-11.5022
▁paparazzi	-11.5022
▁pricing	-11.5022
▁romance	-11.5022
▁sequence	-11.5022
▁silver	-11.5022
▁sluggish	-11.5022
▁transcript	-11.5022
Zulu	-11.5022
▁apple	-11.5022
▁piano	-11.5022
▁refrain	-11.5022
▁shaking	-11.5022
▁Melbourne	-11.5022
▁cousin	-11.5022
▁Mikh	-11.5022
▁ourselves	-11.5022
▁Voters	-11.5022
▁identification	-11.5022
▁imprisonment	-11.5022
▁seizure	-11.5022
▁psychological	-11.5022
▁Father	-11.5022
▁eliminate	-11.5022
▁Matsu	-11.5023
▁Frontier	-11.5023
▁saga	-11.5023
▁Seok	-11.5023
▁prosperity	-11.5023
▁Ce	-11.5023
▁Busan	-11.5023
▁1978	-11.5023
▁Ju	-11.5023
BMI	-11.5023
▁bribes	-11.5024
▁hover	-11.5024
▁Town	-11.5024
▁Eastwood	-11.5024
▁panic	-11.5025
▁interpret	-11.5025
▁Barak	-11.5025
▁projections	-11.5025
▁Kwon	-11.5026
▁Walker	-11.5026
▁2014	-11.5027
▁voluntar	-11.5027
▁propaganda	-11.5027
▁Gamba	-11.5028
▁drain	-11.5028
▁Incheon	-11.5028
▁courtroom	-11.5028
▁Dave	-11.5029
▁Rail	-11.503
▁indefinitely	-11.5031
▁pole	-11.5031
yan	-11.5031
▁lion	-11.5031
seller	-11.5032
▁Capt	-11.5035
▁dire	-11.5035
▁Organizers	-11.5035
▁Electora	-11.5036
▁sensitivity	-11.5037
▁waving	-11.5037
▁USFK	-11.5039
▁stripped	-11.504
▁measurement	-11.5042
▁Talk	-11.5043
▁500,000	-11.5043
▁mat	-11.5044
▁AFP	-11.5044
▁massage	-11.5045
▁cycle	-11.5047
goers	-11.5049
gram	-11.5052
ichi	-11.5058
▁Angel	-11.5059
▁underway	-11.5063
▁divorced	-11.5065
▁inspire	-11.5068
sper	-11.5069
▁Mc	-11.5079
▁diamonds	-11.508
▁challenger	-11.5082
▁Lion	-11.5085
▁2000,	-11.5085
▁Cole	-11.5092
▁Rain	-11.5093
▁exchanges	-11.5094
▁worsening	-11.5099
▁lit	-11.5104
▁Ze	-11.5106
itive	-11.5108
▁divers	-11.511
▁Milk	-11.5111
▁hunters	-11.5112
▁sessions	-11.5116
▁va	-11.5131
▁conversations	-11.5133
55	-11.5133
▁mess	-11.5135
▁Fan	-11.5141
▁insult	-11.5141
ute	-11.5141
die	-11.5145
▁clip	-11.5146
▁independents	-11.5149
▁booked	-11.5152
▁intend	-11.5153
▁incentives	-11.5159
▁bang	-11.5161
▁Fu	-11.5161
▁formula	-11.5162
▁strengthening	-11.5163
▁Sar	-11.5172
▁0	-11.5179
▁coins	-11.5179
▁asks	-11.5192
▁institution	-11.5196
▁fruit	-11.5197
▁ambulance	-11.5198
▁component	-11.52
▁priest	-11.52
▁migrant	-11.5201
▁pattern	-11.5202
▁Adam	-11.5203
▁improvement	-11.5203
sung	-11.5204
▁negotiation	-11.5208
▁Tor	-11.521
▁abused	-11.5211
▁Fe	-11.5213
▁Rat	-11.5217
▁riders	-11.5218
▁stones	-11.523
▁aftershocks	-11.523
nlike	-11.5231
▁pe	-11.5235
▁farming	-11.5235
37,000	-11.5239
aba	-11.5244
▁wages	-11.5255
▁cigarettes	-11.5257
hoe	-11.5271
▁cartoon	-11.5274
lining	-11.5278
arranged	-11.5279
▁voter	-11.5279
▁poses	-11.5281
lf	-11.5283
▁owns	-11.5287
▁oppos	-11.5287
▁28-	-11.529
▁channels	-11.5293
▁dump	-11.5303
▁ears	-11.5304
trick	-11.5322
asi	-11.5322
atch	-11.5327
▁Y	-11.533
▁medicines	-11.5338
dominated	-11.5338
historic	-11.5339
percent	-11.5339
National	-11.5342
market	-11.5342
▁neighborhoods	-11.5345
▁operators	-11.5347
▁reviewed	-11.5353
▁surf	-11.5354
▁Bever	-11.5361
due	-11.5365
ux	-11.5379
▁Si	-11.5381
ritage	-11.5391
▁semi	-11.5393
ido	-11.5393
83	-11.5395
▁Polls	-11.5396
▁sa	-11.5398
▁$30	-11.5399
two	-11.5405
▁trans	-11.5405
▁slaughter	-11.5409
▁contend	-11.5412
▁unfortunate	-11.5415
▁opera	-11.5417
▁spare	-11.5418
▁column	-11.5418
▁Falluja	-11.542
▁repatriat	-11.5421
▁Social	-11.5421
▁wreck	-11.5421
ould	-11.5421
elief	-11.5422
▁embezzl	-11.5422
▁Avenue	-11.5422
▁Caracas	-11.5422
▁Diamond	-11.5422
▁Hariri	-11.5422
▁Monica	-11.5422
▁Nairobi	-11.5422
▁Prophet	-11.5422
▁SARS	-11.5422
▁categories	-11.5422
▁contingent	-11.5422
▁espionage	-11.5422
▁extradition	-11.5422
▁fantastic	-11.5422
▁frustration	-11.5422
▁kimchi	-11.5422
▁mummy	-11.5422
▁peanut	-11.5422
▁radiation	-11.5422
▁sentencing	-11.5422
▁stomach	-11.5422
▁telecom	-11.5422
▁terrible	-11.5422
▁tomatoes	-11.5422
▁trauma	-11.5422
▁Cairo	-11.5422
▁Greenspan	-11.5422
▁garage	-11.5422
▁monument	-11.5422
▁robust	-11.5422
▁vacuum	-11.5422
▁Brewer	-11.5422
▁irregularities	-11.5422
▁slim	-11.5422
▁Knut	-11.5422
▁brown	-11.5422
▁timing	-11.5422
▁cattle	-11.5422
▁vault	-11.5422
▁Temple	-11.5422
▁array	-11.5422
▁Preston	-11.5422
▁properties	-11.5422
▁adequate	-11.5422
▁Freedom	-11.5422
▁shadow	-11.5422
,900	-11.5423
▁Harvey	-11.5423
▁Biden	-11.5423
▁Golf	-11.5423
▁slavery	-11.5423
▁hatred	-11.5423
▁battleground	-11.5423
▁Movie	-11.5423
▁signature	-11.5423
▁Scottish	-11.5423
▁evaluation	-11.5423
▁Jamie	-11.5423
▁dramatically	-11.5424
▁Room	-11.5424
▁workforce	-11.5424
Everything	-11.5424
▁Jason	-11.5424
▁consultant	-11.5424
▁posing	-11.5424
▁collective	-11.5424
ane	-11.5424
▁1,800	-11.5425
▁mining	-11.5425
▁fitness	-11.5425
▁confidential	-11.5425
▁Bible	-11.5425
▁1,200	-11.5425
▁Seren	-11.5425
▁batch	-11.5425
▁Bali	-11.5426
▁Zoo	-11.5426
▁Fo	-11.5427
▁chase	-11.5428
▁overweight	-11.5428
hmer	-11.5429
▁overthrow	-11.5431
▁cloned	-11.5432
▁fallout	-11.5433
▁Case	-11.5433
▁Arthur	-11.5434
▁satisfied	-11.5434
▁motivated	-11.5435
▁250,000	-11.5435
▁Timo	-11.5435
▁Kitty	-11.5437
▁propose	-11.5437
▁bulk	-11.5438
▁fur	-11.5438
▁400,000	-11.5439
▁forecasts	-11.5439
ube	-11.5442
▁credits	-11.5445
digit	-11.5447
▁bath	-11.5449
▁screaming	-11.5451
▁disclosed	-11.5451
▁brothels	-11.5454
▁Best	-11.5455
▁HD	-11.5457
▁haul	-11.5457
▁rein	-11.5459
▁organic	-11.5465
ilo	-11.5465
▁resisted	-11.5467
▁dance	-11.5468
▁criticize	-11.5468
rise	-11.5469
▁participated	-11.5469
▁gangs	-11.5475
▁Chan	-11.548
18.5	-11.5484
▁Jud	-11.5484
▁permit	-11.5487
PF	-11.5489
▁Tropica	-11.5492
hin	-11.5496
▁contracting	-11.5503
lom	-11.5505
▁bombed	-11.5507
▁countryside	-11.5512
▁corporations	-11.5518
Ho	-11.5518
▁Read	-11.5519
▁independently	-11.5522
▁sooner	-11.5524
▁justices	-11.5525
shirt	-11.5531
▁26-	-11.5538
▁rebuilding	-11.5539
▁leaked	-11.5556
Laura	-11.5559
▁Marco	-11.556
▁recommend	-11.5561
mails	-11.5563
▁listening	-11.5574
▁networking	-11.5578
▁taxpayers	-11.5583
show	-11.5589
▁Torre	-11.5593
▁concerts	-11.5601
▁reserve	-11.5604
▁Judiciar	-11.5607
▁CAN	-11.5608
boo	-11.561
▁solutions	-11.5611
CA	-11.5614
▁honors	-11.5615
▁partnership	-11.5616
▁mask	-11.5616
▁Jeff	-11.5619
▁aftershock	-11.5625
▁contender	-11.5627
▁acknowledg	-11.5629
▁wildfires	-11.5629
▁lenders	-11.5632
▁filling	-11.5636
Bobby	-11.5636
▁KT	-11.5637
▁prizes	-11.5638
▁Bernie	-11.5641
ipped	-11.5645
lecommunications	-11.5648
▁wings	-11.5652
▁Chase	-11.5657
ON	-11.5657
▁cry	-11.5661
▁Kenne	-11.5663
NC	-11.5664
▁authors	-11.5683
▁cur	-11.5689
▁generals	-11.5689
▁inner	-11.5691
ripped	-11.5698
person	-11.5699
real	-11.57
Don	-11.5704
▁peers	-11.5707
specially	-11.5711
▁slash	-11.5711
▁reductions	-11.5714
oon	-11.5719
▁Pri	-11.5722
fish	-11.5722
▁produces	-11.5724
▁pledges	-11.5727
▁promises	-11.5735
52	-11.5736
▁informal	-11.5741
▁crop	-11.5746
▁mothers	-11.5747
▁sla	-11.5749
▁checkpoints	-11.5751
productive	-11.5753
used	-11.5753
Since	-11.5755
Chinese	-11.5756
Obama	-11.5756
serious	-11.5756
fall	-11.5756
income	-11.5757
box	-11.5759
▁ge	-11.5766
threatening	-11.5768
▁thoughts	-11.5769
▁substances	-11.577
▁habit	-11.5774
aged	-11.5775
▁alleg	-11.5775
▁consult	-11.5778
turned	-11.5781
five	-11.5786
table	-11.5787
▁enact	-11.5787
36	-11.579
een	-11.5803
▁Poll	-11.5806
▁finances	-11.5817
there	-11.5817
43	-11.5819
Con	-11.5819
▁eventual	-11.5825
▁necessar	-11.5826
▁endorse	-11.5827
▁wa	-11.583
▁Estonia	-11.5831
▁Bulgaria	-11.5831
▁psychiatr	-11.5832
▁l	-11.5834
▁observe	-11.5835
▁guitar	-11.5835
▁associates	-11.5836
▁Hyun	-11.5837
▁$13	-11.5838
▁Francis	-11.5838
▁absent	-11.5839
▁municipal	-11.5839
▁Product	-11.5839
▁Gyeong	-11.5839
▁Cameron	-11.5839
▁Cameroon	-11.5839
▁Canberra	-11.5839
▁Frankfurt	-11.5839
▁Lhasa	-11.5839
▁Newcastle	-11.5839
▁Nintendo	-11.5839
▁Orchestra	-11.5839
▁Oxford	-11.5839
▁Patrol	-11.5839
▁Rattray	-11.5839
▁Rhode	-11.5839
▁SUV	-11.5839
▁Schneider	-11.5839
▁Spratt	-11.5839
▁Studies	-11.5839
▁Woolmer	-11.5839
▁academy	-11.5839
▁applause	-11.5839
▁atrocities	-11.5839
▁automotive	-11.5839
▁bonuses	-11.5839
▁dementia	-11.5839
▁federation	-11.5839
▁leniency	-11.5839
▁precise	-11.5839
▁prototype	-11.5839
▁siege	-11.5839
▁subsidiary	-11.5839
▁Jeffrey	-11.5839
▁Owen	-11.5839
▁chunk	-11.5839
▁disband	-11.5839
▁Departed	-11.5839
▁Kurds	-11.5839
▁intellectual	-11.5839
▁Trust	-11.5839
▁misdemeanor	-11.5839
▁unchanged	-11.5839
▁Laurean	-11.5839
▁minus	-11.5839
▁easing	-11.5839
▁valley	-11.5839
▁Bonito	-11.5839
▁fireworks	-11.5839
▁rugged	-11.5839
▁cricket	-11.5839
▁respirator	-11.5839
▁smiling	-11.5839
▁tongue	-11.5839
▁Garcia	-11.5839
▁Polish	-11.5839
▁Venice	-11.5839
▁Orthodox	-11.5839
▁organizing	-11.5839
▁Condon	-11.5839
▁hammer	-11.5839
▁jewelry	-11.5839
▁Foley	-11.5839
▁linger	-11.5839
▁undecided	-11.5839
▁Zhang	-11.5839
▁uncertainty	-11.5839
▁intact	-11.5839
▁Tamil	-11.584
▁Gerry	-11.584
▁Bird	-11.584
▁flock	-11.584
joon	-11.584
▁spotlight	-11.584
▁Yes	-11.584
▁Ismail	-11.584
▁Fear	-11.584
▁programming	-11.584
▁1,400	-11.5841
▁distan	-11.5841
▁cabin	-11.5842
▁787	-11.5842
▁frame	-11.5843
▁Anbar	-11.5843
▁rejection	-11.5844
▁frustrated	-11.5844
▁contaminated	-11.5845
▁Store	-11.5846
▁basement	-11.5846
▁Rece	-11.5847
▁concentrated	-11.5847
▁owe	-11.5847
▁Dokdo	-11.5848
▁tremendous	-11.5848
▁farewell	-11.5848
▁Entertainment	-11.5848
▁deem	-11.5848
▁anymore	-11.5849
▁commemorate	-11.5851
Fi	-11.5851
▁Intel	-11.5851
▁controlling	-11.5851
▁planner	-11.5852
ennis	-11.5852
▁pun	-11.5853
▁creator	-11.5853
▁Zimbabwean	-11.5853
▁constructive	-11.5854
▁debts	-11.5855
▁pink	-11.5856
ox	-11.5856
▁castle	-11.5857
▁Side	-11.5858
▁Grant	-11.5858
▁60,000	-11.5859
▁7.9	-11.5861
▁essentially	-11.5862
▁sin	-11.5862
enos	-11.5862
▁emit	-11.5863
▁sum	-11.5863
▁26,	-11.5863
▁Andrea	-11.5868
▁Yankees	-11.5872
▁soul	-11.5875
ibly	-11.5876
▁razed	-11.5877
▁bold	-11.5878
▁conflicts	-11.5881
▁Students	-11.5882
▁portal	-11.5884
▁speeches	-11.5887
▁tortured	-11.5888
▁tally	-11.5889
▁DE	-11.5898
▁holed	-11.5898
▁chairs	-11.5903
▁accelerate	-11.5915
▁examined	-11.5915
teractive	-11.5915
▁tense	-11.5918
▁Croatia	-11.5918
▁IT	-11.5921
▁breeding	-11.5923
▁Tens	-11.5923
▁nationally	-11.5928
▁fail	-11.5934
▁99	-11.5936
ua	-11.5947
Go	-11.5954
▁Along	-11.5956
▁photographed	-11.5957
▁arrangements	-11.5959
▁declines	-11.5961
▁pets	-11.5964
▁shoulders	-11.5967
▁VE	-11.5969
hould	-11.597
▁genes	-11.5972
▁Leone	-11.5975
▁rioting	-11.598
▁Browne	-11.5982
▁$27	-11.5987
▁contents	-11.5988
▁risky	-11.5988
▁chemicals	-11.5989
▁strained	-11.5991
▁1.6	-11.5991
▁fam	-11.5994
▁Bra	-11.5998
lese	-11.5999
▁bodyguards	-11.6007
ngelina	-11.6008
▁PCs	-11.6015
▁feeding	-11.6015
▁flowers	-11.6022
▁sections	-11.6027
▁grabs	-11.6036
▁tapes	-11.6036
they	-11.6037
▁1.4	-11.6038
▁inflict	-11.6038
▁Karl	-11.6038
▁layer	-11.6044
▁snake	-11.6052
gger	-11.6052
▁wildfire	-11.6054
ologist	-11.6055
aki	-11.6055
▁sounded	-11.6061
▁habits	-11.6062
▁prayer	-11.6068
▁Nation	-11.6068
woo	-11.6069
▁beam	-11.6071
▁populations	-11.6079
trust	-11.6079
▁Gil	-11.608
▁rib	-11.6081
makers	-11.6083
94	-11.6085
chon	-11.6086
sam	-11.6088
▁ha	-11.6093
▁colors	-11.6096
▁Mak	-11.6102
,700	-11.6103
▁Kil	-11.6106
▁apartments	-11.6123
▁Wells	-11.6123
7.5	-11.6125
standing	-11.6126
▁App	-11.6134
tted	-11.6135
▁rats	-11.6137
▁specialists	-11.6139
▁highways	-11.6144
▁ranger	-11.6144
▁nominat	-11.615
enter	-11.6152
▁belong	-11.6162
▁Rad	-11.6164
▁Yous	-11.6167
▁pav	-11.6174
▁outbreaks	-11.6183
America	-11.6183
▁Sab	-11.6184
▁Yan	-11.6186
mouth	-11.619
spoken	-11.619
school	-11.619
Because	-11.619
Station	-11.619
fund	-11.6191
office	-11.6193
Every	-11.6193
▁advances	-11.6196
book	-11.6198
Che	-11.6202
▁log	-11.6202
▁Soon	-11.6203
▁measur	-11.6204
ravaged	-11.6206
▁qualify	-11.6208
ks	-11.6211
▁techniques	-11.6212
▁Deutsch	-11.6217
▁bout	-11.6219
▁Sy	-11.622
▁caution	-11.622
▁smash	-11.6227
▁Tigers	-11.6231
▁Nav	-11.6232
cast	-11.6235
away	-11.6236
▁bann	-11.6245
▁adventure	-11.6252
▁2012.	-11.6252
▁item	-11.6255
fired	-11.6263
▁bloc	-11.6266
▁Julie	-11.6266
▁stole	-11.6266
▁volcan	-11.6267
▁gifts	-11.6271
▁hire	-11.6272
▁evolution	-11.6272
▁recess	-11.6272
▁excess	-11.6272
▁Niger	-11.6273
▁Front	-11.6273
Jazeera	-11.6274
KOSPI	-11.6274
Zaidi	-11.6274
studded	-11.6274
▁Austin	-11.6274
▁Baltimore	-11.6274
▁Cincinnati	-11.6274
▁Crichton	-11.6274
▁Hispanic	-11.6274
▁Idaho	-11.6274
▁Initiative	-11.6274
▁Levinson	-11.6274
▁Nistelrooy	-11.6274
▁Rashid	-11.6274
▁Zoellick	-11.6274
▁acquisition	-11.6274
▁armistice	-11.6274
▁assurance	-11.6274
▁embassies	-11.6274
▁ethanol	-11.6274
▁ethics	-11.6274
▁extremism	-11.6274
▁facial	-11.6274
▁illicit	-11.6274
▁immune	-11.6274
▁lesbian	-11.6274
▁prefecture	-11.6274
▁premium	-11.6274
▁reckless	-11.6274
▁rhythm	-11.6274
▁scratch	-11.6274
▁scrutiny	-11.6274
▁significance	-11.6274
▁subsidies	-11.6274
▁wheat	-11.6274
▁Hadley	-11.6274
▁gossip	-11.6274
▁trophy	-11.6274
▁Ledger	-11.6274
▁CAC	-11.6274
▁fiber	-11.6274
makeshift	-11.6274
▁salmonella	-11.6274
▁Claus	-11.6274
▁Madison	-11.6274
▁Junichi	-11.6274
▁comparison	-11.6274
▁logistic	-11.6274
▁Malawi	-11.6274
▁abnormal	-11.6274
▁breast	-11.6274
▁confusion	-11.6274
▁inspiration	-11.6274
▁flexible	-11.6274
▁methane	-11.6274
▁Thie	-11.6274
▁voluntarily	-11.6274
▁cluster	-11.6274
▁Valerie	-11.6274
▁apologies	-11.6274
▁minimiz	-11.6274
▁click	-11.6274
▁grain	-11.6274
▁priorities	-11.6274
▁premature	-11.6274
▁squid	-11.6274
▁confine	-11.6274
▁Sharon	-11.6274
▁literally	-11.6274
▁Blatter	-11.6275
▁orange	-11.6275
▁handgun	-11.6275
▁pageant	-11.6275
▁1983	-11.6275
▁giants	-11.6275
▁Edition	-11.6275
▁repatriation	-11.6275
▁Area	-11.6275
▁discoveries	-11.6275
▁detective	-11.6275
▁1964	-11.6275
▁dependent	-11.6275
▁contentious	-11.6275
▁Trail	-11.6276
▁Maoist	-11.6276
▁steadily	-11.6276
▁$250	-11.6276
▁Mattel	-11.6276
▁Guardian	-11.6277
▁soften	-11.6277
▁greenback	-11.6277
▁gum	-11.6277
▁drunken	-11.6277
ww	-11.6278
▁robotic	-11.6278
▁Neil	-11.6278
▁Ste	-11.6279
▁stumbl	-11.6279
▁slain	-11.6279
▁1930	-11.6279
▁tumbled	-11.6279
▁logo	-11.628
▁Jean	-11.628
▁dealer	-11.6281
▁showdown	-11.6281
▁relieved	-11.6283
▁Climate	-11.6283
▁deck	-11.6284
▁Goh	-11.6284
ston	-11.6285
▁sufficient	-11.6287
loss	-11.6289
▁noise	-11.6289
▁barely	-11.629
Le	-11.629
▁Universal	-11.6291
▁genuine	-11.6291
▁playoff	-11.6291
▁agrees	-11.6292
▁bare	-11.6293
▁drinkers	-11.6293
▁deliberately	-11.6294
▁wip	-11.6296
▁Insoo	-11.6296
▁equipped	-11.6298
▁laborers	-11.6299
▁Your	-11.6302
▁Pole	-11.6302
▁Baby	-11.6303
▁everyday	-11.6305
▁None	-11.6306
▁Guy	-11.6307
▁Aug	-11.6307
▁soda	-11.6307
▁artifacts	-11.6309
▁airliner	-11.6314
uous	-11.6315
▁anyway	-11.6315
▁Aires	-11.6316
▁shipp	-11.6316
▁commands	-11.6319
▁addresses	-11.6321
▁Pla	-11.6323
▁der	-11.6323
hill	-11.6328
▁woode	-11.6328
▁dad	-11.6332
Full	-11.6334
▁scrambling	-11.6334
▁eased	-11.6335
9,000	-11.6335
54	-11.6336
▁mega	-11.6345
▁Bor	-11.6347
▁spurr	-11.6349
cia	-11.6352
▁Engineering	-11.6355
How	-11.6364
▁scared	-11.6365
▁Taj	-11.6372
▁pin	-11.6375
▁Late	-11.6375
ental	-11.639
▁overrun	-11.6393
kat	-11.6394
care	-11.6395
▁$1.3	-11.6395
▁developers	-11.6395
▁slogans	-11.6399
▁strengthened	-11.6403
NU	-11.641
▁bees	-11.6415
▁22-	-11.6419
how	-11.642
armed	-11.6422
ola	-11.6422
IC	-11.6429
usa	-11.6431
▁Springs	-11.6437
▁structures	-11.6439
▁Boris	-11.6441
▁conventional	-11.6442
Vi	-11.6444
▁33,	-11.6448
▁Turn	-11.6448
▁cheers	-11.6451
yeon	-11.6454
sea	-11.6456
▁92	-11.6458
▁tournaments	-11.646
▁districts	-11.6462
▁races	-11.6467
▁tires	-11.647
rate	-11.6474
▁bearing	-11.6477
▁Mur	-11.6479
▁opinions	-11.648
▁pave	-11.6482
igh	-11.6483
,100	-11.6486
only	-11.6487
▁Cam	-11.6495
▁Say	-11.6498
▁shocking	-11.6501
▁slowing	-11.6501
▁resemble	-11.6503
▁answers	-11.6506
▁classroom	-11.6507
▁110	-11.6507
▁panda	-11.6508
▁relation	-11.6511
▁inspector	-11.6512
▁greatly	-11.6514
▁30,	-11.653
▁Sport	-11.653
▁liver	-11.6532
▁rider	-11.6533
etary	-11.6544
,600	-11.6549
▁Work	-11.6554
▁trader	-11.657
▁publish	-11.6572
▁Qar	-11.6575
▁22,	-11.6576
77	-11.6581
EN	-11.6581
ware	-11.6583
▁bas	-11.6583
▁Ter	-11.6585
▁retrieve	-11.6593
▁brands	-11.6593
▁Mal	-11.6599
SA	-11.6599
▁savings	-11.6602
▁medications	-11.6602
▁cent	-11.6605
east	-11.6606
▁treats	-11.6608
▁div	-11.6608
▁chiefs	-11.6615
ational	-11.6618
planes	-11.6622
▁twist	-11.6625
▁Des	-11.6628
▁Hamm	-11.6629
grave	-11.6644
Indiana	-11.6644
magnitude	-11.6644
from	-11.6645
Japanese	-11.6645
would	-11.6646
▁Nah	-11.6652
▁$500	-11.6657
hard	-11.6657
▁experienc	-11.666
▁$24	-11.6662
onic	-11.6662
udge	-11.6662
▁novels	-11.6664
▁teach	-11.6667
▁cope	-11.6667
▁Multi	-11.6668
▁descend	-11.6674
▁relax	-11.6675
▁drown	-11.6675
being	-11.6679
▁Marin	-11.6689
▁bounc	-11.6693
ites	-11.6697
kov	-11.6698
▁rings	-11.6699
hood	-11.67
2,000	-11.6704
▁alter	-11.6707
▁surprising	-11.6712
▁invite	-11.6713
▁Franco	-11.6714
▁2.2	-11.6717
▁acquire	-11.6717
▁Hil	-11.6717
utter	-11.6718
rid	-11.6719
▁Electric	-11.672
▁Algeria	-11.6721
▁vigil	-11.6727
▁sect	-11.6727
omposite	-11.6728
▁Polanski	-11.6728
▁Suharto	-11.6728
▁Apollo	-11.6728
▁Arroyo	-11.6728
▁Atletico	-11.6728
▁Ballesteros	-11.6728
▁Blake	-11.6728
▁Cathedral	-11.6728
▁Damascus	-11.6728
▁Federline	-11.6728
▁Fidel	-11.6728
▁Gibbs	-11.6728
▁Griffin	-11.6728
▁MOSCOW	-11.6728
▁Minneapolis	-11.6728
▁Negroponte	-11.6728
▁Ronaldinho	-11.6728
▁Sacramento	-11.6728
▁Schuster	-11.6728
▁Shepherd	-11.6728
▁Sunshine	-11.6728
▁Telecom	-11.6728
▁Welfare	-11.6728
▁applaud	-11.6728
▁barricade	-11.6728
▁burglary	-11.6728
▁cancellation	-11.6728
▁collapsing	-11.6728
▁crystal	-11.6728
▁empire	-11.6728
▁fertility	-11.6728
▁harvest	-11.6728
▁identities	-11.6728
▁intelligent	-11.6728
▁juvenile	-11.6728
▁loneliness	-11.6728
▁reception	-11.6728
▁replied	-11.6728
▁retiring	-11.6728
▁snack	-11.6728
▁stalemate	-11.6728
▁subpoena	-11.6728
▁tycoon	-11.6728
▁underwear	-11.6728
▁BBK	-11.6728
▁Sumatra	-11.6728
▁Trading	-11.6728
▁anxious	-11.6728
▁Vincent	-11.6728
▁gambling	-11.6728
▁kitchen	-11.6728
▁bicycle	-11.6728
▁Jefferson	-11.6728
▁JOHAN	-11.6728
▁Tower	-11.6728
▁Further	-11.6728
▁rift	-11.6728
▁Holder	-11.6728
▁Laboratory	-11.6728
▁database	-11.6728
▁Brigade	-11.6729
▁Lawyer	-11.6729
▁Claren	-11.6729
▁Evans	-11.6729
▁Pearl	-11.6729
▁informant	-11.6729
▁pub	-11.6729
▁Kumar	-11.6729
▁Allison	-11.6729
▁Lucas	-11.6729
▁Keating	-11.6729
▁Prodi	-11.6729
▁Vietnamese	-11.6729
Masri	-11.6729
▁frog	-11.6729
▁veterinarian	-11.6729
▁1968	-11.6729
▁composite	-11.6729
▁bidding	-11.6729
▁hardware	-11.673
▁Haniya	-11.673
▁reminisc	-11.673
▁Harper	-11.673
▁Regional	-11.673
▁qualifier	-11.673
▁recount	-11.673
▁1985	-11.673
▁Buck	-11.673
▁Dili	-11.6731
▁chronic	-11.6731
▁fax	-11.6731
▁darkness	-11.6731
▁unification	-11.6731
▁1945	-11.6731
▁condemnation	-11.6731
▁Rico	-11.6731
gwan	-11.6731
▁Keane	-11.6732
▁costume	-11.6733
▁interaction	-11.6734
▁Glenn	-11.6734
▁tick	-11.6734
▁conceived	-11.6734
▁crumbl	-11.6735
▁dominate	-11.6736
▁superb	-11.6736
▁toppled	-11.6736
▁Hunter	-11.6736
▁somehow	-11.6737
▁courage	-11.6738
▁autonomy	-11.6738
▁disappointment	-11.6738
acc	-11.6738
▁deliveries	-11.6739
▁Kye	-11.674
▁Eva	-11.674
▁Lima	-11.6741
▁conceded	-11.6741
▁midday	-11.6741
▁stunt	-11.6741
▁splash	-11.6744
▁Thu	-11.6745
▁smokers	-11.6745
▁Sox	-11.6746
▁bizarre	-11.6746
▁universal	-11.6746
▁chased	-11.6747
▁trials	-11.6747
▁Clarke	-11.6747
▁accidentally	-11.6749
▁traced	-11.675
▁UCI	-11.675
▁rang	-11.6751
▁readers	-11.6751
▁Aviation	-11.6751
▁paralyzed	-11.6752
rubber	-11.6752
▁150,000	-11.6752
▁APEC	-11.6754
▁chanting	-11.6755
▁Ann	-11.6755
▁tender	-11.6755
▁32,	-11.6755
▁0.5	-11.6755
▁economically	-11.6755
▁revise	-11.6757
▁magnetic	-11.6757
▁Kenyans	-11.6757
▁$150	-11.6758
▁definition	-11.6758
▁extract	-11.6761
▁wives	-11.6762
▁Lal	-11.6763
generation	-11.6764
▁Tian	-11.6764
▁rear	-11.6765
▁Storm	-11.6766
▁avoided	-11.6766
▁hijacked	-11.6767
▁Lim	-11.6767
▁Hope	-11.6769
▁fatally	-11.6769
▁fl	-11.6771
▁observed	-11.6771
▁Gre	-11.6774
▁1.8	-11.6776
▁spann	-11.6777
▁Arabian	-11.6777
▁Brothers	-11.6778
78	-11.6781
▁Nam	-11.6782
▁Rap	-11.6793
▁scam	-11.6794
▁Hae	-11.6798
▁Funds	-11.6799
▁consulting	-11.68
▁licensed	-11.6802
▁79	-11.6807
▁clouds	-11.6809
▁SK	-11.6819
istic	-11.6822
▁Stalinis	-11.6822
▁valued	-11.6822
▁cinema	-11.6824
▁committees	-11.6837
▁kissing	-11.6839
yman	-11.6847
▁surrendered	-11.685
▁exporters	-11.6859
▁(5	-11.6861
▁carriers	-11.6862
▁cleaner	-11.6865
GM	-11.6865
▁monitored	-11.6867
IM	-11.6872
▁Charl	-11.688
▁dinosaurs	-11.688
▁requirements	-11.6881
▁Kid	-11.6883
▁speaks	-11.6899
▁releases	-11.6901
▁instruments	-11.6902
▁AG	-11.6902
LE	-11.6903
▁expires	-11.6903
▁attractions	-11.6903
63	-11.6904
▁bullets	-11.6904
▁backers	-11.6906
zy	-11.6911
▁installations	-11.6912
▁Ark	-11.6915
stair	-11.6916
▁remembered	-11.6924
▁helps	-11.6929
▁Bull	-11.6929
eight	-11.6935
▁sca	-11.6936
▁booming	-11.694
93	-11.6941
▁Pers	-11.6945
37	-11.6964
▁grab	-11.6964
▁outline	-11.6966
▁archiv	-11.6966
▁se	-11.6966
▁prospects	-11.6967
▁fails	-11.6968
▁90-	-11.697
▁(4	-11.697
dec	-11.6972
OL	-11.6974
▁Torres	-11.6978
▁900	-11.6981
▁automobile	-11.6981
▁captive	-11.6984
▁assertion	-11.6985
▁transaction	-11.6985
▁evaluate	-11.6986
▁shareholder	-11.6986
▁Serie	-11.6986
▁pirate	-11.6988
▁lender	-11.6989
▁surgeon	-11.6991
▁shipment	-11.6991
▁wheels	-11.6997
cio	-11.6997
▁experiences	-11.7001
▁migrants	-11.7005
▁Mine	-11.7008
sik	-11.701
▁wars	-11.7011
▁lover	-11.7016
▁Ac	-11.7018
itu	-11.7023
▁committ	-11.7023
▁pipelines	-11.7029
▁pills	-11.7029
▁Hav	-11.703
13	-11.7034
▁arrange	-11.7036
▁shall	-11.7039
▁processing	-11.7041
▁Tut	-11.7043
▁archaeologists	-11.7049
▁elephants	-11.7051
▁Serbs	-11.7051
▁quarters	-11.7056
OS	-11.706
▁resist	-11.7062
76	-11.7063
▁adj	-11.7066
▁hid	-11.7067
shin	-11.7069
▁tri	-11.707
gue	-11.7074
▁arrang	-11.7077
▁slid	-11.7078
rel	-11.7081
ria	-11.7084
ification	-11.7092
02	-11.7093
▁muscles	-11.7094
▁males	-11.7095
▁Marc	-11.7102
▁contribut	-11.7102
▁(11	-11.7104
deep	-11.7105
▁bust	-11.7108
▁AU	-11.7108
▁keeper	-11.7109
woman	-11.7111
ption	-11.7111
▁2.3	-11.7111
▁responses	-11.7116
Maybe	-11.7119
Everyone	-11.712
electric	-11.712
green	-11.7121
Chicago	-11.7121
John	-11.7121
director	-11.7123
▁speeding	-11.7125
other	-11.7126
▁separatists	-11.7126
▁surg	-11.7126
kick	-11.7128
▁disabl	-11.7129
▁’	-11.7133
▁complet	-11.7134
nprofit	-11.7135
▁scrambl	-11.7138
position	-11.7139
▁Hawk	-11.714
▁nutrition	-11.7141
▁earning	-11.7141
▁hosts	-11.7145
▁350	-11.7146
▁oust	-11.7147
▁Julia	-11.715
▁grip	-11.7151
▁depart	-11.7152
amba	-11.7155
▁drag	-11.7156
▁tasks	-11.716
▁94	-11.7163
▁sustain	-11.7164
▁vi	-11.7164
▁Ei	-11.7169
ride	-11.7172
ingham	-11.7176
avi	-11.7177
▁20,000-	-11.7181
▁overlook	-11.7185
▁Bros	-11.7186
▁Than	-11.7188
▁locate	-11.7189
▁random	-11.7189
▁Cit	-11.7189
▁luck	-11.7191
final	-11.7195
▁Ethiopia	-11.7197
▁snap	-11.7201
conscious	-11.7202
▁investigati	-11.7202
▁Clint	-11.7202
uicide	-11.7203
▁smuggle	-11.7203
▁differ	-11.7204
etween	-11.7204
▁immense	-11.7204
Zarqawi	-11.7204
▁Annapolis	-11.7204
▁Axelrod	-11.7204
▁Baldwin	-11.7204
▁Berkeley	-11.7204
▁Crawford	-11.7204
▁HSBC	-11.7204
▁Himalaya	-11.7204
▁Lehman	-11.7204
▁Lindsay	-11.7204
▁Miliband	-11.7204
▁Picture	-11.7204
▁Soccer	-11.7204
▁aquarium	-11.7204
▁bribery	-11.7204
▁brigade	-11.7204
▁deportation	-11.7204
▁disguis	-11.7204
▁erotic	-11.7204
▁escalating	-11.7204
▁gallery	-11.7204
▁genome	-11.7204
▁jirga	-11.7204
▁judiciary	-11.7204
▁maneuver	-11.7204
▁metropoli	-11.7204
▁ministries	-11.7204
▁offshore	-11.7204
▁parachute	-11.7204
▁parallel	-11.7204
▁recycling	-11.7204
▁scope	-11.7204
▁skyscraper	-11.7204
▁technological	-11.7204
▁unbeaten	-11.7204
▁Armenian	-11.7204
▁Third	-11.7204
▁depressed	-11.7204
▁glad	-11.7204
▁sneak	-11.7204
▁wrist	-11.7204
▁Meteorologi	-11.7204
▁considerably	-11.7204
▁deported	-11.7204
▁innocence	-11.7204
ategory	-11.7204
▁salary	-11.7204
▁Vista	-11.7204
▁poultry	-11.7204
▁Basque	-11.7204
▁spree	-11.7204
▁stockpile	-11.7204
▁wheelchair	-11.7204
▁definitive	-11.7204
▁literature	-11.7204
▁Hamburg	-11.7204
▁spiral	-11.7204
▁basketball	-11.7204
▁Fabio	-11.7204
▁pretend	-11.7204
▁stiff	-11.7205
▁snapped	-11.7205
▁forthcoming	-11.7205
▁railroad	-11.7205
▁blade	-11.7205
▁Export	-11.7205
▁Ellison	-11.7205
▁exploration	-11.7205
▁sheep	-11.7205
▁oversight	-11.7205
▁Richie	-11.7205
▁external	-11.7205
▁Spice	-11.7205
▁discrimination	-11.7205
▁Shwe	-11.7205
▁transparency	-11.7205
▁efficiency	-11.7205
▁terrain	-11.7205
▁loving	-11.7205
▁theories	-11.7206
▁1965	-11.7206
▁childhood	-11.7206
hapter	-11.7206
▁chill	-11.7207
▁Few	-11.7207
▁Liga	-11.7208
▁basically	-11.7208
▁battlefield	-11.7208
▁instructor	-11.7208
▁lightning	-11.7208
▁acceptance	-11.7208
▁vary	-11.7209
▁sightings	-11.7209
▁frontrunner	-11.7209
▁2018	-11.721
▁discharged	-11.721
▁blend	-11.721
▁Suzuki	-11.7211
▁Advisor	-11.7211
▁workplace	-11.7211
▁affordable	-11.7211
▁establishment	-11.7212
▁fier	-11.7214
▁justified	-11.7216
elcome	-11.7216
▁manufactured	-11.7217
04	-11.7217
▁triple	-11.7217
▁Produce	-11.7217
▁Joel	-11.7218
▁renowned	-11.7219
▁gravity	-11.722
▁sympathy	-11.722
▁irresponsible	-11.7223
▁Bae	-11.7226
▁sacked	-11.7229
▁eve	-11.723
▁upheld	-11.7232
▁Half	-11.7232
▁lineup	-11.7232
▁disgrace	-11.7233
FL	-11.7234
▁dual	-11.7235
▁Catholics	-11.7236
▁enduring	-11.7237
▁churches	-11.7238
CE	-11.724
▁soap	-11.7243
don	-11.7246
▁composer	-11.7247
▁Afghans	-11.7248
▁tune	-11.7252
▁holders	-11.7252
▁cha	-11.726
▁surfaced	-11.7271
▁inappropriate	-11.7272
▁Gran	-11.7273
▁Won	-11.7273
▁1,0	-11.7273
▁Correspondents	-11.7276
▁$16	-11.728
▁physically	-11.728
▁makeup	-11.7281
▁Marie	-11.7282
▁toured	-11.7292
▁textbooks	-11.7298
▁defined	-11.7302
▁secretly	-11.7303
▁recruited	-11.7303
tial	-11.7303
▁Maybe	-11.7305
Neal	-11.7309
▁emotions	-11.731
asha	-11.731
▁painted	-11.731
▁na	-11.7312
▁reviews	-11.7318
▁congratulate	-11.7319
▁Pop	-11.7328
▁promptly	-11.7331
enne	-11.7332
▁96	-11.7333
▁450	-11.7337
gel	-11.7338
rob	-11.734
OK	-11.734
▁hopefuls	-11.734
▁lett	-11.7342
▁uncle	-11.7347
▁cart	-11.7351
▁naturally	-11.7361
▁rolling	-11.7371
▁exchanged	-11.7374
▁Barr	-11.7376
▁barr	-11.7378
▁Communications	-11.7398
▁scholars	-11.7398
▁nurses	-11.7409
cli	-11.7411
lton	-11.7412
59	-11.7412
you	-11.7415
ean	-11.7422
▁Villa	-11.7427
▁103	-11.743
▁assertions	-11.7432
3.4	-11.7437
▁fann	-11.7439
▁Christin	-11.7444
▁dangers	-11.7445
▁tire	-11.7451
▁snakes	-11.7453
▁identifying	-11.746
320	-11.7463
▁filmed	-11.7465
▁arena	-11.747
▁regulator	-11.7471
▁custom	-11.7476
▁components	-11.7476
▁priests	-11.7476
▁Helen	-11.7481
▁commuter	-11.7485
▁Hank	-11.7485
▁recommendation	-11.7486
▁regulation	-11.7487
▁guarded	-11.7489
▁counterterroris	-11.7491
▁immigrant	-11.7491
ternal	-11.7505
▁sanction	-11.7507
▁outlet	-11.7508
▁AL	-11.7518
▁commanding	-11.7521
▁screens	-11.7521
▁blankets	-11.7521
▁articles	-11.7523
500	-11.7523
His	-11.7525
Ver	-11.753
▁Walters	-11.7534
▁JER	-11.7542
▁plug	-11.7551
▁hills	-11.7551
▁ne	-11.7552
▁(8	-11.7553
▁bands	-11.7563
▁19.	-11.7564
nants	-11.7566
▁Shim	-11.7569
▁Son	-11.7575
▁fortress	-11.7587
▁Ky	-11.7589
▁rifles	-11.7589
outgoing	-11.7589
size	-11.759
▁embryos	-11.7599
▁defin	-11.7601
▁erect	-11.7602
▁ensur	-11.7614
expected	-11.7618
billion	-11.762
Little	-11.762
▁($5	-11.762
efficient	-11.762
morning	-11.762
appointed	-11.7621
keep	-11.7621
normal	-11.7622
game	-11.7624
East	-11.7624
Even	-11.7624
trade	-11.7625
four	-11.7627
▁apologiz	-11.7627
left	-11.7628
▁16,	-11.7633
▁cloth	-11.7635
▁pledg	-11.7636
▁grace	-11.7641
▁argues	-11.7641
▁stir	-11.7645
▁embarrass	-11.7649
▁infect	-11.7661
▁Nu	-11.7663
▁defi	-11.7666
▁offend	-11.7671
▁Kan	-11.7675
aries	-11.7676
▁arrivals	-11.7681
▁pond	-11.7683
stein	-11.7683
▁disagree	-11.7688
▁disperse	-11.7689
▁dirt	-11.7691
MZ	-11.7691
▁zones	-11.7691
arms	-11.7692
▁115	-11.7697
▁restrain	-11.7697
▁cab	-11.7699
▁vocal	-11.7701
▁behaviors	-11.7703
▁tone	-11.7703
▁jewel	-11.7704
opyright	-11.7704
▁vest	-11.7704
▁cigar	-11.7704
▁meteor	-11.7704
spectacle	-11.7704
▁($6	-11.7704
▁Alejandr	-11.7704
▁Automotive	-11.7704
▁Bahrain	-11.7704
▁Brent	-11.7704
▁Capital	-11.7704
▁Century	-11.7704
▁Chungcheong	-11.7704
▁Commonwealth	-11.7704
▁Concern	-11.7704
▁Exxon	-11.7704
▁Flinchum	-11.7704
▁Glaser	-11.7704
▁Lloyd	-11.7704
▁Noriega	-11.7704
▁Phuket	-11.7704
▁Ritchie	-11.7704
▁Roosevelt	-11.7704
▁Santiago	-11.7704
▁Somchai	-11.7704
▁Supervisor	-11.7704
▁Trinidad	-11.7704
▁Wyoming	-11.7704
▁Zheng	-11.7704
▁affidavit	-11.7704
▁calendar	-11.7704
▁caretaker	-11.7704
▁clerk	-11.7704
▁convincing	-11.7704
▁dentist	-11.7704
▁deteriorating	-11.7704
▁exploring	-11.7704
▁galaxy	-11.7704
▁gloom	-11.7704
▁incarceration	-11.7704
▁kph	-11.7704
▁lavish	-11.7704
▁lucrative	-11.7704
▁luggage	-11.7704
▁memorabilia	-11.7704
▁nephew	-11.7704
▁nursing	-11.7704
▁pandemic	-11.7704
▁prevail	-11.7704
▁privilege	-11.7704
▁reassure	-11.7704
▁storage	-11.7704
▁strife	-11.7704
▁translator	-11.7704
▁unilateral	-11.7704
▁Bartz	-11.7704
▁IUCN	-11.7704
▁Rwanda	-11.7704
▁Youssif	-11.7704
▁casino	-11.7704
▁physics	-11.7704
▁Klein	-11.7704
▁History	-11.7704
▁bipartisan	-11.7704
▁ritual	-11.7704
▁ethical	-11.7704
▁Capello	-11.7704
▁reneg	-11.7704
▁complications	-11.7704
▁contrary	-11.7704
▁Turks	-11.7704
▁gust	-11.7704
▁Imus	-11.7704
▁Jihad	-11.7704
▁saint	-11.7704
▁Forbes	-11.7705
▁blunt	-11.7705
unaware	-11.7705
▁Hours	-11.7705
▁governance	-11.7705
▁imperial	-11.7705
▁feat	-11.7705
▁interference	-11.7705
▁Wonder	-11.7705
▁Slam	-11.7705
▁Diane	-11.7705
▁Indeed	-11.7705
▁Ballmer	-11.7705
LEM	-11.7705
▁revelation	-11.7705
▁parole	-11.7705
▁hook	-11.7705
▁barrage	-11.7705
▁exploitation	-11.7705
▁Nicholson	-11.7705
▁Kwang	-11.7705
▁Marshall	-11.7705
▁particles	-11.7705
▁Visit	-11.7705
▁consulate	-11.7705
▁supervision	-11.7705
▁1977	-11.7706
▁chasing	-11.7706
▁Serg	-11.7706
▁Messi	-11.7706
▁Sales	-11.7706
▁widening	-11.7707
▁attendance	-11.7707
▁collaboration	-11.7707
▁clutch	-11.7707
▁Kiev	-11.7708
▁deposed	-11.7708
ister	-11.7709
▁cartel	-11.771
▁avert	-11.771
▁Lower	-11.771
▁refin	-11.771
▁UNESCO	-11.7711
▁grandchildren	-11.7711
▁disposal	-11.7711
▁tenor	-11.7712
▁occasionally	-11.7713
▁console	-11.7713
▁anxiety	-11.7713
▁Turner	-11.7713
▁2050	-11.7713
▁dies	-11.7714
▁coastline	-11.7714
▁35,000	-11.7715
▁Guns	-11.7715
▁commerce	-11.7715
▁breathe	-11.7716
▁gradually	-11.7716
▁poorest	-11.7717
lis	-11.7717
▁regulatory	-11.7718
▁14,000	-11.7719
▁persistent	-11.772
▁bay	-11.772
▁Francois	-11.7722
▁spectators	-11.7722
▁portrayal	-11.7722
▁Tina	-11.7723
▁Shop	-11.7723
▁Ang	-11.7723
▁Qassam	-11.7724
shire	-11.7726
▁Truman	-11.7728
▁intensity	-11.7728
▁partisan	-11.7729
▁ETA	-11.7729
▁Cy	-11.773
▁ignited	-11.773
▁intervened	-11.7731
▁1953	-11.7731
▁contacts	-11.7732
▁BP	-11.7733
▁exclusively	-11.7734
▁staffers	-11.7737
▁Phillips	-11.7737
▁preach	-11.7738
too	-11.7739
▁plummeted	-11.7739
▁Fahrenheit	-11.7742
▁acquired	-11.7742
▁Dai	-11.7743
▁Writer	-11.7744
▁lyrics	-11.7745
▁Meeting	-11.7747
▁sincere	-11.7748
▁indications	-11.775
▁guaranteed	-11.775
▁blown	-11.7752
▁conspir	-11.7753
▁notified	-11.7754
▁cheered	-11.7754
▁eliminated	-11.7759
▁publicity	-11.776
▁cooking	-11.7761
▁sinking	-11.7761
▁Ltd	-11.7761
match	-11.7763
▁SAN	-11.7763
▁accidental	-11.7763
▁descended	-11.7764
▁addiction	-11.7764
▁Winston	-11.7766
Jimmy	-11.7766
▁Bonds	-11.7768
AW	-11.7768
▁bowl	-11.777
▁subjects	-11.7773
AO	-11.7773
▁7.1	-11.7774
kel	-11.7774
▁Mun	-11.7783
waiting	-11.7783
IDF	-11.7783
▁favorites	-11.7785
▁rocky	-11.7787
▁bloggers	-11.7791
▁underscore	-11.7794
jun	-11.7795
▁cables	-11.7795
Well	-11.7797
▁simulat	-11.7799
▁2.1	-11.7811
ati	-11.7811
uala	-11.7813
▁bite	-11.7815
▁sta	-11.7815
▁gallons	-11.7818
▁separately	-11.7822
▁prey	-11.7828
▁2011	-11.7829
▁harmed	-11.7834
▁Mail	-11.7835
probable	-11.7841
▁750	-11.7842
▁infiltrat	-11.7847
zone	-11.7851
▁lighter	-11.7859
fty	-11.7859
▁Range	-11.786
▁suppliers	-11.7861
▁Rand	-11.7862
▁functioning	-11.7867
▁Chae	-11.7868
▁Britons	-11.7873
▁Sto	-11.7886
Know	-11.7887
▁assisted	-11.7889
▁Unit	-11.7894
obs	-11.7903
powered	-11.7905
▁pigs	-11.7908
▁marriages	-11.7909
mond	-11.7913
bit	-11.7914
▁Add	-11.7914
▁brains	-11.7915
▁sidelines	-11.7919
▁37,	-11.7923
▁commuters	-11.7932
▁LA	-11.7932
▁lawn	-11.7938
▁grade	-11.794
hn	-11.7941
oke	-11.7941
ome	-11.7943
▁lip	-11.7945
▁debates	-11.7949
mont	-11.795
▁AN	-11.7953
▁comet	-11.7961
ask	-11.7975
▁recommends	-11.798
lick	-11.7982
▁cure	-11.7982
▁Stra	-11.7984
▁54-	-11.7986
▁py	-11.7988
▁Rud	-11.7989
▁Mont	-11.7991
▁clips	-11.7992
▁errors	-11.7993
worn	-11.8
▁(19	-11.8006
▁advocate	-11.8007
▁nurse	-11.8009
▁packs	-11.8009
▁expression	-11.8011
▁rumor	-11.8014
▁mortgages	-11.8017
▁si	-11.8029
anni	-11.803
ature	-11.8036
▁Markets	-11.8039
▁Any	-11.804
hir	-11.8041
▁sideline	-11.8044
-8	-11.8054
▁Tax	-11.8056
▁sample	-11.8059
uro	-11.806
dan	-11.8065
found	-11.808
▁pad	-11.8083
▁earthquakes	-11.8084
▁counting	-11.8087
▁requir	-11.8096
33	-11.8102
elected	-11.8103
step	-11.8106
▁futures	-11.8107
▁cafes	-11.8109
▁240	-11.8118
▁vaccines	-11.8121
▁tighten	-11.8122
load	-11.8122
aj	-11.8125
▁comb	-11.8127
Co	-11.8131
print	-11.8134
▁Ward	-11.8137
▁sensation	-11.814
▁recogniz	-11.8146
control	-11.8146
great	-11.8146
AIDS	-11.8147
first	-11.8148
Two	-11.815
▁breath	-11.815
▁Kat	-11.8151
saving	-11.8152
Late	-11.8152
storm	-11.8153
semble	-11.8153
▁orchestrat	-11.8156
▁borrow	-11.816
deeply	-11.8165
▁recalls	-11.8165
▁Russians	-11.8165
▁advertis	-11.8165
sten	-11.8168
human	-11.817
▁Fight	-11.8172
mula	-11.8177
▁beg	-11.8181
▁stall	-11.8184
und	-11.8186
boat	-11.8192
▁exercises	-11.8196
kind	-11.8207
hun	-11.8209
▁retract	-11.821
evolutionary	-11.8211
▁assum	-11.8212
▁advise	-11.8212
may	-11.8212
▁Current	-11.8215
▁lodge	-11.8215
▁dorm	-11.8217
▁DVDs	-11.8218
▁assure	-11.822
▁91	-11.822
gone	-11.8221
▁Jamaica	-11.8223
▁Duran	-11.8225
▁seize	-11.8227
▁Class	-11.8228
▁archaeologi	-11.8229
mul	-11.8229
▁impeach	-11.823
oriented	-11.823
▁extinguish	-11.8231
▁($3	-11.8231
▁Amsterdam	-11.8231
▁Birmingham	-11.8231
▁Budget	-11.8231
▁Celsius	-11.8231
▁Charlotte	-11.8231
▁Confederation	-11.8231
▁Cruz	-11.8231
▁Djokovic	-11.8231
▁Fifth	-11.8231
▁Firefighter	-11.8231
▁Gorbachev	-11.8231
▁Independent	-11.8231
▁Lauterbach	-11.8231
▁McConnell	-11.8231
▁Memphis	-11.8231
▁Morocco	-11.8231
▁Scowcroft	-11.8231
▁Trafford	-11.8231
▁Trump	-11.8231
▁Yasukuni	-11.8231
▁advocacy	-11.8231
▁amnesty	-11.8231
▁arsenal	-11.8231
▁charred	-11.8231
▁cough	-11.8231
▁currencies	-11.8231
▁embargo	-11.8231
▁evasion	-11.8231
▁fascinat	-11.8231
▁gauge	-11.8231
▁grateful	-11.8231
▁horror	-11.8231
▁incredibly	-11.8231
▁mainstream	-11.8231
▁martyr	-11.8231
▁noodles	-11.8231
▁orientation	-11.8231
▁perspective	-11.8231
▁quarantine	-11.8231
▁receipt	-11.8231
▁scuffle	-11.8231
▁shaft	-11.8231
▁steroid	-11.8231
▁testosterone	-11.8231
▁underneath	-11.8231
▁whistle	-11.8231
▁wizard	-11.8231
▁Emmy	-11.8231
▁Leahy	-11.8231
▁Portsmouth	-11.8231
▁Yellow	-11.8231
▁charisma	-11.8231
▁garner	-11.8231
▁premises	-11.8231
▁sheikh	-11.8231
▁erode	-11.8231
▁destabilize	-11.8231
▁leaf	-11.8231
▁capabilities	-11.8231
▁staple	-11.8231
▁Munich	-11.8231
▁inherit	-11.8231
▁predator	-11.8231
▁inhabitants	-11.8231
▁pancreati	-11.8231
▁Cecilia	-11.8231
▁Observatory	-11.8231
▁Costa	-11.8231
▁Todd	-11.8231
▁View	-11.8231
▁Havana	-11.8231
▁centimeters	-11.8231
▁Violen	-11.8231
▁torrent	-11.8231
▁casualty	-11.8231
▁mouse	-11.8231
▁monster	-11.8231
▁passionate	-11.8231
▁wise	-11.8231
▁beheaded	-11.8231
▁reprocess	-11.8231
▁Blackwater	-11.8232
▁memoir	-11.8232
▁shove	-11.8232
▁limbs	-11.8232
▁furious	-11.8232
▁finalize	-11.8233
▁Vick	-11.8234
▁reliable	-11.8234
▁Sharia	-11.8234
▁Fish	-11.8234
▁Chadian	-11.8234
▁6-0	-11.8235
▁Southwest	-11.8235
▁distribute	-11.8236
▁unlike	-11.8236
▁Leung	-11.8236
▁MTV	-11.8236
▁6.5	-11.8236
▁Peterson	-11.8236
▁motivation	-11.8237
▁bubble	-11.8237
▁fragile	-11.8238
SBURG	-11.8238
▁Nile	-11.8238
▁occurring	-11.8239
▁Middleton	-11.8239
▁simultaneously	-11.8239
Sex	-11.8239
▁cannon	-11.824
▁profitable	-11.824
▁interpreter	-11.8241
▁buyout	-11.8241
▁checkup	-11.8242
▁marines	-11.8242
▁Tribune	-11.8242
▁curator	-11.8242
▁Natural	-11.8242
▁hardline	-11.8242
▁illnesses	-11.8243
ignoring	-11.8243
▁filmmakers	-11.8244
▁Wii	-11.8244
▁Observer	-11.8245
avier	-11.8245
▁2030	-11.8245
millionaire	-11.8246
▁downplay	-11.8246
▁Opera	-11.8247
▁math	-11.8247
▁chilly	-11.8248
▁Online	-11.8248
▁corn	-11.8249
▁surprisingly	-11.8249
▁translate	-11.825
▁pressures	-11.8251
▁Through	-11.8252
▁Jen	-11.8252
▁detector	-11.8253
nnie	-11.8255
▁swiftly	-11.8255
▁acceptable	-11.8258
▁weaker	-11.8263
▁Bern	-11.8264
Mr	-11.8264
euro	-11.8265
▁memo	-11.8267
▁exploited	-11.8267
▁shy	-11.8268
▁stok	-11.8269
▁dispos	-11.827
▁helpful	-11.8272
▁bounce	-11.8272
▁diverted	-11.8273
▁heir	-11.8275
▁shrinking	-11.8276
▁stranger	-11.8276
▁Lucian	-11.8279
▁bash	-11.8281
▁balanced	-11.8282
▁retracted	-11.8286
▁Hard	-11.8287
▁compare	-11.8287
▁3.3	-11.8287
▁incredible	-11.8287
▁sci	-11.8292
▁Borders	-11.8298
▁101	-11.8309
▁contemporar	-11.831
▁searches	-11.831
ently	-11.8311
▁fla	-11.8313
▁rem	-11.8317
▁89	-11.8319
▁transmitt	-11.8321
▁passports	-11.8328
▁Zo	-11.8328
▁Cook	-11.8328
ically	-11.8331
▁Clo	-11.8333
▁Sim	-11.8333
hop	-11.834
▁alarming	-11.8342
▁prints	-11.8343
▁foods	-11.8352
active	-11.8357
ATH	-11.8363
TO	-11.8366
▁rec	-11.8368
ONG	-11.837
▁Zi	-11.8371
▁packages	-11.8375
▁seasonal	-11.8375
▁cracked	-11.838
lets	-11.838
▁severed	-11.838
▁Riot	-11.8388
dominant	-11.8394
▁torn	-11.8394
▁fold	-11.8394
▁siblings	-11.8396
▁lessons	-11.8396
▁33-	-11.84
▁chains	-11.8401
▁operates	-11.8402
▁Tar	-11.8405
▁ruins	-11.8406
▁receiver	-11.8414
▁squeez	-11.8416
Taxi	-11.842
▁Albanians	-11.8421
▁meter	-11.8424
rooted	-11.8428
▁Pakistanis	-11.8431
▁para	-11.8432
ich	-11.8433
▁succeeded	-11.8435
▁dose	-11.844
▁cheer	-11.8442
OW	-11.8444
▁balloons	-11.8446
sun	-11.8446
ook	-11.8451
▁cooling	-11.8452
▁leaking	-11.8453
ggle	-11.8456
▁Ci	-11.8457
▁dub	-11.8459
▁departments	-11.8461
▁Aid	-11.8461
▁beard	-11.847
▁addict	-11.8478
▁providers	-11.8479
▁Mai	-11.8479
▁190	-11.8484
▁clu	-11.8487
▁Pak	-11.849
▁mar	-11.8493
▁Dog	-11.8494
uting	-11.8495
action	-11.8496
58	-11.8497
▁Sep	-11.8498
▁McCanns	-11.8512
▁woo	-11.8512
aging	-11.8515
▁boycotted	-11.8519
list	-11.852
▁Tan	-11.8523
▁irritat	-11.8523
any	-11.8523
▁Shu	-11.8524
Natal	-11.8524
grade	-11.853
itch	-11.8531
▁improvements	-11.8534
▁um	-11.854
,400	-11.8545
bach	-11.855
▁nationalist	-11.855
49	-11.8552
▁comic	-11.8561
▁balloon	-11.8563
▁scholar	-11.8564
▁Band	-11.8565
▁compos	-11.8565
▁taxpayer	-11.8565
hwa	-11.8566
▁glacier	-11.8566
▁tribe	-11.8566
▁bodyguard	-11.8567
▁installation	-11.8567
▁pig	-11.8572
▁Communication	-11.8572
break	-11.8572
nda	-11.8576
▁Care	-11.858
▁aliens	-11.858
▁folk	-11.8583
▁tents	-11.8583
▁dish	-11.8584
rchaeologists	-11.8586
cell	-11.8593
▁precautions	-11.8596
▁MP	-11.8601
▁exception	-11.8616
hom	-11.8619
▁1,4	-11.8623
▁warns	-11.8626
▁arch	-11.8629
turn	-11.8632
▁plates	-11.8633
▁coin	-11.8641
▁prisons	-11.8642
▁kilometer	-11.8644
▁roofs	-11.8646
eur	-11.8648
▁discs	-11.8651
bid	-11.8651
inning	-11.8652
▁Victor	-11.8654
▁flower	-11.8658
▁Ker	-11.8658
▁beliefs	-11.8659
card	-11.8659
▁disappear	-11.8665
▁1,6	-11.8668
▁freely	-11.8669
▁sheet	-11.8674
▁provider	-11.8674
▁38-	-11.8679
after	-11.8679
atic	-11.868
aq	-11.8681
▁presid	-11.8683
national	-11.8684
▁twins	-11.8684
▁$17	-11.8691
hui	-11.8696
political	-11.8698
grown	-11.8702
significant	-11.8703
second	-11.8703
fighting	-11.8704
clock	-11.8704
Most	-11.8705
▁distribut	-11.8706
check	-11.8706
Jones	-11.8706
defense	-11.8708
▁yard	-11.8711
good	-11.8711
Of	-11.8712
▁achiev	-11.8718
▁govern	-11.8718
▁thrill	-11.872
upporters	-11.8721
▁poison	-11.8722
non	-11.8725
▁inspect	-11.8727
▁Roses	-11.8731
gil	-11.8732
▁disarm	-11.8733
▁sampl	-11.8733
▁infections	-11.8735
▁Mari	-11.8736
linked	-11.874
▁Northwest	-11.8742
▁trap	-11.8742
▁Atta	-11.8743
▁tracked	-11.8744
tious	-11.8745
parent	-11.8746
▁predicts	-11.8749
▁sore	-11.8753
▁Hoi	-11.8759
uso	-11.876
▁platforms	-11.876
▁Norm	-11.8766
▁absolute	-11.877
▁appreciate	-11.8771
▁concede	-11.8771
▁Iranians	-11.8771
▁beside	-11.8773
trip	-11.8773
▁guilt	-11.8773
auna	-11.8775
edge	-11.8776
▁Trac	-11.8781
▁distinct	-11.8784
▁valid	-11.8785
▁Harris	-11.8785
evertheless	-11.8786
▁unearth	-11.8786
Circuit	-11.8786
▁1962	-11.8786
▁BERLIN	-11.8786
▁Branson	-11.8786
▁Building	-11.8786
▁Connery	-11.8786
▁Daejeon	-11.8786
▁Gafoor	-11.8786
▁Gansu	-11.8786
▁Gibson	-11.8786
▁Kasparov	-11.8786
▁Khalid	-11.8786
▁Khartoum	-11.8786
▁Lawrence	-11.8786
▁Napolitano	-11.8786
▁Padilla	-11.8786
▁Protocol	-11.8786
▁Sorenstam	-11.8786
▁Summit	-11.8786
▁Tsuyoshi	-11.8786
▁Valencia	-11.8786
▁Vancouver	-11.8786
▁Zapeta	-11.8786
▁archipelago	-11.8786
▁arguably	-11.8786
▁baggage	-11.8786
▁bishop	-11.8786
▁bronze	-11.8786
▁corridor	-11.8786
▁ecosystem	-11.8786
▁escalator	-11.8786
▁evangelical	-11.8786
▁fantasy	-11.8786
▁fatigue	-11.8786
▁furniture	-11.8786
▁gondola	-11.8786
▁humiliating	-11.8786
▁ideology	-11.8786
▁liaison	-11.8786
▁looming	-11.8786
▁nickname	-11.8786
▁precinct	-11.8786
▁reunification	-11.8786
▁sculptures	-11.8786
▁separation	-11.8786
▁solving	-11.8786
▁surrogate	-11.8786
▁unauthorized	-11.8786
▁uncomfortable	-11.8786
▁Ryder	-11.8786
▁Sultan	-11.8786
▁Tokto	-11.8786
▁evict	-11.8786
▁gaffe	-11.8786
▁obstruct	-11.8786
▁snatch	-11.8786
▁Presley	-11.8786
▁Watson	-11.8786
▁feud	-11.8786
▁Clezio	-11.8786
▁medium	-11.8786
▁unconditional	-11.8786
▁Crown	-11.8786
▁estrange	-11.8786
▁Rojas	-11.8786
Millions	-11.8786
▁awake	-11.8786
▁disclosure	-11.8786
▁grocer	-11.8786
▁podium	-11.8786
▁NAS	-11.8786
▁headphones	-11.8786
▁merchant	-11.8786
▁Dadullah	-11.8786
▁Queensland	-11.8786
▁Clinic	-11.8786
▁Pedro	-11.8786
▁garbage	-11.8786
▁spawn	-11.8786
▁productivity	-11.8786
▁drift	-11.8786
▁Vinci	-11.8786
▁disturbance	-11.8786
▁whereabouts	-11.8786
▁embark	-11.8786
▁verified	-11.8786
▁rampant	-11.8786
▁forensic	-11.8786
▁woke	-11.8786
▁Fonda	-11.8787
▁stint	-11.8787
▁Township	-11.8787
▁meltdown	-11.8787
▁wholesale	-11.8787
▁seminar	-11.8787
▁supermarket	-11.8787
▁multinational	-11.8787
▁Dmitr	-11.8787
▁heavyweight	-11.8787
▁kilograms	-11.8787
▁curious	-11.8787
▁Darling	-11.8787
▁restoration	-11.8787
▁1967	-11.8787
▁Martinez	-11.8787
▁copyright	-11.8787
▁1879	-11.8788
▁1976	-11.8788
▁disablement	-11.8788
▁stump	-11.8788
▁landfall	-11.8788
▁shortfall	-11.8788
▁showcase	-11.8788
distort	-11.8788
▁Lyon	-11.8788
▁Hak	-11.8788
▁Kaka	-11.8788
▁Kidman	-11.8788
▁bias	-11.8788
▁Byeon	-11.8788
▁moat	-11.8788
▁Pepper	-11.8788
▁unofficial	-11.8788
▁Classic	-11.8789
▁Karim	-11.8789
▁liquidity	-11.8789
▁accomplishment	-11.8789
▁Limit	-11.8789
▁1,600	-11.8789
▁render	-11.8789
▁Max	-11.879
▁Dark	-11.879
▁Newsweek	-11.879
▁viable	-11.879
▁copper	-11.879
▁Quinn	-11.8791
▁boot	-11.8791
▁Thatcher	-11.8791
▁modifi	-11.8791
▁hardship	-11.8791
▁referee	-11.8792
ANE	-11.8793
▁Pardo	-11.8793
RID	-11.8793
▁hospitalization	-11.8794
▁cord	-11.8794
▁spies	-11.8794
▁blackmail	-11.8794
▁rioters	-11.8794
▁Independence	-11.8795
AIRO	-11.8795
▁WTA	-11.8796
acent	-11.8796
▁pullout	-11.8796
▁adjustment	-11.8796
▁Culture	-11.8796
chong	-11.8797
▁Nike	-11.8797
▁Asif	-11.8798
▁colony	-11.8798
odor	-11.8798
fraction	-11.8799
▁35-	-11.8799
▁dictatorship	-11.8799
▁cheating	-11.88
▁funny	-11.88
▁evolved	-11.88
▁courthouse	-11.8802
▁Tension	-11.8802
▁alcoholic	-11.8804
▁Macworld	-11.8804
▁blackout	-11.8804
▁Point	-11.8804
▁backward	-11.8805
▁beverage	-11.8805
▁Carla	-11.8805
▁Mate	-11.8805
▁12,000	-11.8807
▁Lai	-11.881
▁Net	-11.8811
▁Secret	-11.8812
▁Kashmir	-11.8813
TLAN	-11.8814
▁combine	-11.8816
▁36,	-11.8818
▁coaches	-11.8819
▁Fourth	-11.882
▁Tonight	-11.882
▁Cance	-11.8824
▁0.4	-11.8826
▁clan	-11.8828
▁examiner	-11.8829
▁MAD	-11.8829
▁speculated	-11.8829
▁Look	-11.883
▁hampered	-11.8831
▁successes	-11.8831
▁hurting	-11.8833
▁Lynn	-11.8833
▁6.3	-11.8836
▁animation	-11.8839
▁competed	-11.8842
dale	-11.8843
▁Tuck	-11.8844
▁Rivera	-11.8846
▁Kra	-11.8846
▁contradict	-11.8851
▁Elections	-11.8853
shot	-11.886
▁Support	-11.8861
▁revived	-11.8863
▁Giants	-11.8871
▁medals	-11.8872
▁graves	-11.8873
▁wrestl	-11.8875
tel	-11.8876
▁Button	-11.8882
▁ingredients	-11.8883
gang	-11.8887
▁Everyone	-11.8889
▁campaigned	-11.8889
▁Garr	-11.8892
▁dare	-11.8895
▁laughing	-11.8896
fre	-11.8897
▁backup	-11.8898
▁(7	-11.8898
▁Dam	-11.8904
By	-11.8906
lated	-11.8906
▁campaigners	-11.8909
▁Rak	-11.8913
▁freedoms	-11.8917
▁hydro	-11.8921
jong	-11.8926
▁explaining	-11.8926
▁6,000	-11.8927
▁Marcel	-11.8929
▁$1.5	-11.8932
▁vegetables	-11.8935
lane	-11.8936
olla	-11.8938
▁therapy	-11.8947
▁drums	-11.8948
▁Inside	-11.8952
▁pot	-11.8957
▁obstacles	-11.8961
Hui	-11.8962
▁Mad	-11.8979
store	-11.898
▁carve	-11.898
▁objections	-11.8989
▁relocate	-11.8994
▁Bel	-11.8995
▁Hot	-11.9
▁bike	-11.9007
▁squ	-11.9013
▁presents	-11.9015
hoon	-11.9022
▁Ice	-11.9023
▁inland	-11.903
hab	-11.9031
uda	-11.9032
were	-11.9033
gon	-11.9033
nner	-11.904
▁Adrian	-11.9053
▁surgeons	-11.9053
date	-11.9059
▁web	-11.9061
▁Hur	-11.9061
▁Nabi	-11.9062
PR	-11.9064
▁classrooms	-11.9067
ison	-11.9069
bil	-11.9071
▁360	-11.9072
▁contested	-11.9072
▁Lyn	-11.9073
trained	-11.9075
▁Jet	-11.9078
▁faction	-11.9081
▁shower	-11.9081
gm	-11.9089
▁spying	-11.9095
reb	-11.91
pine	-11.9106
uku	-11.9114
▁Carol	-11.9115
lus	-11.9115
pie	-11.9123
▁Der	-11.9124
▁Met	-11.9128
▁bulls	-11.913
▁joke	-11.9134
mine	-11.9135
▁concludes	-11.9136
ristina	-11.9136
itis	-11.9139
▁donat	-11.914
▁expire	-11.9141
▁lun	-11.9147
▁instrument	-11.9153
▁achievement	-11.9153
▁grenade	-11.9154
▁Electronic	-11.9155
▁obligation	-11.9155
▁Spring	-11.9156
▁Prosecutor	-11.9157
▁statues	-11.9157
▁sailor	-11.916
▁attraction	-11.9162
▁Ran	-11.9164
▁sm	-11.9171
▁generations	-11.9177
▁resigning	-11.9181
▁calculat	-11.9189
▁1994.	-11.9195
▁plac	-11.9197
▁travels	-11.9198
cute	-11.9198
03	-11.9209
city	-11.921
▁locals	-11.9214
▁Par	-11.9215
▁1.9	-11.9223
▁bridges	-11.9231
▁cultivat	-11.9232
▁respected	-11.9237
225	-11.9245
▁Gas	-11.9246
▁approaching	-11.9249
▁preserv	-11.9253
▁Pur	-11.9254
wage	-11.9255
▁34,	-11.9259
▁assaulted	-11.9259
▁cro	-11.9262
▁pressur	-11.9264
▁offenses	-11.9267
▁toilets	-11.9267
▁recruits	-11.9269
▁tur	-11.9277
serving	-11.9282
▁retire	-11.9283
clear	-11.9288
Tibet	-11.9288
operation	-11.9289
binding	-11.9289
comfort	-11.929
Desp	-11.929
whatever	-11.9291
Just	-11.9291
filled	-11.9291
▁hadn	-11.9291
president	-11.9291
▁circ	-11.9291
launch	-11.9292
Taliban	-11.9292
lley	-11.9295
throw	-11.9296
media	-11.9297
▁lend	-11.9299
ended	-11.9301
▁Ris	-11.9302
opposition	-11.9303
▁founding	-11.9303
▁Nou	-11.931
▁cook	-11.9312
▁sink	-11.9317
cost	-11.9317
Oh	-11.9318
▁surpass	-11.932
▁crossings	-11.9321
▁convictions	-11.9321
▁$60	-11.9322
Iran	-11.9335
pplies	-11.9337
▁professionals	-11.9337
▁Fac	-11.9338
▁woods	-11.9339
owed	-11.9342
▁modeling	-11.9343
▁Boc	-11.9347
founded	-11.9348
▁rev	-11.9348
▁supervis	-11.9349
lev	-11.935
racked	-11.9353
partially	-11.9353
▁manufacture	-11.9355
▁$14	-11.9355
▁persons	-11.9356
▁span	-11.9359
breaking	-11.9361
chen	-11.9364
▁speculate	-11.9366
▁respective	-11.9368
▁Glen	-11.9369
▁collaborat	-11.937
▁persuad	-11.9372
▁persist	-11.9372
▁quest	-11.9373
▁homosexual	-11.9373
▁casual	-11.9374
lamour	-11.9374
▁emphasi	-11.9374
▁bankrupt	-11.9374
Dreamgirls	-11.9374
rchbishop	-11.9374
▁Auvinen	-11.9374
▁Bronx	-11.9374
▁Cmdr	-11.9374
▁DELHI	-11.9374
▁Daschle	-11.9374
▁Davydenko	-11.9374
▁Disaster	-11.9374
▁Filipino	-11.9374
▁Guangdong	-11.9374
▁Guangzhou	-11.9374
▁Hamilton	-11.9374
▁Hewitt	-11.9374
▁Hutchins	-11.9374
▁Investor	-11.9374
▁Jeremy	-11.9374
▁Lithuania	-11.9374
▁Litvinenko	-11.9374
▁Livni	-11.9374
▁Mandela	-11.9374
▁Mbeki	-11.9374
▁Respond	-11.9374
▁Sanchez	-11.9374
▁Satellite	-11.9374
▁Siniora	-11.9374
▁Soyuz	-11.9374
▁Spielberg	-11.9374
▁Stallone	-11.9374
▁Twitter	-11.9374
▁Viagra	-11.9374
▁Yasuhi	-11.9374
▁Zvonareva	-11.9374
▁abruptly	-11.9374
▁capsule	-11.9374
▁cholera	-11.9374
▁commodities	-11.9374
▁convenience	-11.9374
▁credentials	-11.9374
▁defensive	-11.9374
▁description	-11.9374
▁destructive	-11.9374
▁escalation	-11.9374
▁excitement	-11.9374
▁heterosexual	-11.9374
▁hurdle	-11.9374
▁jacket	-11.9374
▁miracle	-11.9374
▁pilgrimage	-11.9374
▁plunging	-11.9374
▁possibilities	-11.9374
▁precision	-11.9374
▁purchasing	-11.9374
▁rebuke	-11.9374
▁resuming	-11.9374
▁standstill	-11.9374
▁stimulate	-11.9374
▁submarine	-11.9374
▁tremor	-11.9374
▁turbine	-11.9374
▁ubiquitous	-11.9374
▁Emory	-11.9374
▁Fellow	-11.9374
▁Finland	-11.9374
▁Giggs	-11.9374
▁Resources	-11.9374
▁Silver	-11.9374
▁Study	-11.9374
▁cliff	-11.9374
▁devil	-11.9374
▁inquiries	-11.9374
▁pedestrian	-11.9374
▁resurrect	-11.9374
▁sacred	-11.9374
Please	-11.9374
▁Yushchenko	-11.9374
▁backlash	-11.9374
▁crises	-11.9374
▁invention	-11.9374
▁somewhat	-11.9374
▁warfare	-11.9374
▁tariff	-11.9374
▁USGS	-11.9374
▁Address	-11.9375
▁Arena	-11.9375
▁Dodd	-11.9375
▁Patriot	-11.9375
▁bury	-11.9375
▁ordeal	-11.9375
▁slaying	-11.9375
▁wander	-11.9375
▁Besides	-11.9375
▁Survivors	-11.9375
▁sugar	-11.9375
▁pork	-11.9375
▁drastically	-11.9375
▁Betty	-11.9375
▁charm	-11.9375
▁digging	-11.9375
▁intercourse	-11.9375
▁defiant	-11.9375
▁Rubin	-11.9375
▁safeguard	-11.9375
▁urgency	-11.9375
▁integrity	-11.9375
▁seafood	-11.9375
▁Riza	-11.9375
▁Plame	-11.9375
▁swimmer	-11.9375
▁NHK	-11.9375
Things	-11.9375
▁brace	-11.9375
▁calories	-11.9375
▁precedent	-11.9375
▁courageous	-11.9375
▁1972	-11.9375
▁Micke	-11.9376
▁Luther	-11.9376
▁prosper	-11.9376
▁robe	-11.9376
▁Fargo	-11.9376
▁Ferraro	-11.9376
▁Nepalese	-11.9376
▁uncommon	-11.9376
▁recruitment	-11.9376
ORE	-11.9376
▁descent	-11.9376
▁petroleum	-11.9376
▁Woman	-11.9376
▁Data	-11.9376
▁installment	-11.9376
▁rehab	-11.9377
▁Duck	-11.9377
▁cake	-11.9377
Letters	-11.9377
▁altitude	-11.9377
▁dragon	-11.9377
▁3,600	-11.9377
▁Baker	-11.9378
▁Roland	-11.9378
▁brutality	-11.9378
▁Cowell	-11.9378
▁confession	-11.9378
▁Kyong	-11.9378
▁surgical	-11.9378
▁Marty	-11.9378
▁collud	-11.9378
▁Perry	-11.9379
▁Mother	-11.9379
▁fundraising	-11.9379
▁revival	-11.938
▁Sochi	-11.938
▁coward	-11.938
▁dri	-11.9382
▁resurgen	-11.9382
▁chin	-11.9382
▁Flood	-11.9382
▁disappointing	-11.9382
▁draws	-11.9383
▁walkout	-11.9383
▁overwhelmed	-11.9383
▁swarm	-11.9383
▁regulate	-11.9383
▁sword	-11.9383
▁goodwill	-11.9384
unmen	-11.9384
▁Dayton	-11.9385
▁dismissal	-11.9386
▁salt	-11.9387
▁Darre	-11.9388
70,000	-11.9389
▁absorb	-11.9389
revered	-11.939
▁amend	-11.9391
▁prevention	-11.9391
▁therapist	-11.9392
▁picket	-11.9392
▁unlawful	-11.9393
▁Jang	-11.9393
mise	-11.9394
▁diversity	-11.9395
▁NK	-11.9395
Babel	-11.9396
Broke	-11.9397
▁compelling	-11.9397
▁roller	-11.9398
▁tainted	-11.9398
▁interrupted	-11.9399
resistant	-11.94
▁delight	-11.9401
▁tackl	-11.9401
▁conductor	-11.9404
bian	-11.9406
▁fiction	-11.9406
wick	-11.9407
▁excluded	-11.9409
▁newborn	-11.941
▁1,19	-11.9411
▁Janet	-11.9416
bn	-11.9417
▁Want	-11.9419
structed	-11.942
▁Fame	-11.9421
▁disturbing	-11.9421
▁firefight	-11.9423
aya	-11.9424
▁launches	-11.9425
▁stirring	-11.9425
▁Cate	-11.9426
▁5.7	-11.9429
▁composed	-11.9429
workers	-11.943
▁mus	-11.9432
▁2.6	-11.9434
44	-11.9435
▁transformation	-11.9438
artistic	-11.9444
▁bypass	-11.9447
▁Para	-11.9453
mple	-11.9457
▁respects	-11.9458
▁youngsters	-11.9464
▁Tri	-11.9467
▁$80	-11.947
▁slashing	-11.9471
▁ward	-11.9476
▁evolutionary	-11.9477
▁dive	-11.9479
▁confronted	-11.9485
▁Nest	-11.9496
▁Fal	-11.9501
▁crushed	-11.9502
▁Yar	-11.9502
ridge	-11.9504
Heather	-11.9509
▁Physic	-11.9512
rose	-11.9514
arian	-11.9514
▁violently	-11.952
▁renounce	-11.952
▁lobbyists	-11.952
EY	-11.9524
▁Jun	-11.9524
▁dumping	-11.9525
CBO	-11.9527
▁sting	-11.9544
IO	-11.9548
▁poorly	-11.9551
▁Nur	-11.9554
▁symbols	-11.9558
vy	-11.9558
PC	-11.9559
▁capitalist	-11.9559
-10	-11.9561
▁circulat	-11.9565
▁Cycl	-11.9582
ept	-11.9583
▁consultations	-11.9589
▁coupons	-11.9589
▁gripp	-11.9589
NSO	-11.9591
67	-11.9594
▁sw	-11.9599
DH	-11.96
Mo	-11.9602
▁sabotage	-11.9614
LAS	-11.9615
▁MPs	-11.9616
▁fo	-11.9633
▁propos	-11.9634
urious	-11.9634
utting	-11.964
▁Kal	-11.9649
lain	-11.9659
six	-11.9664
▁gro	-11.9664
▁costly	-11.9671
uca	-11.9675
seven	-11.9685
▁server	-11.9685
▁Ski	-11.9687
bur	-11.9687
▁clinics	-11.9693
▁Luc	-11.9693
▁masks	-11.9701
phe	-11.9705
▁Germans	-11.9709
▁lunche	-11.9709
▁Liberia	-11.9712
▁Devi	-11.9722
▁210	-11.9723
▁vent	-11.973
▁dealings	-11.9736
imposed	-11.9741
RAN	-11.9743
▁Australians	-11.9745
▁plains	-11.9747
▁restor	-11.9749
▁incorporat	-11.9749
▁licenses	-11.975
▁destinations	-11.9757
infiltrated	-11.9761
fitting	-11.9764
lace	-11.9765
Wil	-11.9767
▁importantly	-11.9768
▁Mid	-11.9769
▁runners	-11.9772
▁segment	-11.9773
▁gadget	-11.9774
▁Domini	-11.9775
▁element	-11.9778
▁consultation	-11.9779
▁incentive	-11.9779
▁dissident	-11.9779
▁mammal	-11.9779
▁Country	-11.9779
▁guerrilla	-11.978
▁squeeze	-11.9782
▁objection	-11.9783
fest	-11.9783
▁organizer	-11.9784
▁accusation	-11.9787
▁coupon	-11.9789
▁runways	-11.9791
▁skill	-11.9793
▁Player	-11.9794
lock	-11.9794
▁Carlo	-11.9796
▁Albanian	-11.9796
▁ME	-11.9797
▁deliberat	-11.9798
▁extremist	-11.98
bye	-11.98
▁existed	-11.9803
▁reactors	-11.9806
▁Stevens	-11.9809
▁contributions	-11.9815
▁headline	-11.982
thin	-11.9824
outlined	-11.9828
▁designs	-11.9832
▁Leon	-11.9837
▁60-	-11.9841
ishi	-11.9843
▁interact	-11.9843
▁writes	-11.9848
▁visitor	-11.9849
▁skip	-11.985
▁2011.	-11.9851
▁Burn	-11.9851
▁Nationalist	-11.9851
pron	-11.9851
▁conventions	-11.9853
▁congratulat	-11.9858
stand	-11.9859
▁Heath	-11.9861
▁donation	-11.9867
▁$1.2	-11.987
▁evacuations	-11.9872
▁temples	-11.9872
▁hijack	-11.9875
▁Cle	-11.9875
▁$18	-11.9875
▁globally	-11.9878
scent	-11.9883
bert	-11.9889
wha	-11.989
▁plagu	-11.9906
terror	-11.9906
counter	-11.9908
ground	-11.9908
▁censor	-11.9911
▁pools	-11.9912
Meet	-11.9913
Frost	-11.9913
kilometer	-11.9914
Nixon	-11.9915
KEB	-11.9915
Good	-11.9916
fashion	-11.9916
April	-11.9916
combat	-11.9916
film	-11.9916
growing	-11.9916
major	-11.9916
wrote	-11.9916
demand	-11.9916
post	-11.9918
Part	-11.9918
Tony	-11.9918
criminal	-11.9918
▁dissolv	-11.9924
▁shields	-11.9929
▁colon	-11.9937
boss	-11.9939
▁construct	-11.9942
▁sever	-11.9944
uma	-11.9952
▁Por	-11.9962
▁ash	-11.9962
▁visas	-11.9963
▁Tel	-11.9964
▁1,2	-11.9975
▁pla	-11.9976
▁audiences	-11.9977
▁loya	-11.9978
▁Abd	-11.998
▁clone	-11.9984
▁Mobil	-11.9988
▁killers	-11.9991
▁Abdulla	-11.9992
▁Mall	-11.9995
▁entertain	-11.9996
▁Audi	-11.9996
▁trapp	-11.9997
ransparency	-11.9998
▁depriv	-11.9998
rivate	-11.9998
▁hazard	-11.9999
naissance	-11.9999
▁intentional	-11.9999
▁salmon	-11.9999
▁Renata	-11.9999
▁statistical	-11.9999
▁unleash	-11.9999
AKAR	-11.9999
Obviously	-11.9999
▁1974	-11.9999
▁ASEAN	-11.9999
▁Abramovich	-11.9999
▁Alkatiri	-11.9999
▁Azerbaijan	-11.9999
▁Banafsha	-11.9999
▁Bollywood	-11.9999
▁Brancato	-11.9999
▁Claudi	-11.9999
▁Everton	-11.9999
▁Gendreau	-11.9999
▁Guinness	-11.9999
▁Hackett	-11.9999
▁IRNA	-11.9999
▁Johannesburg	-11.9999
▁Kassouf	-11.9999
▁Lakshmi	-11.9999
▁Maldives	-11.9999
▁Marathon	-11.9999
▁Merrill	-11.9999
▁Moroccan	-11.9999
▁Mourinho	-11.9999
▁Opportunity	-11.9999
▁Paraguay	-11.9999
▁Quebec	-11.9999
▁RSPB	-11.9999
▁Rasmussen	-11.9999
▁Schiller	-11.9999
▁Separately	-11.9999
▁Sources	-11.9999
▁Spencer	-11.9999
▁Sseruma	-11.9999
▁Tsonga	-11.9999
▁Zapatero	-11.9999
▁Zurich	-11.9999
▁amusement	-11.9999
▁chapel	-11.9999
▁chimps	-11.9999
▁clown	-11.9999
▁compatriot	-11.9999
▁criteria	-11.9999
▁curtain	-11.9999
▁deterrent	-11.9999
▁diarrhea	-11.9999
▁emperor	-11.9999
▁envision	-11.9999
▁excellent	-11.9999
▁horrible	-11.9999
▁humpback	-11.9999
▁immunity	-11.9999
▁infuriat	-11.9999
▁intimidation	-11.9999
▁leather	-11.9999
▁liberation	-11.9999
▁malfunction	-11.9999
▁marijuana	-11.9999
▁mogul	-11.9999
▁portfolio	-11.9999
▁provocation	-11.9999
▁rabbit	-11.9999
▁syndrome	-11.9999
▁temblor	-11.9999
▁translation	-11.9999
▁vacant	-11.9999
▁Advance	-11.9999
▁Allawi	-11.9999
▁Brooklyn	-11.9999
▁Credit	-11.9999
▁Irwin	-11.9999
▁Lindsey	-11.9999
▁Nasrallah	-11.9999
▁Qatar	-11.9999
▁Stiles	-11.9999
▁barracks	-11.9999
▁consciousness	-11.9999
▁impressed	-11.9999
▁looted	-11.9999
▁Drift	-11.9999
▁Dylan	-11.9999
▁entities	-11.9999
▁stroll	-11.9999
▁Gerald	-11.9999
▁infring	-11.9999
▁snub	-11.9999
▁surname	-11.9999
▁Pyeongyang	-11.9999
▁Namibia	-11.9999
unconstitutional	-11.9999
▁jaw	-11.9999
▁overdose	-11.9999
▁sickened	-11.9999
▁limbo	-11.9999
▁roam	-11.9999
▁delicate	-11.9999
▁overshadow	-11.9999
▁advertisement	-12
▁meteorologist	-12
▁Baines	-12
▁Countries	-12
▁caffeine	-12
▁Malibu	-12
▁Aaron	-12
▁BANG	-12
▁annul	-12
▁Labour	-12
▁hydrogen	-12
▁blunder	-12
▁skepticism	-12
▁preference	-12
▁ancestors	-12
▁endured	-12
▁Freud	-12
▁rigged	-12
▁defiance	-12
▁hungry	-12
▁jogg	-12
▁Robinson	-12
▁bunch	-12
▁honey	-12
▁paternity	-12
▁chairwoman	-12
▁Millennium	-12
▁Refugees	-12.0001
▁Hanaro	-12.0001
▁blacklist	-12.0001
▁minorities	-12.0001
▁autonom	-12.0001
▁KONG	-12.0001
▁Rich	-12.0001
▁completion	-12.0001
▁references	-12.0001
▁stern	-12.0001
▁interpretation	-12.0001
▁equalizer	-12.0001
mega	-12.0001
▁mourners	-12.0002
ervic	-12.0002
▁Solti	-12.0002
▁slopes	-12.0002
▁unfold	-12.0002
▁cancelled	-12.0003
▁Damon	-12.0003
▁coordinator	-12.0003
▁Jordanian	-12.0003
▁hoist	-12.0003
▁serial	-12.0003
▁farmland	-12.0003
▁breakdown	-12.0004
▁fairness	-12.0004
▁Penh	-12.0004
▁notify	-12.0004
▁grandson	-12.0004
▁tail	-12.0004
▁Action	-12.0004
▁Maritime	-12.0004
▁distributor	-12.0004
▁FAA	-12.0005
▁coroner	-12.0005
▁6.8	-12.0005
▁Guards	-12.0006
YD	-12.0006
▁offerings	-12.0006
▁litter	-12.0006
▁corpses	-12.0006
▁Community	-12.0008
▁Tikrit	-12.0008
▁substantive	-12.0008
▁ugly	-12.0008
▁bras	-12.0008
▁2015	-12.0009
▁contention	-12.0009
▁psychiatrist	-12.0009
ssistance	-12.001
▁Algerian	-12.001
▁Ike	-12.001
▁manual	-12.0011
▁$10,000	-12.0011
▁tide	-12.0011
▁sang	-12.0012
diac	-12.0012
▁Word	-12.0013
▁affection	-12.0013
▁sue	-12.0013
▁Gallup	-12.0013
▁minimal	-12.0014
▁Chuck	-12.0014
anana	-12.0014
▁Revere	-12.0014
▁adjourned	-12.0015
▁integration	-12.0015
▁Ferrer	-12.0015
▁Dora	-12.0016
▁climbers	-12.0016
▁healthcare	-12.0016
ridiculous	-12.0017
▁appreciated	-12.0017
▁succession	-12.0017
▁inform	-12.0017
var	-12.0018
▁dispersed	-12.0019
kawa	-12.0019
▁comedian	-12.0019
▁protective	-12.002
▁Yass	-12.002
▁Rahman	-12.0021
▁Yemeni	-12.0022
▁swamp	-12.0024
▁spared	-12.0025
▁80,000	-12.0025
▁paramilitar	-12.0026
▁forever	-12.0027
▁Qud	-12.0027
▁email	-12.0028
▁approaches	-12.003
▁Batman	-12.003
▁Championships	-12.003
▁dipped	-12.0032
▁unexpectedly	-12.0032
setting	-12.0033
▁provoked	-12.0035
▁provocative	-12.0036
▁upscale	-12.0037
▁broadcasts	-12.0037
▁prescrib	-12.0037
▁slapp	-12.004
▁analyzed	-12.0043
▁aerospace	-12.0045
anna	-12.0046
▁Kay	-12.0046
▁Butler	-12.0048
▁reminder	-12.0049
winger	-12.0049
ello	-12.005
▁quietly	-12.005
▁Moss	-12.005
▁excerpts	-12.0051
▁substantially	-12.0051
▁interviewer	-12.0053
▁mentally	-12.0057
▁solo	-12.0058
▁asleep	-12.006
gye	-12.0061
erine	-12.0063
▁Found	-12.0063
▁mode	-12.0063
▁tightened	-12.0065
▁Klo	-12.0065
▁drives	-12.0065
▁Lau	-12.007
▁57,	-12.0072
▁inch	-12.0072
▁underline	-12.0073
coordinated	-12.0076
leen	-12.0078
▁purchases	-12.0078
▁salaries	-12.008
▁bore	-12.0082
▁107	-12.0083
ponsored	-12.0084
▁Zambia	-12.0085
▁conc	-12.0087
▁lur	-12.009
train	-12.0093
▁publishing	-12.0094
limb	-12.0095
▁Troops	-12.0095
▁spouses	-12.0095
▁admir	-12.0097
technically	-12.0101
etting	-12.0102
▁specifics	-12.0107
▁architects	-12.0109
holder	-12.0116
▁performers	-12.0118
mature	-12.012
▁Ying	-12.0123
▁anytime	-12.0125
bad	-12.0125
▁qua	-12.0134
▁Bru	-12.0135
▁Arch	-12.0141
▁dancer	-12.0149
pet	-12.0149
track	-12.0153
▁Casp	-12.0157
277	-12.0159
▁Dori	-12.0162
▁enthusiastic	-12.0169
▁3.7	-12.0175
yet	-12.0181
▁disagreements	-12.0184
▁praying	-12.0185
tmospher	-12.0187
▁vir	-12.019
▁butter	-12.019
▁commented	-12.0192
CO	-12.0194
▁cram	-12.0197
▁nerves	-12.0198
▁bon	-12.0207
roy	-12.0209
▁lag	-12.0214
▁calculate	-12.0215
▁unite	-12.0216
ease	-12.0216
▁Chu	-12.0217
▁Ven	-12.022
rif	-12.0232
▁enabl	-12.0237
▁slipping	-12.0237
▁Tur	-12.024
▁2.9	-12.0242
▁strapp	-12.0261
shirts	-12.0262
EL	-12.0264
SL	-12.0264
ngry	-12.0264
▁Tin	-12.0266
sook	-12.0266
51	-12.028
omething	-12.0285
▁Kam	-12.029
▁Tama	-12.0295
idge	-12.0302
▁automobiles	-12.0303
▁Stan	-12.0304
▁debated	-12.0305
▁touring	-12.0305
▁Richards	-12.0309
▁lovers	-12.0316
▁traditions	-12.0319
▁temp	-12.0324
▁58-	-12.0325
▁input	-12.0326
▁advocates	-12.0334
▁divisions	-12.034
▁disciplin	-12.0341
▁strings	-12.0342
▁Fre	-12.0343
▁const	-12.0353
278	-12.0355
▁Jur	-12.0356
▁SA	-12.0359
▁ID	-12.0364
mam	-12.0366
▁analyze	-12.0371
lies	-12.0372
militarized	-12.0374
uted	-12.0381
PGA	-12.0391
minded	-12.0395
AQ	-12.0401
▁amendments	-12.0409
bust	-12.0409
▁ringing	-12.041
▁nutrient	-12.0413
door	-12.0421
boy	-12.0423
cheon	-12.0429
ache	-12.043
▁vet	-12.0431
▁hom	-12.0434
vian	-12.0434
▁76-	-12.0438
▁defuse	-12.044
tale	-12.044
▁jam	-12.0442
▁operative	-12.0442
▁Briton	-12.0444
▁dinosaur	-12.0444
▁aspect	-12.0446
yes	-12.0446
▁archaeologist	-12.0447
▁Representative	-12.0448
▁carmaker	-12.0449
▁resource	-12.045
▁requirement	-12.0452
▁Char	-12.0457
▁mediator	-12.0458
▁Maliki	-12.0466
WC	-12.0466
▁deserves	-12.0469
▁mortars	-12.0469
▁See	-12.047
▁defendant	-12.0472
▁Webb	-12.0477
▁rust	-12.048
▁qui	-12.0484
▁railways	-12.0485
▁integrate	-12.0486
▁porn	-12.0486
▁banners	-12.0489
▁Cap	-12.0494
▁0.8	-12.05
ario	-12.0507
▁grounded	-12.0512
omi	-12.0528
dependence	-12.0532
ella	-12.0539
owner	-12.0542
▁Tai	-12.0543
evo	-12.0549
carat	-12.055
▁wraps	-12.055
tracted	-12.0551
▁blogs	-12.0559
▁advanc	-12.0562
▁menu	-12.0566
yad	-12.057
view	-12.0573
terrorist	-12.0573
Korea	-12.0576
guard	-12.0578
Unfortunately	-12.058
▁shells	-12.058
▁(100	-12.058
zan	-12.0582
Free	-12.0582
79	-12.0582
child	-12.0583
smoking	-12.0583
square	-12.0583
Japan	-12.0583
positive	-12.0583
Palestinian	-12.0583
white	-12.0583
Super	-12.0583
March	-12.0583
California	-12.0583
business	-12.0583
Pakistan	-12.0583
United	-12.0583
black	-12.0584
wanted	-12.0585
GB	-12.0586
raped	-12.0589
More	-12.0592
▁denounce	-12.0593
drama	-12.0595
doping	-12.0595
Jon	-12.0597
▁debat	-12.0597
shut	-12.0598
burn	-12.0603
pack	-12.0603
God	-12.0608
▁accomplish	-12.0608
▁Henri	-12.0612
▁Arts	-12.0612
▁hamper	-12.0612
▁conceal	-12.0613
▁endanger	-12.0613
▁ruin	-12.062
▁villa	-12.063
▁neutral	-12.0637
▁divert	-12.0637
▁swam	-12.0641
caus	-12.0642
personal	-12.0644
▁gradual	-12.065
▁tolerate	-12.0651
enhanc	-12.0652
▁sympath	-12.0653
▁$75	-12.0653
▁spirits	-12.0654
▁Cultur	-12.0654
▁dense	-12.0654
72	-12.0656
▁Alfred	-12.0661
▁abdom	-12.0664
▁550	-12.0664
▁compass	-12.0665
▁activat	-12.0665
▁tract	-12.0665
▁speakers	-12.0666
▁vomit	-12.0666
injiang	-12.0666
▁1966	-12.0666
▁Balfour	-12.0666
▁Barclay	-12.0666
▁Barroso	-12.0666
▁Birkhead	-12.0666
▁Blanchett	-12.0666
▁Bodlander	-12.0666
▁Clapton	-12.0666
▁Columbus	-12.0666
▁Delegate	-12.0666
▁Fritzl	-12.0666
▁Fukuda	-12.0666
▁Garriott	-12.0666
▁Grylls	-12.0666
▁Guinea	-12.0666
▁Hatoyama	-12.0666
▁Henderson	-12.0666
▁Hoffman	-12.0666
▁Investigation	-12.0666
▁Ivanovic	-12.0666
▁Longoria	-12.0666
▁Lufthansa	-12.0666
▁Lumpur	-12.0666
▁McAuliffe	-12.0666
▁Mekong	-12.0666
▁Naftogaz	-12.0666
▁Punjab	-12.0666
▁Rangoon	-12.0666
▁Salvador	-12.0666
▁Shrine	-12.0666
▁Soldiers	-12.0666
▁Sulawesi	-12.0666
▁WWF	-12.0666
▁Zebari	-12.0666
▁acclaim	-12.0666
▁altogether	-12.0666
▁athletic	-12.0666
▁awkward	-12.0666
▁chimpanzee	-12.0666
▁compuls	-12.0666
▁computing	-12.0666
▁confiscated	-12.0666
▁credibility	-12.0666
▁detachment	-12.0666
▁dynamic	-12.0666
▁elbow	-12.0666
▁explicit	-12.0666
▁expulsion	-12.0666
▁frightened	-12.0666
▁illuminat	-12.0666
▁impasse	-12.0666
▁influenza	-12.0666
▁jurors	-12.0666
▁liberty	-12.0666
▁motorbike	-12.0666
▁motorcade	-12.0666
▁negligence	-12.0666
▁rejoin	-12.0666
▁skeleton	-12.0666
▁sunglasses	-12.0666
▁thrive	-12.0666
▁vivid	-12.0666
misunderstanding	-12.0666
▁Clemens	-12.0666
▁Depression	-12.0666
▁Diplomat	-12.0666
▁Kazemi	-12.0666
▁Similar	-12.0666
▁Tasmania	-12.0666
▁Wolong	-12.0666
▁bleeding	-12.0666
▁commentator	-12.0666
▁harmony	-12.0666
▁looting	-12.0666
▁rehears	-12.0666
Together	-12.0666
▁Harlem	-12.0666
▁Tadic	-12.0666
▁dignitar	-12.0666
▁futurist	-12.0666
▁roadmap	-12.0666
▁seamless	-12.0666
▁Emily	-12.0666
▁pleasure	-12.0666
▁shunn	-12.0666
▁Acros	-12.0666
▁Archives	-12.0666
▁compress	-12.0666
▁valuable	-12.0666
▁Driver	-12.0666
▁Proceed	-12.0666
▁textile	-12.0666
▁amateur	-12.0666
▁Belgrade	-12.0666
▁biometric	-12.0666
▁chopper	-12.0666
▁exercising	-12.0666
▁homeowners	-12.0666
▁balk	-12.0666
▁cyberspace	-12.0666
▁Gilbert	-12.0666
▁Paterson	-12.0666
▁Mansour	-12.0666
▁bloodshed	-12.0666
▁Julio	-12.0666
▁architecture	-12.0666
▁salute	-12.0666
▁decorated	-12.0666
PETA	-12.0666
▁Sherpa	-12.0666
▁redeployment	-12.0666
▁lackluster	-12.0666
▁Meyer	-12.0666
▁Sharp	-12.0666
▁Hawkins	-12.0666
▁Sergei	-12.0666
▁stabbed	-12.0667
▁cardiov	-12.0667
▁foiled	-12.0667
▁brink	-12.0667
▁enlist	-12.0667
▁clause	-12.0667
▁foul	-12.0667
▁imagination	-12.0667
▁livestock	-12.0667
▁Hungary	-12.0667
▁worship	-12.0667
revor	-12.0667
▁superintendent	-12.0667
▁tumbling	-12.0667
▁Burris	-12.0667
▁Barney	-12.0667
▁stray	-12.0667
▁Minutes	-12.0667
▁Large	-12.0667
▁stack	-12.0667
▁Overall	-12.0668
▁Zhu	-12.0668
▁artwork	-12.0668
▁aisle	-12.0668
▁1963	-12.0668
netheless	-12.0668
▁Team	-12.0668
▁busiest	-12.0668
▁coordination	-12.0669
ttendees	-12.0669
▁perceived	-12.0669
indecent	-12.0669
▁Baez	-12.0669
▁flies	-12.0669
▁Shank	-12.0669
▁Doha	-12.0669
▁continents	-12.0669
▁1947	-12.067
▁weaponry	-12.067
▁hideout	-12.067
▁splitting	-12.067
▁exert	-12.0671
harmonic	-12.0671
▁4-6	-12.0671
▁peel	-12.0671
▁shootout	-12.0672
▁till	-12.0672
▁Aborigin	-12.0672
▁Bayern	-12.0672
▁Score	-12.0673
▁1910	-12.0673
▁Finn	-12.0673
▁Swat	-12.0674
▁Story	-12.0674
▁Lula	-12.0674
▁depiction	-12.0674
▁suburbs	-12.0675
▁catastrophe	-12.0675
▁Describ	-12.0675
▁escalated	-12.0675
▁Jupiter	-12.0675
▁reconsider	-12.0675
▁supplied	-12.0675
▁0.7	-12.0675
▁spacewalk	-12.0676
▁0.6	-12.0676
▁quarterback	-12.0676
▁Anwar	-12.0676
▁veer	-12.0677
▁handover	-12.0678
▁mediation	-12.0678
▁McC	-12.0678
▁Race	-12.0678
▁bosses	-12.0679
▁ditch	-12.0679
▁Stam	-12.0679
▁skipp	-12.0679
▁98	-12.068
▁wishes	-12.0681
▁compatible	-12.0681
▁explorer	-12.0682
▁plantation	-12.0682
▁Cox	-12.0683
▁outrageous	-12.0684
▁progressive	-12.0684
▁deter	-12.0684
hairwoman	-12.0684
▁engulfed	-12.0685
▁pale	-12.0685
▁fragment	-12.0685
▁thumb	-12.0686
▁skies	-12.0686
▁collector	-12.0686
▁inhabit	-12.0687
▁Sleep	-12.0687
▁Ruth	-12.0687
▁phrase	-12.0687
▁226	-12.0688
▁Unity	-12.0689
▁daylight	-12.0689
▁monarchy	-12.0691
TON	-12.0691
▁downward	-12.0691
▁freezer	-12.0693
[...]
