{
  "src_word2id": {
    "<pad>": 0,
    "<s>": 1,
    "</s>": 2,
    "<unk>": 3,
    "\u2581the": 4,
    ".": 5,
    ",": 6,
    "s": 7,
    "\u2581to": 8,
    "\u2581of": 9,
    "\u2581a": 10,
    "\u2581in": 11,
    "\u2581and": 12,
    "'": 13,
    "-": 14,
    "\u2581": 15,
    "\u2581said": 16,
    "\u2581for": 17,
    "\u2581on": 18,
    "\u2581The": 19,
    "\u2581that": 20,
    "\u2581\"": 21,
    "ing": 22,
    "\u2581is": 23,
    "\u2581was": 24,
    "ed": 25,
    "\u2581with": 26,
    "\u2581at": 27,
    "\u2581by": 28,
    "\u2581from": 29,
    "\u2581it": 30,
    "\u2581as": 31,
    "\u2581has": 32,
    "\u2581be": 33,
    "\u2581his": 34,
    "\u2581have": 35,
    "\u2581he": 36,
    "\u2581will": 37,
    "\u2581an": 38,
    "\u2581are": 39,
    ",\"": 40,
    "\u2581were": 41,
    "\u2581not": 42,
    "\u2581who": 43,
    "t": 44,
    "\u2581had": 45,
    "\u2581been": 46,
    "\u2581after": 47,
    "S": 48,
    "\u2581U": 49,
    "\u2581their": 50,
    "\u2581Korea": 51,
    "\u2581but": 52,
    "\u2581they": 53,
    ")": 54,
    "\u2581its": 55,
    "...": 56,
    "\u2581about": 57,
    "\u2581people": 58,
    "\u2581this": 59,
    "\u2581more": 60,
    "\u2581A": 61,
    "\u2581(": 62,
    "\u2581which": 63,
    "\"": 64,
    "ly": 65,
    "\u2581two": 66,
    "\u2581would": 67,
    "d": 68,
    "\u2581or": 69,
    "\u2581her": 70,
    "\u2581up": 71,
    "\u2581government": 72,
    "\u2581one": 73,
    "\u2581also": 74,
    "\u2581than": 75,
    "y": 76,
    "\u2581out": 77,
    "\u2581other": 78,
    "\u2581I": 79,
    "\u2581over": 80,
    "\u2581North": 81,
    "e": 82,
    "\u2581first": 83,
    "\u2581year": 84,
    "\u2581last": 85,
    "\u2581into": 86,
    "\u2581she": 87,
    "\u2581when": 88,
    "\u2581In": 89,
    "\u2581told": 90,
    "\u2581President": 91,
    "\u2581South": 92,
    "\u2581new": 93,
    "\u2581we": 94,
    "\u2581He": 95,
    "\u2581years": 96,
    "\u2581percent": 97,
    "\u2581all": 98,
    "\u2581police": 99,
    "\u2581time": 100,
    "\u2581can": 101,
    "\u2581United": 102,
    "\u2581Korean": 103,
    "\u2581could": 104,
    "m": 105,
    "\u2581some": 106,
    "\u2581But": 107,
    "\u2581Monday": 108,
    ":": 109,
    "\u2581says": 110,
    "\u2581Iraq": 111,
    "\u2581country": 112,
    "\u2581Tuesday": 113,
    "\u2581Obama": 114,
    "\u2581you": 115,
    "\u2581there": 116,
    "\u2581no": 117,
    "\u2581It": 118,
    "I": 119,
    "\u2581them": 120,
    "\u2581officials": 121,
    "\u2581three": 122,
    "\u2581military": 123,
    "\u2581according": 124,
    "n": 125,
    "\u2581Wednesday": 126,
    "er": 127,
    "al": 128,
    "\u2581million": 129,
    "\u2581S": 130,
    "The": 131,
    ".\"": 132,
    "\u2581before": 133,
    "\u2581Sunday": 134,
    "\u2581against": 135,
    "CNN": 136,
    "\u2581where": 137,
    "\u2581week": 138,
    "\u2581China": 139,
    "\u2581nuclear": 140,
    "\u2581world": 141,
    "\u2581say": 142,
    "\u2581Bush": 143,
    "\u2581what": 144,
    "a": 145,
    "\u2581since": 146,
    "\u2581killed": 147,
    "year": 148,
    "\u2581him": 149,
    "\u2581Thursday": 150,
    "\u2581reported": 151,
    "\u2581\u201c": 152,
    "\u2581if": 153,
    "re": 154,
    "\u2581States": 155,
    "\u2581because": 156,
    "\u2581New": 157,
    "\u2581between": 158,
    "\u2581down": 159,
    "\u2581state": 160,
    "\u2581just": 161,
    "\u2019": 162,
    "during": 163,
    "\u2581only": 164,
    "\u2581now": 165,
    "\u2581off": 166,
    "\u2581being": 167,
    "\u2581made": 168,
    "\u2581most": 169,
    "\u2581so": 170,
    "\u2581official": 171,
    "old": 172,
    "\u2581day": 173,
    "\u2581back": 174,
    "\u2581former": 175,
    "\u2581under": 176,
    "\u2581including": 177,
    "We": 178,
    "\u2581Lee": 179,
    "\u2581while": 180,
    "\u2581president": 181,
    "o": 182,
    "\u2581do": 183,
    "\u2581through": 184,
    "?": 185,
    "\u2581like": 186,
    "\u2581statement": 187,
    "\u2581month": 188,
    "\u2581many": 189,
    "\u2581home": 190,
    "\u2581group": 191,
    "\u2581called": 192,
    "\u2581any": 193,
    "\u2581CNN": 194,
    "\u2581spokesman": 195,
    "\u2581won": 196,
    "\u2581found": 197,
    "\u2581city": 198,
    "\u2581next": 199,
    "\u2581talks": 200,
    "\u2581get": 201,
    "th": 202,
    "\u2581take": 203,
    "\u2581four": 204,
    "\u2581D": 205,
    "\u2581days": 206,
    "\u2581may": 207,
    "\u2581news": 208,
    "\u2581Japan": 209,
    "\u2581part": 210,
    "\u2581reports": 211,
    "\u2581our": 212,
    "\u2581National": 213,
    "\u2581report": 214,
    "\u2581troops": 215,
    "\u2581make": 216,
    "\u2581security": 217,
    "\u2581Minister": 218,
    "\u2581second": 219,
    "\u2581six": 220,
    "\u2581around": 221,
    "\u258110": 222,
    "\u2581help": 223,
    "\u00a1": 224,
    "\u2581five": 225,
    "\u2581still": 226,
    "\u2581end": 227,
    "\u2581least": 228,
    "\u2581such": 229,
    "i": 230,
    "\u2581\u0301s": 231,
    "\u2581likely": 232,
    "\u2581man": 233,
    "\u2581those": 234,
    "\u2581US": 235,
    "\u2581work": 236,
    "\u2581American": 237,
    "\u2581aid": 238,
    "\u2581Seoul": 239,
    "\u2581set": 240,
    "\u2581leader": 241,
    "\u2581``": 242,
    "\u2581high": 243,
    "\u2581war": 244,
    "\u2581G": 245,
    "\u2581al": 246,
    "\u2581party": 247,
    "\u2581top": 248,
    "\u2581how": 249,
    "\u2581Clinton": 250,
    "\u2581company": 251,
    "\u2581way": 252,
    "\u2581billion": 253,
    "\u2581House": 254,
    "\u2581saying": 255,
    "\u2581did": 256,
    ".\u201d": 257,
    "\u2581should": 258,
    "\u2581long": 259,
    "\u2581expected": 260,
    "\u2581well": 261,
    "in": 262,
    "es": 263,
    "\u2581'": 264,
    "It": 265,
    "\u2581Saturday": 266,
    "\u2581They": 267,
    "\u2581attack": 268,
    "\u2581presidential": 269,
    "\u2581Friday": 270,
    "\u2581children": 271,
    "\u2581number": 272,
    "\u2581British": 273,
    "\u2581very": 274,
    "p": 275,
    "\u2581public": 276,
    "\u2581another": 277,
    "\u2581died": 278,
    "\u2581T": 279,
    "\u2581Washington": 280,
    "\u2581York": 281,
    "\u2581...": 282,
    "\u2581forces": 283,
    "\u2581months": 284,
    "\u2581countries": 285,
    "\u2581members": 286,
    "\u2581then": 287,
    "\u2581Hong": 288,
    "\u2581go": 289,
    "\u2581look": 290,
    "\u2581host": 291,
    "\u2581Chinese": 292,
    "\u2581used": 293,
    "\u2581going": 294,
    "\u2581early": 295,
    "\u2581came": 296,
    "\u2581near": 297,
    "\u2581meeting": 298,
    "r": 299,
    "\u2581political": 300,
    "\u2581Iraqi": 301,
    "\u2581much": 302,
    "\u2581took": 303,
    "\u2581Michael": 304,
    "\u2581family": 305,
    "\u2581Iran": 306,
    "\u2581even": 307,
    "\u2581office": 308,
    ";": 309,
    "\u2581ago": 310,
    "\u2581site": 311,
    "\u2581Party": 312,
    "\u2581African": 313,
    "\u2581think": 314,
    "\u2581un": 315,
    "\u2581international": 316,
    "ve": 317,
    "\u2581Kong": 318,
    "\u2581Kim": 319,
    "\u2581death": 320,
    "\u2581announced": 321,
    "\u2581both": 322,
    "\u2581left": 323,
    "\u2581campaign": 324,
    "\u2581my": 325,
    "\u2581She": 326,
    "\u2581capital": 327,
    "\u2581C": 328,
    "\u2581women": 329,
    "N": 330,
    "\u2581several": 331,
    "\u2581economic": 332,
    "\u2581Ban": 333,
    "\u2581And": 334,
    "\u2581team": 335,
    "\u2581night": 336,
    "\u2581later": 337,
    "\u2581same": 338,
    "\u2581John": 339,
    "\u2581support": 340,
    "\u2581want": 341,
    "\u2581good": 342,
    "\u2581World": 343,
    "\u2581life": 344,
    "\u2581court": 345,
    "\u2581power": 346,
    "\u2581show": 347,
    "\u2581plan": 348,
    "\u2581held": 349,
    "\u2581head": 350,
    "\u2581men": 351,
    "\u2581among": 352,
    "\u2581see": 353,
    "\u2581election": 354,
    "\u2581recent": 355,
    "\u2581know": 356,
    "\u2581national": 357,
    "\u2581nation": 358,
    "\u2581civil": 359,
    "\u2581Democratic": 360,
    "\u2581yesterday": 361,
    "\u2581use": 362,
    "\u2581past": 363,
    "\u2581program": 364,
    "\u2581financial": 365,
    "\u2581place": 366,
    "to": 367,
    "\u2581cash": 368,
    "\u2581takes": 369,
    "\u2581put": 370,
    "\u2581Ministry": 371,
    "\u2581minister": 372,
    "\u2581double": 373,
    "\u2581deal": 374,
    "\u2581flu": 375,
    "\u2581Police": 376,
    "\u2581Prime": 377,
    "\u2581Pakistan": 378,
    "\u2581Taliban": 379,
    "\u2581chief": 380,
    "\u258120": 381,
    "\u2581economy": 382,
    "\u2581major": 383,
    "\u2581released": 384,
    "\u2581authorities": 385,
    "\u2581area": 386,
    "le": 387,
    "\u2581car": 388,
    "\u2581shift": 389,
    "\u2581leaders": 390,
    "\u2581Jackson": 391,
    "\u2581case": 392,
    "\u2581come": 393,
    "te": 394,
    "\u2581earlier": 395,
    "whether": 396,
    "\u2581your": 397,
    "\u2581media": 398,
    "\u2581foreign": 399,
    "\u2581Kenya": 400,
    "en": 401,
    "\u2581right": 402,
    "\u2581debut": 403,
    "\u2581money": 404,
    "an": 405,
    "\u2581taken": 406,
    "\u2581State": 407,
    "until": 408,
    "\u2581McCain": 409,
    "\u2581local": 410,
    "\u2581fire": 411,
    "\u2581promise": 412,
    "\u2581reduced": 413,
    "\u2581Roh": 414,
    "\u2581agency": 415,
    "\u2581White": 416,
    "\u2581opposition": 417,
    "\u2581explain": 418,
    "\u2581half": 419,
    "\u2581without": 420,
    "\u2581E": 421,
    "ers": 422,
    "\u2581hours": 423,
    "\u2581market": 424,
    "\u2581don": 425,
    "ll": 426,
    "\u2581become": 427,
    "\u2581late": 428,
    "\u2581Women": 429,
    "/": 430,
    "\u2581already": 431,
    "\u2581Japanese": 432,
    "\u2581attacks": 433,
    "\u2581hit": 434,
    "\u2581best": 435,
    "\u2581close": 436,
    "\u2581win": 437,
    "\u2581visit": 438,
    "\u2581Afghanistan": 439,
    "\u2581morning": 440,
    "\u2581give": 441,
    "\u2581oil": 442,
    "\u201d": 443,
    "\u2581W": 444,
    "\u2581\"\"": 445,
    "\u2581health": 446,
    "\u2581play": 447,
    "\u2581\u0304": 448,
    "\u2581away": 449,
    "\u2581began": 450,
    "\u2581move": 451,
    "1": 452,
    "\u2581sets": 453,
    "\u2581At": 454,
    "u": 455,
    "\u2581system": 456,
    "\u2581issue": 457,
    "\u2581plans": 458,
    "\u2581University": 459,
    "\u2581Fl": 460,
    "\u2581law": 461,
    "\u2581Press": 462,
    "\u2581third": 463,
    "\u2581miles": 464,
    "\u2581own": 465,
    "-20": 466,
    "\u2581return": 467,
    "A": 468,
    "\u2581CD": 469,
    "\u2581me": 470,
    "\u2581Web": 471,
    "raft": 472,
    "\u2581Susan": 473,
    "\u2581Beijing": 474,
    "\u2581On": 475,
    "\u2581decision": 476,
    "\u2581need": 477,
    "\u2581Ama": 478,
    "\u2581forecaster": 479,
    "\u2581release": 480,
    "\u2581thwart": 481,
    "\u2581along": 482,
    "\u2581across": 483,
    "\u2581cage": 484,
    "\u2581Israel": 485,
    "ic": 486,
    "\u2581water": 487,
    "\u2581Fly": 488,
    "\u2581workers": 489,
    "\u2581That": 490,
    "\u2581few": 491,
    "\u2581servants": 492,
    "\u2581Sen": 493,
    "\u258130": 494,
    "\u2581orphanage": 495,
    "\u2581Barack": 496,
    "\u2581European": 497,
    "\u2581nearly": 498,
    "\u2581each": 499,
    "\u2581these": 500,
    "\u2581Living": 501,
    "\u2581brunt": 502,
    "bearing": 503,
    "\u2581lead": 504,
    "\u2581dead": 505,
    "\u2581Glove": 506,
    "\u2581region": 507,
    "\u2581French": 508,
    "\u2581Songdo": 509,
    "\u2581climat": 510,
    "\u2581arrested": 511,
    "\u2581p": 512,
    "\u2581main": 513,
    "on": 514,
    "\u2581prep": 515,
    "\u2581Boyle": 516,
    "\u2581elepha": 517,
    "\u2581meetin": 518,
    "\u2581face": 519,
    "taking": 520,
    "\u2581school": 521,
    "c": 522,
    "\u2581London": 523,
    "\u2581weeks": 524,
    "akey": 525,
    "\u2581vote": 526,
    "\u2581Department": 527,
    "\u2581known": 528,
    "\u2581business": 529,
    "\u2581woman": 530,
    "\u2581Secretary": 531,
    "\u2581Times": 532,
    "able": 533,
    "\u2581town": 534,
    "\u2581-": 535,
    "\u2581agreement": 536,
    "\u2581us": 537,
    "\u2581Russia": 538,
    "\u2581There": 539,
    "\u2581human": 540,
    "\u2581conference": 541,
    "\u2581seen": 542,
    "\u2581others": 543,
    "g": 544,
    "\u258111": 545,
    "\u2581today": 546,
    "\u2581weapons": 547,
    "\u2581H": 548,
    "\u258115": 549,
    "\u2581Israeli": 550,
    "\u2581added": 551,
    "\u2581soldiers": 552,
    "\u2581violence": 553,
    "\u2581far": 554,
    "l": 555,
    "\u2581An": 556,
    "\u2581big": 557,
    "\u2581administration": 558,
    "\u2581might": 559,
    "\u2581killing": 560,
    "\u2581California": 561,
    "\u2581Britain": 562,
    "\u2581agreed": 563,
    "\u2581making": 564,
    "\u2581house": 565,
    "\u2581January": 566,
    "\u2581Baghdad": 567,
    "\u25813": 568,
    "\u2581record": 569,
    "\u2581space": 570,
    "\u2581militants": 571,
    "\u258112": 572,
    "\u2581hospital": 573,
    "\u2581prices": 574,
    "\u2581points": 575,
    "\u2581following": 576,
    "\u2581International": 577,
    "\u2581went": 578,
    "\u2581global": 579,
    "\u2581crisis": 580,
    "\u2581asked": 581,
    "\u2581Internet": 582,
    "\u2581\u0301": 583,
    "\u2581This": 584,
    "\u2581change": 585,
    "\u2581large": 586,
    "\u2581trying": 587,
    "\u2581start": 588,
    "\u2581small": 589,
    "\u2581eight": 590,
    "\u2581free": 591,
    "\u2581information": 592,
    "\u2581final": 593,
    "\u2581students": 594,
    "\u2581re": 595,
    "\u2581outside": 596,
    "\u2581southern": 597,
    "b": 598,
    "\u2581Pyongyang": 599,
    "\u2581rights": 600,
    "\u2581France": 601,
    "\u2581force": 602,
    "\u2581One": 603,
    "\u258150": 604,
    "\u2581side": 605,
    "\u2581investigation": 606,
    "\u2581key": 607,
    "\u2581believe": 608,
    "\u2581here": 609,
    "\u2581food": 610,
    "\u2581keep": 611,
    "\u2581film": 612,
    "\u25811": 613,
    "\u2581working": 614,
    "\u2581province": 615,
    "\u2581study": 616,
    "\u2581every": 617,
    "C": 618,
    "\u2581again": 619,
    "\u2581charges": 620,
    "\u2581body": 621,
    "\u2581must": 622,
    "\u2581Foreign": 623,
    "\u2581\u201d": 624,
    "\u2581video": 625,
    "\u2581accused": 626,
    "\u2581never": 627,
    "the": 628,
    "2": 629,
    "\u2581air": 630,
    "\u2581companies": 631,
    "\u2581possible": 632,
    "\u2581got": 633,
    "\u2581seven": 634,
    "\u2581run": 635,
    "\u2581control": 636,
    "\u2581bank": 637,
    "\u2581name": 638,
    "\u2581ahead": 639,
    "\u2581largest": 640,
    "\u2581led": 641,
    "\u2581June": 642,
    "\u2581find": 643,
    "sh": 644,
    "\u2581May": 645,
    "\u2581toward": 646,
    "\u2581Associat": 647,
    "\u2581allow": 648,
    "\u2581clear": 649,
    "\u2581Palestinian": 650,
    "\u2581gas": 651,
    "\u2581director": 652,
    "\u2581Al": 653,
    "\u2581cut": 654,
    "\u2581America": 655,
    "\u2581interview": 656,
    "\u2581less": 657,
    "ra": 658,
    "\u2581hand": 659,
    "\u2581general": 660,
    "h": 661,
    "\u2581July": 662,
    "\u2581game": 663,
    "\u2581As": 664,
    "\u2581March": 665,
    "\u2581bring": 666,
    "\u2581England": 667,
    "\u2581little": 668,
    "\u2581latest": 669,
    "\u25815": 670,
    "\u2581due": 671,
    "\u2581race": 672,
    "\u2581showed": 673,
    "\u2581building": 674,
    "\u2581continue": 675,
    "\u2581100": 676,
    "\u2581groups": 677,
    "\u2581candidate": 678,
    "\u2581within": 679,
    "\u2581senior": 680,
    "\u2581Gaza": 681,
    "\u2581thousands": 682,
    "\u25812": 683,
    "\u2581We": 684,
    "\u2581service": 685,
    "\u2581Congress": 686,
    "\u2581weekend": 687,
    "\u2581September": 688,
    "\u2581central": 689,
    "\u2581reporters": 690,
    "\u2581AP": 691,
    "\u2581too": 692,
    "\u2581Afghan": 693,
    "\u2581anti": 694,
    "\u2581Some": 695,
    "\u2581peace": 696,
    "\u2581George": 697,
    "man": 698,
    "\u2581further": 699,
    "\u2581Bank": 700,
    "\u2581member": 701,
    "\u2581Europe": 702,
    "\u2581better": 703,
    "\u2581prime": 704,
    "\u2581point": 705,
    "\u2581live": 706,
    "\u2581minutes": 707,
    "\u2581send": 708,
    "\u2581really": 709,
    "or": 710,
    "\u2581person": 711,
    "\u2581elections": 712,
    "\u2581bomb": 713,
    "\u2581ruling": 714,
    "ary": 715,
    "\u2581stop": 716,
    "\u2581line": 717,
    "\u2581de": 718,
    "\u2581Russian": 719,
    "\u2581emergency": 720,
    "\u2581David": 721,
    "\u2581efforts": 722,
    "\u2581After": 723,
    "\u2581shot": 724,
    "\u2581border": 725,
    "\u2581father": 726,
    "\u2581confirmed": 727,
    "\u2581December": 728,
    "com": 729,
    "\u2581B": 730,
    "\u2581future": 731,
    "\u2581call": 732,
    "\u2581lost": 733,
    "\u2581role": 734,
    "\u2581meet": 735,
    "\u2581northern": 736,
    "\u258118": 737,
    "\u2581travel": 738,
    "\u2581Security": 739,
    "\u2581open": 740,
    "This": 741,
    "\u2581policy": 742,
    "\u2581process": 743,
    "\u2581victory": 744,
    "\u2581suicide": 745,
    "\u2581trade": 746,
    "\u2581result": 747,
    "k": 748,
    "_": 749,
    "\u2581No": 750,
    "\u2581action": 751,
    "\u258140": 752,
    "\u2581order": 753,
    "article": 754,
    "\u2581problems": 755,
    "\u2581behind": 756,
    "\u2581important": 757,
    "\u2581times": 758,
    "\u2581started": 759,
    "\u2581lot": 760,
    "\u2581child": 761,
    "\u2581able": 762,
    "D": 763,
    "\u2581industry": 764,
    "\u2581does": 765,
    "\u2581using": 766,
    "\u2581whose": 767,
    "\u2581sent": 768,
    "\u2581list": 769,
    "\u2581job": 770,
    "\u2581O": 771,
    "\u2581November": 772,
    "\u2581season": 773,
    "\u2581enough": 774,
    "\u2581increase": 775,
    "\u2581young": 776,
    "\u2581newspaper": 777,
    "\u2581Australia": 778,
    "\u2581Court": 779,
    "\u2581City": 780,
    "\u2581rate": 781,
    "\u2581Republican": 782,
    "\u2581P": 783,
    "\u2581history": 784,
    "\u2581April": 785,
    "time": 786,
    "\u2581involved": 787,
    "\u2581having": 788,
    "\u2581injured": 789,
    "\u2581If": 790,
    "5": 791,
    "\u2581center": 792,
    "\u2581M": 793,
    "\u2581Qaeda": 794,
    "\u2581coming": 795,
    "\u2581full": 796,
    "\u2581almost": 797,
    "\u2581His": 798,
    "\u2581pay": 799,
    "\u2581Defense": 800,
    "\u2581station": 801,
    "\u2581plane": 802,
    "\u2581Americans": 803,
    "\u2581heart": 804,
    "\u2581inside": 805,
    "\u2581Asia": 806,
    "\u2581given": 807,
    "\u2581For": 808,
    "\u2581TV": 809,
    "\u2581wounded": 810,
    "4": 811,
    "\u2581front": 812,
    "\u2581believed": 813,
    "\u2581search": 814,
    "\u2581couple": 815,
    "\u2581San": 816,
    "\u2581television": 817,
    "\u2581series": 818,
    "\u2581strong": 819,
    "\u2581round": 820,
    "\u2581test": 821,
    "\u2581current": 822,
    "\u258113": 823,
    "day": 824,
    "\u2581Musharraf": 825,
    "mid": 826,
    "\u2581thought": 827,
    "\u2581Center": 828,
    "\u2581August": 829,
    "\u2581mother": 830,
    "\u2581India": 831,
    "\u2581East": 832,
    "\u2581once": 833,
    "\u2581homes": 834,
    "us": 835,
    "\u2581hard": 836,
    "\u2581co": 837,
    "\u2581fuel": 838,
    "\u2581Park": 839,
    "\u2581prison": 840,
    "\u2581sources": 841,
    "\u2581turn": 842,
    "\u2581Two": 843,
    "\u2581old": 844,
    "\u2581pro": 845,
    "\u2581leading": 846,
    "\u2581didn": 847,
    "il": 848,
    "\u2581based": 849,
    "\u2581different": 850,
    "\u2581together": 851,
    "\u2581comes": 852,
    "\u2581parliament": 853,
    "\u2581wants": 854,
    "\u2581October": 855,
    "\u2581More": 856,
    "\u25812006": 857,
    "st": 858,
    "\u2581Las": 859,
    "\u2581ever": 860,
    "ar": 861,
    "\u2581evidence": 862,
    "led": 863,
    "\u258114": 864,
    "less": 865,
    "\u2581situation": 866,
    "\u2581star": 867,
    "\u2581real": 868,
    "\u2581hold": 869,
    "\u2581appeared": 870,
    "\u2581step": 871,
    "\u2581research": 872,
    "\u2581Council": 873,
    "\u2581tried": 874,
    "based": 875,
    "\u2581problem": 876,
    "\u2581federal": 877,
    "\u2581wife": 878,
    "ion": 879,
    "\u2581gave": 880,
    "\u2581age": 881,
    "\u2581planned": 882,
    "\u2581turned": 883,
    "\u2581include": 884,
    "\u2581special": 885,
    "\u2581met": 886,
    "up": 887,
    "\u2581Senate": 888,
    "\u2581fighting": 889,
    "\u2581February": 890,
    "\u2581areas": 891,
    "\u2581victims": 892,
    "\u2581son": 893,
    "\u2581K": 894,
    "\u2581fell": 895,
    "se": 896,
    "\u2581immediately": 897,
    "\u2581Man": 898,
    "\u2581soon": 899,
    "\u2581flight": 900,
    "est": 901,
    "\u2581With": 902,
    "\u2581calls": 903,
    "\u2581movie": 904,
    "\u25814": 905,
    "\u2581medical": 906,
    "\u2581wanted": 907,
    "\u2581received": 908,
    "\u2581spokeswoman": 909,
    "\u2581yet": 910,
    "\u258116": 911,
    "\u2581great": 912,
    "\u2581tell": 913,
    "ir": 914,
    "\u2581incident": 915,
    "\u2581despi": 916,
    "\u2581energy": 917,
    "\u2581train": 918,
    "\u2581R": 919,
    "\u2581stay": 920,
    "\u2581per": 921,
    "\u2581poll": 922,
    "\u2581ground": 923,
    "\u2581cause": 924,
    "\"\"": 925,
    "\u2581attempt": 926,
    "\u2581online": 927,
    "P": 928,
    "\u2581bill": 929,
    "\u2581coast": 930,
    "\u258160": 931,
    "\u2581According": 932,
    "\u2581War": 933,
    "\u2581pressure": 934,
    "\u2581disease": 935,
    "\u2581storm": 936,
    "\u2581sex": 937,
    "\u258125": 938,
    "\u2581something": 939,
    "\u2581Florida": 940,
    "\u2581caused": 941,
    "\u2581results": 942,
    "\u2581south": 943,
    "\u2581saw": 944,
    "\u2581airport": 945,
    "\u2581low": 946,
    "\u2581F": 947,
    "\u2581lower": 948,
    "\u2581Germany": 949,
    "\u2581private": 950,
    "\u2581hundreds": 951,
    "\u2581markets": 952,
    "ri": 953,
    "\u2581recently": 954,
    "ce": 955,
    "\u2581Nations": 956,
    "\u2581total": 957,
    "\u2581biggest": 958,
    "\u2581getting": 959,
    "\u2581Cup": 960,
    "\u2581press": 961,
    "\u2581Hamas": 962,
    "\u2581f": 963,
    "\u2581protest": 964,
    "\u2581However": 965,
    "\u2581nations": 966,
    "\u2581negotiations": 967,
    "\u2581scheduled": 968,
    "\u2581try": 969,
    "el": 970,
    "\u2581voters": 971,
    "\u2581alleged": 972,
    "\u25818": 973,
    "\u2581Koreans": 974,
    "\u2581phone": 975,
    "\u2581N": 976,
    "T": 977,
    "\u2581Asian": 978,
    "\u2581strike": 979,
    "\u2581West": 980,
    "\u2581decided": 981,
    "\u2581provide": 982,
    "\u2581feel": 983,
    "\u2581summit": 984,
    "\u2581Union": 985,
    "\u2581Islamic": 986,
    "\u2581level": 987,
    "\u2581doing": 988,
    "\u2581charged": 989,
    "\u2581short": 990,
    "\u2581states": 991,
    "\u2581claimed": 992,
    "\u2581term": 993,
    "\u2581When": 994,
    "\u2581nine": 995,
    "\u2581deaths": 996,
    "hyun": 997,
    "\u25816": 998,
    "\u2581mission": 999,
    "\u2581army": 1000,
    "\u2581closed": 1001,
    "\u2581condition": 1002,
    "\u2581growth": 1003,
    "\u2581rise": 1004,
    "\u2581Australian": 1005,
    "became": 1006,
    "\u2581Tokyo": 1007,
    "\u25817": 1008,
    "\u2581needed": 1009,
    "ation": 1010,
    "\u258119": 1011,
    "\u2581lives": 1012,
    "\u2581Agency": 1013,
    "\u2581goal": 1014,
    "\u2581German": 1015,
    "\u2581arrest": 1016,
    "\u2581remain": 1017,
    "\u2581Rice": 1018,
    "\u2581supporters": 1019,
    "\u2581So": 1020,
    "\u2581event": 1021,
    "\u25819": 1022,
    "\u2581Olympic": 1023,
    "\u2581issues": 1024,
    "\u2581price": 1025,
    "\u2581cost": 1026,
    "is": 1027,
    "\u2581reached": 1028,
    "ity": 1029,
    "\u25812004": 1030,
    "\u2581Africa": 1031,
    "\u2581issued": 1032,
    "\u2581_": 1033,
    "\u2581road": 1034,
    "\u2581All": 1035,
    "\u2581claim": 1036,
    "\u2581failed": 1037,
    "\u2581sign": 1038,
    "\u2581effort": 1039,
    "\u2581growing": 1040,
    "\u2581fight": 1041,
    "\u2581Moo": 1042,
    "\u25812005": 1043,
    "\u2581kind": 1044,
    "\u2581north": 1045,
    "\u2581hope": 1046,
    "\u2581trip": 1047,
    "\u2581warned": 1048,
    "\u2581island": 1049,
    "\u2581missing": 1050,
    "7": 1051,
    "\u2581girl": 1052,
    "\u2581launched": 1053,
    "\u2581damage": 1054,
    "\u2581daughter": 1055,
    ",''": 1056,
    "\u2581Pakistani": 1057,
    "\u2581protesters": 1058,
    "it": 1059,
    "\u2581scientists": 1060,
    "\u2581Hillary": 1061,
    "\u2581Gen": 1062,
    "\u2581protect": 1063,
    "\u2581done": 1064,
    "\u2581speech": 1065,
    "\u2581ministry": 1066,
    "\u2581\u00a1": 1067,
    "\u2581named": 1068,
    "\u2581production": 1069,
    "\u2581resolution": 1070,
    "\u2581though": 1071,
    "and": 1072,
    "\u2581land": 1073,
    "\u2581crew": 1074,
    "\u2581executive": 1075,
    "\u2581black": 1076,
    "\u2581interest": 1077,
    "\u2581battle": 1078,
    "\u2581often": 1079,
    "\u2581higher": 1080,
    "There": 1081,
    "\u2581match": 1082,
    "\u2581estimated": 1083,
    "\u2581Los": 1084,
    "\u2581Chung": 1085,
    "\u2581summer": 1086,
    "\u2581\u0304s": 1087,
    "\u2581lawmakers": 1088,
    "\u2581sales": 1089,
    "\u2581demand": 1090,
    "\u2581credit": 1091,
    "\u2581opened": 1092,
    "\u2581offer": 1093,
    "\u2581continued": 1094,
    "\u2581Texas": 1095,
    "\u2581himself": 1096,
    "\u2581trial": 1097,
    "\u2581tax": 1098,
    "\u258124": 1099,
    "\u2581Sarkozy": 1100,
    "\u258117": 1101,
    "\u2581let": 1102,
    "\u2581operation": 1103,
    "\u2581Robert": 1104,
    "\u2581leave": 1105,
    "\u2581Brown": 1106,
    "\u2581threat": 1107,
    "\u2581break": 1108,
    "\u2581average": 1109,
    "\u2581talk": 1110,
    "\u2581letter": 1111,
    "\u2581parties": 1112,
    "\u2581bid": 1113,
    "\u2581Iranian": 1114,
    "\u2581heavy": 1115,
    "\u2581Dr": 1116,
    "\u2581board": 1117,
    "\u2581relations": 1118,
    "\u2581sea": 1119,
    "\u2581Army": 1120,
    "\u2581News": 1121,
    "6": 1122,
    "la": 1123,
    "\u2581always": 1124,
    "\u2581measures": 1125,
    "\u2581technology": 1126,
    "\u2581things": 1127,
    "\u2581Committee": 1128,
    "\u2581brought": 1129,
    "ies": 1130,
    "\u2581hostages": 1131,
    "\u2581chairman": 1132,
    "\u2581Hill": 1133,
    "\u2581defense": 1134,
    "\u2581polls": 1135,
    "\u2581officers": 1136,
    "out": 1137,
    "\u2581arrived": 1138,
    "side": 1139,
    "B": 1140,
    "\u2581community": 1141,
    "\u2581Paris": 1142,
    "ive": 1143,
    "\u2581post": 1144,
    "\u2581denied": 1145,
    "\u2581coalition": 1146,
    "\u2581spent": 1147,
    "\u2581running": 1148,
    "\u2581address": 1149,
    "\u2581stage": 1150,
    "\u2581protests": 1151,
    "\u2581music": 1152,
    "\u2581NATO": 1153,
    "\u2581message": 1154,
    "\u2581raised": 1155,
    "He": 1156,
    "\u2581identified": 1157,
    "f": 1158,
    "\u2581serious": 1159,
    "\u2581Angeles": 1160,
    "\u2581risk": 1161,
    "\u2581course": 1162,
    "\u2581published": 1163,
    "\u2581development": 1164,
    "\u2581officer": 1165,
    "),": 1166,
    "ro": 1167,
    "If": 1168,
    "\u2581shows": 1169,
    "\u2581concern": 1170,
    "\u2581quot": 1171,
    "\u2581t": 1172,
    "\u2581care": 1173,
    "\u2581rule": 1174,
    "\u2581Turkey": 1175,
    "\u2581civilians": 1176,
    "ia": 1177,
    "\u2581period": 1178,
    "\u2581similar": 1179,
    "\u2581husband": 1180,
    "\u2581parents": 1181,
    "\u2581programs": 1182,
    "\u2581position": 1183,
    "\u2581story": 1184,
    "\u2581organization": 1185,
    "\u2581means": 1186,
    "\u2581illegal": 1187,
    "\u2581included": 1188,
    "\u2581population": 1189,
    "\u2581judge": 1190,
    "\u2581previous": 1191,
    "K": 1192,
    "\u2581League": 1193,
    "\u2581project": 1194,
    "\u2581carrying": 1195,
    "\u2581ordered": 1196,
    "as": 1197,
    "\u2581UN": 1198,
    "\u2581Street": 1199,
    "\u2581majority": 1200,
    "\u2581Co": 1201,
    "\u2581General": 1202,
    "\u2581scene": 1203,
    "\u2581cell": 1204,
    "\u2581English": 1205,
    "\u2581Illinois": 1206,
    "\u2581Grand": 1207,
    "\u2581cars": 1208,
    "\u2581drug": 1209,
    "\u2581boy": 1210,
    "\u2581Dow": 1211,
    "\u2581debate": 1212,
    "They": 1213,
    "\u2581followed": 1214,
    "\u2581St": 1215,
    "\u2581200": 1216,
    "\u2581primary": 1217,
    "\u2581/": 1218,
    "ite": 1219,
    "\u2581stock": 1220,
    "\u2581Bhutto": 1221,
    "\u2581Commission": 1222,
    "\u2581huge": 1223,
    "\u2581cover": 1224,
    "\u2581crash": 1225,
    "\u2581book": 1226,
    "\u2581communist": 1227,
    "\u2581white": 1228,
    "\u2581conditions": 1229,
    "\u2581hotel": 1230,
    "\u2581Paul": 1231,
    "3": 1232,
    "\u2581suspected": 1233,
    "\u2581services": 1234,
    "\u2581push": 1235,
    "\u258121": 1236,
    "\u2581concerns": 1237,
    "\u2581nomination": 1238,
    "\u2581families": 1239,
    "\u2581afternoon": 1240,
    "\u2581worst": 1241,
    "\u2581living": 1242,
    "carried": 1243,
    "\u2581rest": 1244,
    "\u2581refused": 1245,
    "\u2581calling": 1246,
    "\u2581residents": 1247,
    "\u2581experts": 1248,
    "\u2581create": 1249,
    "\u2581popular": 1250,
    "\u2581Association": 1251,
    "\u2581doesn": 1252,
    "\u2581question": 1253,
    "\u2581matter": 1254,
    "8": 1255,
    "\u2581missile": 1256,
    "\u2581jobs": 1257,
    "\u2581room": 1258,
    "\u2581played": 1259,
    "\u2581computer": 1260,
    "\u2581Democrats": 1261,
    "\u2581announcement": 1262,
    "\u2581view": 1263,
    "\u2581however": 1264,
    "\u2581returned": 1265,
    "\u2581committee": 1266,
    "ur": 1267,
    "\u2581access": 1268,
    "\u2581leaving": 1269,
    "\u2581cases": 1270,
    "\u2581comment": 1271,
    "\u2581fact": 1272,
    "\u2581Su": 1273,
    "\u2581Taiwan": 1274,
    "\u2581intelligence": 1275,
    "\u2581activities": 1276,
    "\u2581expect": 1277,
    "\u2581expressed": 1278,
    "\u2581jail": 1279,
    "\u2581form": 1280,
    "\u2581comments": 1281,
    "\u2581sanctions": 1282,
    "\u2581begin": 1283,
    "\u2581source": 1284,
    "\u2581Myanmar": 1285,
    "\u2581delegates": 1286,
    "\u2581forward": 1287,
    "ne": 1288,
    "\u2581base": 1289,
    "\u2581fans": 1290,
    "ial": 1291,
    "\u2581Red": 1292,
    "\u2581crime": 1293,
    "\u2581available": 1294,
    "\u2581Air": 1295,
    "\u2581murder": 1296,
    "\u2581ended": 1297,
    "\u2581chance": 1298,
    "\u2581light": 1299,
    "\u2581single": 1300,
    "\u2581allowed": 1301,
    "\u2581Wall": 1302,
    "\u2581People": 1303,
    "\u2581Saudi": 1304,
    "\u2581reach": 1305,
    "\u2581fired": 1306,
    "U": 1307,
    "\u2581eastern": 1308,
    "\u2581fall": 1309,
    "\u2581bad": 1310,
    "\u2581staff": 1311,
    "\u2581claims": 1312,
    "\u2581needs": 1313,
    "\u2581helped": 1314,
    "\u2581why": 1315,
    "`": 1316,
    "\u2581Earth": 1317,
    "\u258123": 1318,
    "\u2581legal": 1319,
    "\u2581treatment": 1320,
    "E": 1321,
    "z": 1322,
    "lthough": 1323,
    "\u2581streets": 1324,
    "run": 1325,
    "\u2581rally": 1326,
    "\u2581sure": 1327,
    "described": 1328,
    "party": 1329,
    "\u2581ready": 1330,
    "co": 1331,
    "\u2581charge": 1332,
    "\u2581non": 1333,
    "\u2581signed": 1334,
    "\u2581discovered": 1335,
    "\u2581discuss": 1336,
    "\u2581candidates": 1337,
    "\u2581kilometers": 1338,
    "\u2581secretary": 1339,
    "\u2581details": 1340,
    "\u2581hopes": 1341,
    "\u2581opening": 1342,
    "\u2581Health": 1343,
    "\u2581players": 1344,
    "no": 1345,
    "M": 1346,
    "\u2581De": 1347,
    "\u2581accept": 1348,
    "\u2581bodies": 1349,
    "\u2581data": 1350,
    "\u2581struck": 1351,
    "\u2581terrorist": 1352,
    "\u2581fourth": 1353,
    "\u2581Pe": 1354,
    "\u2581feet": 1355,
    "\u2581hour": 1356,
    "\u2581share": 1357,
    "\u2581crowd": 1358,
    "\u2581themselves": 1359,
    "\u2581cities": 1360,
    "\u2581Chicago": 1361,
    "\u2581broke": 1362,
    "un": 1363,
    "\u2581Assembly": 1364,
    "\u2581J": 1365,
    "\u2581thing": 1366,
    "G": 1367,
    "\u2581safety": 1368,
    "\u2581progress": 1369,
    "\u2581Her": 1370,
    "\u2581Earlier": 1371,
    "\u2581particular": 1372,
    "\u2581response": 1373,
    "\u2581suffered": 1374,
    "\u2581worked": 1375,
    "rs": 1376,
    "\u2581passed": 1377,
    "\u2581spending": 1378,
    "\u2581To": 1379,
    "\u2581Italian": 1380,
    "\u2581survey": 1381,
    "\u2581blast": 1382,
    "\u2581Shiite": 1383,
    "\u2581sites": 1384,
    "\u2581blood": 1385,
    "\u2581funds": 1386,
    "\u2581friend": 1387,
    "\u2581Putin": 1388,
    "\u2581either": 1389,
    "\u2581worth": 1390,
    "\u2581longer": 1391,
    "\u2581Mexico": 1392,
    "at": 1393,
    "\u2581rival": 1394,
    "\u2581idea": 1395,
    "\u2581operations": 1396,
    "\u2581request": 1397,
    "\u2581enter": 1398,
    "\u2581banks": 1399,
    "\u2581passengers": 1400,
    "\u2581ceremony": 1401,
    "\u2581focus": 1402,
    "\u2581Bill": 1403,
    "\u2581quarter": 1404,
    "\u2581red": 1405,
    "\u2581Office": 1406,
    "\u2581moved": 1407,
    "\u2581County": 1408,
    "\u2581female": 1409,
    "\u2581consider": 1410,
    "\u2581ban": 1411,
    "ist": 1412,
    "\u2581Smith": 1413,
    "\u2581paid": 1414,
    "\u2581sold": 1415,
    "\u2581increased": 1416,
    "\u2581tour": 1417,
    "\u2581decades": 1418,
    "\u2581NASA": 1419,
    "\u2581cannot": 1420,
    "\u2581destroyed": 1421,
    "\u2581ship": 1422,
    "0,000": 1423,
    "\u2581probably": 1424,
    "\u2581anything": 1425,
    "\u2581rare": 1426,
    "\u2581Chief": 1427,
    "R": 1428,
    "\u2581remains": 1429,
    "\u2581difficult": 1430,
    "\u258122": 1431,
    "\u2581labor": 1432,
    "\u2581above": 1433,
    "\u2581gain": 1434,
    "\u2581holding": 1435,
    "\u2581manager": 1436,
    "\u2581launch": 1437,
    "\u2581Day": 1438,
    "\u2581sell": 1439,
    "ie": 1440,
    "\u2581Meanwhile": 1441,
    "\u2581Italy": 1442,
    "\u2581nothing": 1443,
    "ch": 1444,
    "\u2581trading": 1445,
    "\u2581impact": 1446,
    "\u2581Le": 1447,
    "\u2581usual": 1448,
    "\u2581rose": 1449,
    "\u2581quickly": 1450,
    "\u2581professor": 1451,
    "\u2581am": 1452,
    "\u2581annual": 1453,
    "\u2581UK": 1454,
    "F": 1455,
    "\u2581lawyer": 1456,
    "\u2581commander": 1457,
    "\u2581Indian": 1458,
    "\u2581injuries": 1459,
    "\u2581join": 1460,
    "\u2581drop": 1461,
    "\u2581diplomatic": 1462,
    "\u2581declared": 1463,
    "\u2581date": 1464,
    "\u2581love": 1465,
    "de": 1466,
    "\u2581potential": 1467,
    "\u2581governor": 1468,
    "\u2581field": 1469,
    "\u2581vice": 1470,
    "\u2581Mark": 1471,
    "\u2581citizens": 1472,
    "\u2581e": 1473,
    "ma": 1474,
    "\u2581parts": 1475,
    "\u2581vehicle": 1476,
    "\u2581rebels": 1477,
    "ian": 1478,
    "\u2581loss": 1479,
    "\u2581appear": 1480,
    "\u2581posted": 1481,
    "\u2581district": 1482,
    "\u2581social": 1483,
    "\u2581steps": 1484,
    "\u2581rescue": 1485,
    "\u2581radio": 1486,
    "\u2581L": 1487,
    "\u2581Prince": 1488,
    "\u2581especially": 1489,
    "\u2581Carolina": 1490,
    "\u2581Group": 1491,
    "\u2581joint": 1492,
    "\u2581Virginia": 1493,
    "L": 1494,
    "\u2581brain": 1495,
    "\u2581investment": 1496,
    "\u2581friends": 1497,
    "\u2581Federal": 1498,
    "\u2581attention": 1499,
    "\u2581Spain": 1500,
    "\u25812008": 1501,
    "\u2581avoid": 1502,
    "\u2581network": 1503,
    "\u2581deliver": 1504,
    "\u2581levels": 1505,
    "\u2581warning": 1506,
    "\u2581adding": 1507,
    "\u2581Another": 1508,
    "\u2581King": 1509,
    "\u2581title": 1510,
    "\u2581camp": 1511,
    "\u2581relationship": 1512,
    "\u2581Ki": 1513,
    "\u2581researchers": 1514,
    "\u2581Authorities": 1515,
    "\u2581rising": 1516,
    "\u2581responsible": 1517,
    "\u2581detained": 1518,
    "\u2581employees": 1519,
    "\u2581prevent": 1520,
    "\u2581kept": 1521,
    "Maliki": 1522,
    "\u2581voice": 1523,
    "\u2581original": 1524,
    "\u2581currently": 1525,
    "\u2581kill": 1526,
    "\u2581natural": 1527,
    "\u2581success": 1528,
    "\u2581dropped": 1529,
    "\u2581worldwide": 1530,
    "\u2581highest": 1531,
    "ton": 1532,
    "\u2581stand": 1533,
    "\u2581Muslim": 1534,
    "\u2581Sea": 1535,
    "\u2581considered": 1536,
    "\u2581additional": 1537,
    "\u2581urg": 1538,
    "In": 1539,
    "\u2581accident": 1540,
    "AP": 1541,
    "\u2581giving": 1542,
    "\u2581prosecutors": 1543,
    "\u2581session": 1544,
    "\u258170": 1545,
    "\u2581Turki": 1546,
    "\u2581hearing": 1547,
    "\u2581happened": 1548,
    "\u2581serve": 1549,
    "\u2581games": 1550,
    "\u2581park": 1551,
    "\u2581build": 1552,
    "\u258180": 1553,
    "um": 1554,
    "\u2581questions": 1555,
    "land": 1556,
    "\u2581exchange": 1557,
    "\u2581cancer": 1558,
    "\u2581massive": 1559,
    "\u2581written": 1560,
    "\u2581personal": 1561,
    "\u2581r": 1562,
    "\u2581Jones": 1563,
    "\u2581shooting": 1564,
    "\u2581Harry": 1565,
    "\u2581contain": 1566,
    "\u2581Dur": 1567,
    "\u2581hands": 1568,
    "9": 1569,
    "\u2581changes": 1570,
    "\u2581Former": 1571,
    "\u2581common": 1572,
    "\u2581approved": 1573,
    "\u2581club": 1574,
    "\u2581offered": 1575,
    "\u2581remarks": 1576,
    "\u2581reason": 1577,
    "\u2581dollars": 1578,
    "\u2581actually": 1579,
    "ness": 1580,
    "\u2581threatened": 1581,
    "\u2581allegations": 1582,
    "\u2581whom": 1583,
    "\u2581Middle": 1584,
    "\u2581Pennsylvania": 1585,
    "\u2581admitted": 1586,
    "\u2581dollar": 1587,
    "\u2581seeking": 1588,
    "\u2581terrorism": 1589,
    "ous": 1590,
    "\u2581aim": 1591,
    "\u2581schools": 1592,
    "\u2581index": 1593,
    "\u2581suspect": 1594,
    "\u2581firm": 1595,
    "\u2581lack": 1596,
    "\u2581someone": 1597,
    "\u2581criticized": 1598,
    "\u2581evening": 1599,
    "\u2581heard": 1600,
    "\u2581allegedly": 1601,
    "\u2581millions": 1602,
    "\u2581sexual": 1603,
    "W": 1604,
    "\u2581responsibility": 1605,
    "\u2581baby": 1606,
    "\u2581James": 1607,
    "\u2581combat": 1608,
    "\u2581Most": 1609,
    "\u2581II": 1610,
    "way": 1611,
    "\u2581suspended": 1612,
    "w": 1613,
    "\u2581contact": 1614,
    "\u2581nearby": 1615,
    "\u2581animals": 1616,
    "H": 1617,
    "\u2581career": 1618,
    "\u2581plant": 1619,
    "\u2581mid": 1620,
    "\u2581beat": 1621,
    "\u2581Institute": 1622,
    "\u2581ex": 1623,
    "\u2581Chavez": 1624,
    "\u2581education": 1625,
    "\u2581bit": 1626,
    "month": 1627,
    "hile": 1628,
    "\u2581target": 1629,
    "upreme": 1630,
    "\u2581giant": 1631,
    "\u2581Cabinet": 1632,
    "\u2581costs": 1633,
    "\u2581seek": 1634,
    "\u2581raise": 1635,
    "\u2581critical": 1636,
    "\u2581figure": 1637,
    "\u2581appeal": 1638,
    "\u2581mass": 1639,
    "\u2581jump": 1640,
    "\u2581panel": 1641,
    "ally": 1642,
    "\u2581corruption": 1643,
    "\u2581toll": 1644,
    "\u2581actor": 1645,
    "\u2581account": 1646,
    "\u2581quit": 1647,
    "\u2581read": 1648,
    "inhua": 1649,
    "\u2581construction": 1650,
    "im": 1651,
    "\u2581attorney": 1652,
    "ad": 1653,
    "\u2581wrote": 1654,
    "\u2581sides": 1655,
    "\u2581contract": 1656,
    "\u2581Thailand": 1657,
    "\u2581everything": 1658,
    "\u2581effect": 1659,
    "\u2581material": 1660,
    "\u2581Corp": 1661,
    "\u2581training": 1662,
    "\u2581fund": 1663,
    "ak": 1664,
    "\u2581receive": 1665,
    "But": 1666,
    "\u2581doctors": 1667,
    "\u2581500": 1668,
    "\u2581aircraft": 1669,
    "\u2581Officials": 1670,
    "\u2581rain": 1671,
    "\u2581terms": 1672,
    "\u2581dispute": 1673,
    "\u2581spread": 1674,
    "\u2581conducted": 1675,
    "\u2581pre": 1676,
    "\u2581ambassador": 1677,
    "\u2581rather": 1678,
    "\u2581regime": 1679,
    "\u2581convicted": 1680,
    "\u2581Western": 1681,
    "\u2581moving": 1682,
    "\u2581nominee": 1683,
    "\u2581forc": 1684,
    "\u2581Abou": 1685,
    "\u2581poor": 1686,
    "citing": 1687,
    "\u2581Cho": 1688,
    "\u2581makes": 1689,
    "\u2581figures": 1690,
    "\u2581envoy": 1691,
    "age": 1692,
    "\u2581apparently": 1693,
    "\u2581shut": 1694,
    "\u2581inter": 1695,
    ",\u201d": 1696,
    "coming": 1697,
    "\u2581complete": 1698,
    "\u2581winning": 1699,
    "\u2581terror": 1700,
    "\u2581safe": 1701,
    "8212;": 1702,
    "\u2581commercial": 1703,
    "\u2581daily": 1704,
    "\u2581prosecution": 1705,
    "\u2581itself": 1706,
    "\u2581EU": 1707,
    "\u2581moment": 1708,
    "\u2581senator": 1709,
    "\u2581size": 1710,
    "\u2581numbers": 1711,
    "\u2581vehicles": 1712,
    ".''": 1713,
    "\u2581products": 1714,
    "\u2581ice": 1715,
    "\u2581armed": 1716,
    "\u2581criticism": 1717,
    "\u2581Ohio": 1718,
    "\u2581surgery": 1719,
    "\u2581Ben": 1720,
    "\u2581prisoners": 1721,
    "\u2581instead": 1722,
    "\u2581committed": 1723,
    "\u2581neighbor": 1724,
    "\u2581ties": 1725,
    "\u2581buildings": 1726,
    "\u2581remained": 1727,
    "\u2581rules": 1728,
    "\u2581insurgents": 1729,
    "\u2581involv": 1730,
    "\u2581Indonesia": 1731,
    "\u2581cross": 1732,
    "\u2581sentence": 1733,
    "\u2581custody": 1734,
    "\u2581magazine": 1735,
    "\u2581occurred": 1736,
    "\u2581beginning": 1737,
    "\u2581proposed": 1738,
    "\u2581winner": 1739,
    "\u2581rejected": 1740,
    "\u2581shown": 1741,
    "\u2581buy": 1742,
    "ful": 1743,
    "\u2581suggested": 1744,
    "\u2581confirm": 1745,
    "22": 1746,
    "id": 1747,
    "\u2581addition": 1748,
    "\u2581reduce": 1749,
    "\u2581seem": 1750,
    "\u2581church": 1751,
    "\u2581Central": 1752,
    "\u2581Interior": 1753,
    "\u2581leadership": 1754,
    "\u2581suspects": 1755,
    "\u2581built": 1756,
    "\u2581western": 1757,
    "\u2581previously": 1758,
    "elect": 1759,
    "\u2581Uri": 1760,
    "by": 1761,
    "\u2581resume": 1762,
    "\u2581boost": 1763,
    "\u2581Royal": 1764,
    "\u2581track": 1765,
    "ern": 1766,
    "\u2581starting": 1767,
    "\u2581Service": 1768,
    "\u2581movement": 1769,
    "\u2581student": 1770,
    "\u2581visitors": 1771,
    "\u2581investors": 1772,
    "\u2581fear": 1773,
    "\u2581Georgia": 1774,
    "et": 1775,
    "\u2581Spanish": 1776,
    "\u2581earthquake": 1777,
    "\u2581bus": 1778,
    "\u2581brother": 1779,
    "\u2581tests": 1780,
    "\u2581created": 1781,
    "\u2581driving": 1782,
    "\u2581explosion": 1783,
    "\u2581Force": 1784,
    "\u2581paper": 1785,
    "\u2581seat": 1786,
    "\u2581events": 1787,
    "\u2581traditional": 1788,
    "\u2581attacked": 1789,
    "one": 1790,
    "\u2581fighters": 1791,
    "\u2581reactor": 1792,
    "\u2581includes": 1793,
    "\u2581reform": 1794,
    "\u2581union": 1795,
    "\u2581You": 1796,
    "\u2581player": 1797,
    "\u2581Moscow": 1798,
    "\u2581deputy": 1799,
    "\u2581Abbas": 1800,
    "\u2581conduct": 1801,
    "0": 1802,
    "\u2581signs": 1803,
    "\u2581satellite": 1804,
    "\u2581Now": 1805,
    "\u258190": 1806,
    "ment": 1807,
    "\u2581Hollywood": 1808,
    "\u2581industrial": 1809,
    "\u2581planning": 1810,
    "\u2581allies": 1811,
    "\u2581village": 1812,
    "\u2581row": 1813,
    "\u2581arms": 1814,
    "\u2581award": 1815,
    "\u2581showing": 1816,
    "\u2581patients": 1817,
    "\u2581failure": 1818,
    "\u2581weather": 1819,
    "\u2581commission": 1820,
    "\u2581Both": 1821,
    "\u25811,000": 1822,
    "x": 1823,
    "\u2581ruled": 1824,
    "\u2581Olympics": 1825,
    "mo": 1826,
    "\u2581Hyundai": 1827,
    "\u2581Microsoft": 1828,
    "\u2581dangerous": 1829,
    "\u2581operating": 1830,
    "\u2581Apple": 1831,
    "son": 1832,
    "\u2581Mo": 1833,
    "\u2581civilian": 1834,
    "\u258129": 1835,
    "\u2581prove": 1836,
    "\u2581owner": 1837,
    "\u2581Dae": 1838,
    "\u2581experience": 1839,
    "\u2581anyone": 1840,
    "back": 1841,
    "hour": 1842,
    "\u2581immediate": 1843,
    "\u2581spoke": 1844,
    "be": 1845,
    "\u2581Herald": 1846,
    "\u2581Cheney": 1847,
    "\u2581mean": 1848,
    "\u2581store": 1849,
    "O": 1850,
    "\u2581seats": 1851,
    "\u2581act": 1852,
    "\u2581hurt": 1853,
    "\u2581documents": 1854,
    "\u2581tourists": 1855,
    "\u2581Brazil": 1856,
    "\u2581Open": 1857,
    "\u2581Yahoo": 1858,
    "\u2581truck": 1859,
    "\u2581analysts": 1860,
    "\u2581affected": 1861,
    "\u2581Research": 1862,
    "\u2581carry": 1863,
    "\u2581married": 1864,
    "\u2581everyone": 1865,
    "\u2581What": 1866,
    "\u2581compared": 1867,
    "na": 1868,
    "\u2581performance": 1869,
    "off": 1870,
    "\u2581honor": 1871,
    "\u2581prompt": 1872,
    "\u2581flights": 1873,
    "\u25812002": 1874,
    "\u2581dozens": 1875,
    "\u2581Sunni": 1876,
    "\u25812003": 1877,
    "\u2581self": 1878,
    "\u2581pick": 1879,
    "\u2581bombing": 1880,
    "\u2581consumer": 1881,
    "\u2581amount": 1882,
    "\u2581BBC": 1883,
    "\u2581telephone": 1884,
    "\u2581supply": 1885,
    "\u2581provided": 1886,
    "\u2581powerful": 1887,
    "\u2581rates": 1888,
    "\u2581bin": 1889,
    "\u2581Richard": 1890,
    "\u2581wearing": 1891,
    "\u2581democracy": 1892,
    "\u2581sale": 1893,
    "\u2581votes": 1894,
    "ho": 1895,
    "\u2581environment": 1896,
    "\u2581filed": 1897,
    "\u2581Under": 1898,
    "\u2581defeat": 1899,
    "\u2581pull": 1900,
    "bak": 1901,
    "\u2581ran": 1902,
    ",000": 1903,
    "ba": 1904,
    "\u2581pulled": 1905,
    "\u2581alliance": 1906,
    "\u2581domestic": 1907,
    "\u2581Myung": 1908,
    "\u2581snow": 1909,
    "\u2581guilty": 1910,
    "\u2581blue": 1911,
    "\u2581Tibet": 1912,
    "\u2581department": 1913,
    "\u2581troop": 1914,
    "ier": 1915,
    "\u258127": 1916,
    "\u2581traffic": 1917,
    "\u2581policies": 1918,
    "\u2581FBI": 1919,
    "\u2581necessary": 1920,
    "\u2581directly": 1921,
    "am": 1922,
    "You": 1923,
    "\u2581meters": 1924,
    "lo": 1925,
    "\u2581By": 1926,
    "\u2581marriage": 1927,
    "\u2581partner": 1928,
    "cat": 1929,
    "\u2581present": 1930,
    "ling": 1931,
    "\u2581middle": 1932,
    "\u2581sought": 1933,
    "\u2581related": 1934,
    "\u2581linked": 1935,
    "\u2581b": 1936,
    "\u2581Hu": 1937,
    "\u2581possibility": 1938,
    "\u2581overseas": 1939,
    "\u2581caught": 1940,
    "\u2581Wa": 1941,
    "\u2581affect": 1942,
    "\u2581ongoing": 1943,
    "\u2581independence": 1944,
    "nd": 1945,
    "\u2581Although": 1946,
    "ter": 1947,
    "\u2581holiday": 1948,
    "\u2581Whi": 1949,
    "\u2581suggest": 1950,
    "ol": 1951,
    "\u2581declined": 1952,
    "\u2581mostly": 1953,
    "\u2581concerned": 1954,
    "\u2581independent": 1955,
    "\u2581damaged": 1956,
    "\u2581speak": 1957,
    "\u2581fine": 1958,
    "\u2581Ma": 1959,
    "\u2581deep": 1960,
    "\u2581faces": 1961,
    "\u258135": 1962,
    "\u2581River": 1963,
    "\u2581Peter": 1964,
    "\u2581recession": 1965,
    "\u2581understand": 1966,
    "\u2581shuttle": 1967,
    "\u2581drugs": 1968,
    "\u2581century": 1969,
    "American": 1970,
    "\u2581Arab": 1971,
    "\u2581ask": 1972,
    "\u2581conservative": 1973,
    "\u2581word": 1974,
    "\u2581require": 1975,
    "\u2581headquarters": 1976,
    "ah": 1977,
    "\u2581Abe": 1978,
    "\u2581east": 1979,
    "\u2581words": 1980,
    "tan": 1981,
    "li": 1982,
    "\u2581minute": 1983,
    "\u2581Other": 1984,
    "\u2581voted": 1985,
    "\u2581blam": 1986,
    "\u2581Colombia": 1987,
    "\u2581stopped": 1988,
    "ul": 1989,
    "long": 1990,
    "\u2581assault": 1991,
    "\u2581Shin": 1992,
    "\u2581goes": 1993,
    "\u2581designed": 1994,
    "\u2581shortly": 1995,
    "\u2581package": 1996,
    "\u2581Oscar": 1997,
    "\u2581militant": 1998,
    "\u2581justice": 1999,
    "\u2581names": 2000,
    "\u2581certain": 2001,
    "term": 2002,
    "\u2581environmental": 2003,
    "\u2581remaining": 2004,
    "\u2581promised": 2005,
    "\u2581Li": 2006,
    "\u2581regard": 2007,
    "\u2581fresh": 2008,
    "\u2581Lebanon": 2009,
    "\u2581Jong": 2010,
    "\u2581competition": 2011,
    "\u2581vow": 2012,
    "\u2581type": 2013,
    "\u2581famous": 2014,
    "ta": 2015,
    "\u2581Ba": 2016,
    "\u2581Gates": 2017,
    "\u2581wasn": 2018,
    "\u2581review": 2019,
    "\u2581Justice": 2020,
    "hose": 2021,
    "\u2581street": 2022,
    "\u2581elected": 2023,
    "\u2581pass": 2024,
    "\u2581violent": 2025,
    "\u2581animal": 2026,
    "\u2581bombs": 2027,
    "\u2581birth": 2028,
    "\u2581smoke": 2029,
    "\u2581Charles": 2030,
    "\u2581Lebanese": 2031,
    "\u2581voting": 2032,
    "\u2581display": 2033,
    "\u2581investigating": 2034,
    "\u2581joined": 2035,
    "\u2581check": 2036,
    "\u2581pledged": 2037,
    "\u2581isn": 2038,
    "urged": 2039,
    "\u2581Palestinians": 2040,
    "\u2581criminal": 2041,
    "\u2581felt": 2042,
    "\u2581university": 2043,
    "\u2581gold": 2044,
    "\u2581deadline": 2045,
    "\u2581Christmas": 2046,
    "\u2581quake": 2047,
    "\u2581losses": 2048,
    "\u2581activity": 2049,
    "\u2581maintain": 2050,
    "ent": 2051,
    "\u2581fears": 2052,
    "\u2581mark": 2053,
    "\u2581regional": 2054,
    "lew": 2055,
    "\u2581terrorists": 2056,
    "\u2581rocket": 2057,
    "\u2581Steve": 2058,
    "\u2581Vice": 2059,
    "\u2581surrounding": 2060,
    "ized": 2061,
    "\u2581considering": 2062,
    "\u2581range": 2063,
    "\u2581Star": 2064,
    "\u2581territory": 2065,
    "code": 2066,
    "\u2581anniversary": 2067,
    "\u2581below": 2068,
    "\u2581placed": 2069,
    "\u2581gathered": 2070,
    "\u2581Prosecutors": 2071,
    "ever": 2072,
    "\u2581customers": 2073,
    "\u2581peaceful": 2074,
    "\u2581positive": 2075,
    "\u2581respect": 2076,
    "do": 2077,
    "\u2581coach": 2078,
    "ck": 2079,
    "\u2581Ilbo": 2080,
    "\u2581ministers": 2081,
    "\u2581hair": 2082,
    "\u25812007": 2083,
    "\u2581sentenced": 2084,
    "\u2581referr": 2085,
    "\u2581Re": 2086,
    "\u2581climate": 2087,
    "\u2581Tom": 2088,
    "\u2581conflict": 2089,
    "\u2581meetings": 2090,
    "\u2581model": 2091,
    "\u2581seized": 2092,
    "\u2581species": 2093,
    "\u2581blame": 2094,
    "ge": 2095,
    "\u2581develop": 2096,
    "\u2581dog": 2097,
    "\u2581port": 2098,
    "\u2581$2": 2099,
    "\u2581$1": 2100,
    "\u2581separate": 2101,
    "ted": 2102,
    "\u2581measure": 2103,
    "ID": 2104,
    "\u2581drive": 2105,
    "\u2581picture": 2106,
    "\u2581Olmert": 2107,
    "\u2581album": 2108,
    "\u2581twice": 2109,
    "\u2581software": 2110,
    "\u2581college": 2111,
    "\u2581appears": 2112,
    "\u258126": 2113,
    "\u2581ways": 2114,
    "\u2581choice": 2115,
    "\u2581images": 2116,
    "\u2581card": 2117,
    "\u2581complex": 2118,
    "\u2581controversial": 2119,
    "://": 2120,
    "htt": 2121,
    "\u2581mobile": 2122,
    "\u2581alone": 2123,
    "\u2581confidence": 2124,
    "\u2581transfer": 2125,
    "\u2581forecast": 2126,
    "\u2581gone": 2127,
    "ha": 2128,
    "\u2581direct": 2129,
    "\u2581William": 2130,
    "\u2581kids": 2131,
    "\u2581broadcast": 2132,
    "asp": 2133,
    "\u2581talking": 2134,
    "\u2581shares": 2135,
    "\u2581lines": 2136,
    "\u2581laws": 2137,
    "\u2581Syria": 2138,
    "cnn": 2139,
    "\u2581Christopher": 2140,
    "\u2581facilities": 2141,
    "\u2581Madrid": 2142,
    "\u2581knew": 2143,
    "Total": 2144,
    "\u2581dozen": 2145,
    "\u2581wrong": 2146,
    "\u2581Three": 2147,
    "\u2581produced": 2148,
    "\u2581happen": 2149,
    "\u2581finish": 2150,
    "\u2581suffering": 2151,
    "\u2581initial": 2152,
    "\u2581collapse": 2153,
    "\u2581Tour": 2154,
    "\u2581CEO": 2155,
    "\u2581LONDON": 2156,
    "\u2581politics": 2157,
    "\u2581straight": 2158,
    "\u2581football": 2159,
    "\u2581beyond": 2160,
    "\u2581throughout": 2161,
    "\u2581true": 2162,
    "\u2581Pacific": 2163,
    "\u2581Williams": 2164,
    "line": 2165,
    "\u2581prepared": 2166,
    "\u2581draw": 2167,
    "\u2581determine": 2168,
    "government": 2169,
    "\u2581Embassy": 2170,
    "\u2581Energy": 2171,
    "\u2581facing": 2172,
    "\u2581behavior": 2173,
    "\u2581disaster": 2174,
    "\u2581victim": 2175,
    "\u2581Trade": 2176,
    "\u2581fifth": 2177,
    "\u2581speaking": 2178,
    "v": 2179,
    "\u2581Games": 2180,
    "ti": 2181,
    "\u2581District": 2182,
    "\u2581Organization": 2183,
    "ap": 2184,
    "\u2581singer": 2185,
    "\u2581zone": 2186,
    "\u2581lift": 2187,
    "\u2581winds": 2188,
    "\u2581increasing": 2189,
    "\u2581challenge": 2190,
    "\u201c": 2191,
    "\u2581Pentagon": 2192,
    "\u2581Tehran": 2193,
    "\u2581struggle": 2194,
    "\u2581Labor": 2195,
    "\u2581management": 2196,
    "\u2581audience": 2197,
    "\u2581High": 2198,
    "\u2581version": 2199,
    "\u2581helicopter": 2200,
    "\u2581attend": 2201,
    "\u2581becoming": 2202,
    "What": 2203,
    "\u2581developing": 2204,
    "\u2581presence": 2205,
    "\u2581crude": 2206,
    "\u2581Canada": 2207,
    "\u2581Egypt": 2208,
    "\u2581Treasury": 2209,
    "\u2581kidnapped": 2210,
    "\u2581Space": 2211,
    "\u2581activists": 2212,
    "\u2581Democrat": 2213,
    "\u2581soldier": 2214,
    "\u2581Ali": 2215,
    "\u2581Even": 2216,
    "ty": 2217,
    "ni": 2218,
    "\u2581delay": 2219,
    "\u2581improve": 2220,
    "\u2581flow": 2221,
    "\u2581significant": 2222,
    "\u2581born": 2223,
    "\u2581happy": 2224,
    "\u2581Blair": 2225,
    "\u2581scandal": 2226,
    "\u2581wide": 2227,
    "\u2581barrel": 2228,
    "\u2581Tony": 2229,
    "\u2581cast": 2230,
    "\u2581Since": 2231,
    "\u2581asking": 2232,
    "\u2581journalists": 2233,
    "\u2581wound": 2234,
    "me": 2235,
    "\u2581waiting": 2236,
    "\u2581developed": 2237,
    "\u2581Hospital": 2238,
    "\u2581approval": 2239,
    "\u2581value": 2240,
    "\u2581Beckham": 2241,
    "\u2581opportunity": 2242,
    "\u2581welcome": 2243,
    "\u2581losing": 2244,
    "\u2581Island": 2245,
    "\u2581Desp": 2246,
    "\u2581art": 2247,
    "\u2581Burma": 2248,
    "\u2581300": 2249,
    "\u2581served": 2250,
    "ja": 2251,
    "\u2581door": 2252,
    "\u2581whole": 2253,
    "\u2581traveling": 2254,
    "\u2581Singapore": 2255,
    "\u2581targeted": 2256,
    "\u2581Gordon": 2257,
    "\u2581currency": 2258,
    "\u2581mosque": 2259,
    "\u2581Among": 2260,
    "\u2581Howard": 2261,
    "\u2581resignation": 2262,
    "\u2581Sudan": 2263,
    "\u2581extreme": 2264,
    "\u2581crimes": 2265,
    "\u2581square": 2266,
    "\u2581decade": 2267,
    "fi": 2268,
    "\u2581camera": 2269,
    "corporate": 2270,
    "joins": 2271,
    "\u25812006.": 2272,
    "\u2581follow": 2273,
    "\u2581Zimbabwe": 2274,
    "\u2581NEW": 2275,
    "\u2581WASHINGTON": 2276,
    "\u2581encourage": 2277,
    "\u2581sleep": 2278,
    "ka": 2279,
    "he": 2280,
    "\u2581airline": 2281,
    "\u2581Han": 2282,
    "da": 2283,
    "\u2581works": 2284,
    "\u2581class": 2285,
    "\u2581finished": 2286,
    "\u2581secure": 2287,
    "\u2581Marine": 2288,
    "forced": 2289,
    "\u2581Ko": 2290,
    "\u2581Mugabe": 2291,
    "\u2581resort": 2292,
    "\u2581supplies": 2293,
    "\u2581injury": 2294,
    "\u2581Reuters": 2295,
    "\u2581Abu": 2296,
    "\u2581mountain": 2297,
    "\u2581neighborhood": 2298,
    "\u2581Sa": 2299,
    "\u2581required": 2300,
    "\u2581exist": 2301,
    "\u2581indicated": 2302,
    "\u2581estimates": 2303,
    "\u2581influence": 2304,
    "\u2581alcohol": 2305,
    "\u2581Administration": 2306,
    "\u2581agencies": 2307,
    "tomic": 2308,
    "\u2581ET": 2309,
    "\u2581proposal": 2310,
    "\u2581image": 2311,
    "\u2581doctor": 2312,
    "\u2581stars": 2313,
    "\u2581changed": 2314,
    "\u2581demanding": 2315,
    "\u2581photos": 2316,
    "\u2581Hussein": 2317,
    "\u2581School": 2318,
    "\u2581correspondent": 2319,
    "\u2581various": 2320,
    "\u2581religious": 2321,
    "\u2581overall": 2322,
    "\u2581sense": 2323,
    "\u2581lose": 2324,
    "\u2581male": 2325,
    "\u2581hostage": 2326,
    "\u2581speed": 2327,
    "\u2581abuse": 2328,
    "\u2581attempted": 2329,
    "\u2581spark": 2330,
    "\u2581Google": 2331,
    "\u2581auto": 2332,
    "\u2581Tibetan": 2333,
    "\u2581bridge": 2334,
    "\u2581missiles": 2335,
    "\u2581removed": 2336,
    "\u2581decide": 2337,
    "\u2581Bay": 2338,
    "\u2581lived": 2339,
    "\u2581Be": 2340,
    "we": 2341,
    "\u258145": 2342,
    "\u2581headed": 2343,
    "\u2581Cross": 2344,
    "\u2581Thai": 2345,
    "\u2581Francisco": 2346,
    "\u25811999": 2347,
    "\u2581bailout": 2348,
    "\u2581society": 2349,
    "\u2581draft": 2350,
    "\u2581secret": 2351,
    "\u2581floor": 2352,
    "\u2581produce": 2353,
    "\u2581spend": 2354,
    "\u2581jet": 2355,
    "men": 2356,
    "\u2581band": 2357,
    "\u2581bombings": 2358,
    "\u2581actions": 2359,
    "\u2581Ha": 2360,
    "\u2581severe": 2361,
    "\u2581spot": 2362,
    "\u2581modern": 2363,
    "\u2581blow": 2364,
    "\u2581houses": 2365,
    "\u2581Condoleezza": 2366,
    "\u2581Airport": 2367,
    "\u2581demands": 2368,
    "\u2581pounds": 2369,
    "\u2581places": 2370,
    "\u2581weight": 2371,
    "rew": 2372,
    "\u2581determined": 2373,
    "\u2581Christian": 2374,
    "\u2581analyst": 2375,
    "\u2581waters": 2376,
    "\u2581Gov": 2377,
    "ach": 2378,
    "foot": 2379,
    "\u2581defend": 2380,
    "aimed": 2381,
    "\u2581parliamentar": 2382,
    "\u2581eye": 2383,
    "\u2581resolve": 2384,
    "\u2581users": 2385,
    "\u2581fraud": 2386,
    "\u2581kidnapping": 2387,
    "\u2581deployment": 2388,
    "\u2581connection": 2389,
    "\u2581DNA": 2390,
    "\u2581alert": 2391,
    "\u2581Communist": 2392,
    "ry": 2393,
    "No": 2394,
    "\u2581setting": 2395,
    "\u2581widely": 2396,
    "\u258128": 2397,
    "\u2581visited": 2398,
    "\u2581girls": 2399,
    "\u2581questioned": 2400,
    "\u2581rebel": 2401,
    "\u2581establish": 2402,
    "\u2581pack": 2403,
    "\u2581multi": 2404,
    "\u2581fully": 2405,
    "\u2581hear": 2406,
    "\u2581tough": 2407,
    "\u2581property": 2408,
    "\u2581Four": 2409,
    "\u2581reaction": 2410,
    "\u2581actress": 2411,
    "of": 2412,
    "\u2581protection": 2413,
    "\u2581telling": 2414,
    "\u2581La": 2415,
    "\u2581screen": 2416,
    "\u2581businesses": 2417,
    "\u2581apartment": 2418,
    "\u2581product": 2419,
    "\u2581consumers": 2420,
    "\u2581mind": 2421,
    "\u2581walk": 2422,
    "\u2581Inc": 2423,
    "creasingly": 2424,
    "\u2581cuts": 2425,
    "\u2581finally": 2426,
    "\u2581save": 2427,
    "\u2581deadly": 2428,
    "ting": 2429,
    "\u2581Republic": 2430,
    "\u2581Academy": 2431,
    "\u2581Church": 2432,
    "\u2581crackdown": 2433,
    "\u2581march": 2434,
    "\u2581Nobel": 2435,
    "\u2581withdrawal": 2436,
    "\u2581taxes": 2437,
    "\u2581films": 2438,
    "\u2581computers": 2439,
    "\u2581author": 2440,
    "ong": 2441,
    "\u2581device": 2442,
    "\u2581sometimes": 2443,
    "\u2581pain": 2444,
    "\u258131": 2445,
    "ine": 2446,
    "\u2581stem": 2447,
    "\u2581replace": 2448,
    "\u2581fast": 2449,
    "\u2581Cuba": 2450,
    "\u2581museum": 2451,
    "\u2581Kennedy": 2452,
    "\u2581Laden": 2453,
    "\u2581rock": 2454,
    "\u2581Show": 2455,
    "\u2581Alaska": 2456,
    "\u2581Government": 2457,
    "\u2581Jose": 2458,
    "\u2581provid": 2459,
    "\u2581accepted": 2460,
    "\u2581route": 2461,
    "\u2581caus": 2462,
    "\u2581adviser": 2463,
    "\u2581cells": 2464,
    "like": 2465,
    "ke": 2466,
    "\u25812009": 2467,
    "der": 2468,
    "\u2581seems": 2469,
    "\u2581block": 2470,
    "\u2581Arabia": 2471,
    "\u2581extra": 2472,
    "called": 2473,
    "\u2581example": 2474,
    "\u2581dialogue": 2475,
    "\u2581science": 2476,
    "related": 2477,
    "\u2581Martin": 2478,
    "\u2581investigators": 2479,
    "\u2581exile": 2480,
    "\u2581banned": 2481,
    "\u2581serving": 2482,
    "ung": 2483,
    "\u2581ensure": 2484,
    "\u2581normal": 2485,
    "\u2581alive": 2486,
    "\u2581imposed": 2487,
    "\u2581pilot": 2488,
    "\u2581approach": 2489,
    "\u2581Speak": 2490,
    "\u2581bomber": 2491,
    "\u2581west": 2492,
    "\u2581Chairman": 2493,
    "\u2581Michigan": 2494,
    "\u2581remote": 2495,
    "\u2581struggling": 2496,
    "\u2581green": 2497,
    "\u2581Republicans": 2498,
    "\u25812000": 2499,
    "\u2581believes": 2500,
    "\u2581trouble": 2501,
    "\u2581continues": 2502,
    "\u2581doubt": 2503,
    "\u2581hot": 2504,
    "\u2581appearance": 2505,
    "\u2581planet": 2506,
    "\u2581unit": 2507,
    "\u2581withdraw": 2508,
    "\u2581El": 2509,
    "mail": 2510,
    "\u2581apparent": 2511,
    "\u2581surprise": 2512,
    "\u2581picked": 2513,
    "\u2581Queen": 2514,
    "\u2581delegation": 2515,
    "ncient": 2516,
    "\u2581Kyi": 2517,
    "\u2581stake": 2518,
    "\u2581Kosovo": 2519,
    "Korean": 2520,
    "\u2581pictures": 2521,
    "\u25811980": 2522,
    "\u2581collapsed": 2523,
    "\u2581table": 2524,
    "\u2581wave": 2525,
    "em": 2526,
    "\u2581GNP": 2527,
    "\u2581announce": 2528,
    "\u2581raid": 2529,
    "\u2581probe": 2530,
    "\u2581systems": 2531,
    "\u2581virus": 2532,
    "\u2581Affairs": 2533,
    "\u2581Massachusetts": 2534,
    "\u2581Sharif": 2535,
    "\u2581Human": 2536,
    "And": 2537,
    "\u2581transition": 2538,
    "\u2581ally": 2539,
    "\u2581ending": 2540,
    "\u2581net": 2541,
    "\u2581completed": 2542,
    "\u2581entering": 2543,
    "\u2581leg": 2544,
    "\u2581prize": 2545,
    "\u2581goals": 2546,
    "ish": 2547,
    "\u2581answer": 2548,
    "\u2581minor": 2549,
    "\u2581Manchester": 2550,
    "\u2581penalty": 2551,
    "\u2581personnel": 2552,
    "\u25811997": 2553,
    "rvez": 2554,
    "\u2581southeast": 2555,
    "\u2581located": 2556,
    "ribal": 2557,
    "minute": 2558,
    "\u2581rush": 2559,
    "\u2581culture": 2560,
    "\u2581Medic": 2561,
    "\u2581scored": 2562,
    "\u2581politicians": 2563,
    "\u2581foreigners": 2564,
    "mp": 2565,
    "ional": 2566,
    "\u2581piece": 2567,
    "ought": 2568,
    "\u2581plot": 2569,
    "\u2581Peninsula": 2570,
    "\u2581Exchange": 2571,
    "\u2581Diana": 2572,
    "\u2581Milan": 2573,
    "\u2581wind": 2574,
    "\u2581pair": 2575,
    "\u2581Arizona": 2576,
    "\u2581orbit": 2577,
    "\u2581grow": 2578,
    "\u2581captured": 2579,
    "\u2581closer": 2580,
    "\u2581ball": 2581,
    "\u2581historic": 2582,
    "\u2581demanded": 2583,
    "di": 2584,
    "\u2581items": 2585,
    "\u2581danger": 2586,
    "J": 2587,
    "\u2581discussions": 2588,
    "go": 2589,
    "\u2581constitution": 2590,
    "ural": 2591,
    "\u2581budget": 2592,
    "\u2581declaration": 2593,
    "\u2581possibly": 2594,
    "\u2581heavily": 2595,
    "\u2581foot": 2596,
    "\u2581Soviet": 2597,
    "\u258142": 2598,
    "\u2581Ho": 2599,
    "\u2581trust": 2600,
    "\u2581stocks": 2601,
    "\u2581projects": 2602,
    "\u2581organizations": 2603,
    "\u2581opinion": 2604,
    "\u2581solution": 2605,
    "\u2581mine": 2606,
    "\u2581exports": 2607,
    "ism": 2608,
    "\u2581phones": 2609,
    "\u2581Nicola": 2610,
    "\u2581Samsung": 2611,
    "\u2581spring": 2612,
    "\u2581exploded": 2613,
    "\u2581sports": 2614,
    "\u2581movies": 2615,
    "\u2581heat": 2616,
    "\u2581formal": 2617,
    "rd": 2618,
    "\u2581mayor": 2619,
    "\u2581concert": 2620,
    "\u2581relative": 2621,
    "\u2581prosecutor": 2622,
    "\u2581journalist": 2623,
    "\u2581tape": 2624,
    "\u2581fly": 2625,
    "\u2581Daniel": 2626,
    "\u2581Premier": 2627,
    "\u2581Palin": 2628,
    "\u2581cited": 2629,
    "\u2581box": 2630,
    "ate": 2631,
    "\u2581Today": 2632,
    "ga": 2633,
    "\u2581holds": 2634,
    "\u2581tournament": 2635,
    "raising": 2636,
    "\u2581river": 2637,
    "\u2581delayed": 2638,
    "\u2581tons": 2639,
    "\u2581council": 2640,
    "\u2581stood": 2641,
    "\u2581trillion": 2642,
    "\u2581uranium": 2643,
    "\u2581involvement": 2644,
    "\u2581Kurdish": 2645,
    "\u2581Saddam": 2646,
    "\u2581Lone": 2647,
    "\u2581Navy": 2648,
    "\u2581count": 2649,
    "\u2581keeping": 2650,
    "\u2581attempts": 2651,
    "\u2581fled": 2652,
    "\u2581restrictions": 2653,
    "\u2581greater": 2654,
    "\u2581meant": 2655,
    "\u2581torch": 2656,
    "\u2581bar": 2657,
    "\u2581highly": 2658,
    "\u2581critics": 2659,
    "\u2581demonstrations": 2660,
    "sa": 2661,
    "ru": 2662,
    "\u2581records": 2663,
    "\u2581arm": 2664,
    "\u2581gun": 2665,
    "\u2581hoped": 2666,
    "\u2581demonstrators": 2667,
    "\u2581estate": 2668,
    "\u2581Province": 2669,
    "\u2581eventually": 2670,
    "ors": 2671,
    "level": 2672,
    "\u2581brief": 2673,
    "\u2581suggests": 2674,
    "\u2581m": 2675,
    "\u2581standing": 2676,
    "\u2581watch": 2677,
    "\u2581weapon": 2678,
    "\u2581watching": 2679,
    "\u2581aide": 2680,
    "\u2581provinc": 2681,
    "\u2581attract": 2682,
    "\u2581YORK": 2683,
    "\u2581housing": 2684,
    "\u2581$5": 2685,
    "\u2581broken": 2686,
    "\u2581teams": 2687,
    "\u2581Real": 2688,
    "\u2581touch": 2689,
    "\u2581content": 2690,
    "\u2581commitment": 2691,
    "\u2581seeing": 2692,
    "nation": 2693,
    "\u2581Constitution": 2694,
    "\u2581Chirac": 2695,
    "\u2581Liverpool": 2696,
    "\u2581embassy": 2697,
    "\u2581strategy": 2698,
    "\u2581relief": 2699,
    "\u2581nationwide": 2700,
    "\u2581Simpson": 2701,
    "\u2581winter": 2702,
    "\u2581sub": 2703,
    "\u2581ethnic": 2704,
    "\u2581cold": 2705,
    "\u2581promote": 2706,
    "po": 2707,
    "\u2581initially": 2708,
    "\u2581guard": 2709,
    "\u2581smaller": 2710,
    "\u2581treated": 2711,
    "\u2581standards": 2712,
    "\u2581Ford": 2713,
    "\u2581negotiator": 2714,
    "\u2581counter": 2715,
    "very": 2716,
    "\u2581supporting": 2717,
    "\u2581suit": 2718,
    "\u2581books": 2719,
    "\u2581Chelsea": 2720,
    "\u2581advantage": 2721,
    "\u2581jury": 2722,
    "\u2581bought": 2723,
    "\u25811990": 2724,
    "\u2581Ukraine": 2725,
    "ley": 2726,
    "\u2581canceled": 2727,
    "\u2581buying": 2728,
    "\u2581God": 2729,
    "\u2581newspapers": 2730,
    "\u2581lawyers": 2731,
    "\u2581cents": 2732,
    "\u2581income": 2733,
    "\u2581warming": 2734,
    "\u2581favor": 2735,
    "\u2581entire": 2736,
    "\u2581boat": 2737,
    "\u2581`": 2738,
    "\u2581transport": 2739,
    "\u2581Dubai": 2740,
    "\u2581junta": 2741,
    "\u2581peninsula": 2742,
    "\u2581festival": 2743,
    "\u2581speculation": 2744,
    "\u2581Stock": 2745,
    "\u2581aboard": 2746,
    "\u2581dogs": 2747,
    "\u2581Senator": 2748,
    "\u2581intended": 2749,
    "\u2581Se": 2750,
    "\u2581Home": 2751,
    "\u2581opposed": 2752,
    "for": 2753,
    "\u25812001": 2754,
    "fire": 2755,
    "ud": 2756,
    "\u2581decline": 2757,
    "\u258110-": 2758,
    "\u2581bear": 2759,
    "hi": 2760,
    "\u2581Santa": 2761,
    "\u2581rape": 2762,
    "\u2581active": 2763,
    "\u2581lawsuit": 2764,
    "\u2581presidency": 2765,
    "\u2581equipment": 2766,
    "\u2581Joong": 2767,
    "\u2581Vegas": 2768,
    "\u2581Musa": 2769,
    "\u2581reasons": 2770,
    "pe": 2771,
    "\u2581crashed": 2772,
    "\u2581indicate": 2773,
    "\u2581en": 2774,
    "tic": 2775,
    "\u2581agent": 2776,
    "\u2581d": 2777,
    "\u2581Parliament": 2778,
    "\u2581path": 2779,
    "\u2581easy": 2780,
    "\u2581facility": 2781,
    "\u2581footage": 2782,
    "\u2581authority": 2783,
    "\u2581visiting": 2784,
    "\u2581Nevada": 2785,
    "\u2581evacuated": 2786,
    "When": 2787,
    "That": 2788,
    "\u25812,000": 2789,
    "\u2581officially": 2790,
    "\u2581explosives": 2791,
    "\u2581travelers": 2792,
    "ab": 2793,
    "\u2581champion": 2794,
    "\u2581zoo": 2795,
    "\u2581finding": 2796,
    "\u2581driver": 2797,
    "\u2581detail": 2798,
    "\u2581status": 2799,
    "\u2581cooperation": 2800,
    "\u2581gay": 2801,
    "\u2581Iowa": 2802,
    "\u2581Economic": 2803,
    "\u2581tensions": 2804,
    "\u2581dismissed": 2805,
    "point": 2806,
    "She": 2807,
    "ng": 2808,
    "\u2581revealed": 2809,
    "\u2581Di": 2810,
    "\u2581toys": 2811,
    "\u2581th": 2812,
    "\u2581reporter": 2813,
    "\u2581resign": 2814,
    "\u2581freedom": 2815,
    "\u2581looks": 2816,
    "\u2581Don": 2817,
    "\u2581featur": 2818,
    "\u2581Fatah": 2819,
    "\u2581Mahmoud": 2820,
    "\u2581Spears": 2821,
    "\u2581offensive": 2822,
    "\u2581unemployment": 2823,
    "\u2581Nadal": 2824,
    "\u2581fellow": 2825,
    "\u2581Also": 2826,
    "\u2581c": 2827,
    "\u2581choose": 2828,
    "\u2581Thaksin": 2829,
    "\u2581language": 2830,
    "\u2581jailed": 2831,
    "\u2581condemned": 2832,
    "\u2581assistance": 2833,
    "\u2581Bo": 2834,
    "wa": 2835,
    "\u2581seriously": 2836,
    "My": 2837,
    "tor": 2838,
    "\u2581Na": 2839,
    "\u2581Min": 2840,
    "\u2581represent": 2841,
    "\u2581wait": 2842,
    "\u2581faced": 2843,
    "\u2581lawmaker": 2844,
    "\u2581seed": 2845,
    "\u2581g": 2846,
    "\u2581auction": 2847,
    "\u2581Diego": 2848,
    "\u2581Kabul": 2849,
    "\u2581invasion": 2850,
    "\u2581Governor": 2851,
    "\u2581relay": 2852,
    "\u2581else": 2853,
    "\u2581Kang": 2854,
    "\u2581crucial": 2855,
    "\u258151": 2856,
    "\u2581downtown": 2857,
    "\u2581wild": 2858,
    "\u2581150": 2859,
    "\u258175": 2860,
    "\u2581Mike": 2861,
    "\u2581governing": 2862,
    "\u2581Sun": 2863,
    "\u2581From": 2864,
    "\u2581offices": 2865,
    "\u2581angry": 2866,
    "\u2581Bar": 2867,
    "\u2581sixth": 2868,
    "\u2581fish": 2869,
    "\u2581ships": 2870,
    "\u2581walked": 2871,
    "\u2581freed": 2872,
    "\u2581selling": 2873,
    "ant": 2874,
    "\u2581heading": 2875,
    "\u2581sport": 2876,
    "\u2581sun": 2877,
    "\u2581haven": 2878,
    "\u2581Me": 2879,
    "\u2581Ocean": 2880,
    "\u2581Scorsese": 2881,
    "\u2581casualties": 2882,
    "\u2581atmosphere": 2883,
    "\u2581wake": 2884,
    "\u2581sky": 2885,
    "\u2581perhaps": 2886,
    "\u2581clashes": 2887,
    "\u2581Johnson": 2888,
    "\u2581executives": 2889,
    "ious": 2890,
    "ang": 2891,
    "\u2581quality": 2892,
    "Ang": 2893,
    "\u2581completely": 2894,
    "\u2581learned": 2895,
    "\u2581hop": 2896,
    "\u2581watched": 2897,
    "\u2581landing": 2898,
    "\u2581favorite": 2899,
    "\u2581specific": 2900,
    "\u2581Venezuela": 2901,
    "ot": 2902,
    "\u2581Dutch": 2903,
    "\u2581anonymity": 2904,
    "\u2581simply": 2905,
    "\u2581compound": 2906,
    "\u2581abroad": 2907,
    "\u2581via": 2908,
    "\u2581Karzai": 2909,
    "\u2581catch": 2910,
    "\u2581benefits": 2911,
    "\u2581400": 2912,
    "\u2581introduced": 2913,
    "\u2581drama": 2914,
    "\u25811998": 2915,
    "Our": 2916,
    "che": 2917,
    "\u2581forest": 2918,
    "\u2581testing": 2919,
    "\u2581stress": 2920,
    "\u2581boycott": 2921,
    "\u2581extended": 2922,
    "\u2581roads": 2923,
    "\u2581assets": 2924,
    "\u2581heads": 2925,
    "\u2581weekly": 2926,
    "\u2581ideas": 2927,
    "housands": 2928,
    "undreds": 2929,
    "\u2581calm": 2930,
    "\u2581respond": 2931,
    "\u2581walking": 2932,
    "\u2581differences": 2933,
    "\u2581subject": 2934,
    "\u2581sharp": 2935,
    "\u2581sister": 2936,
    "\u2581tested": 2937,
    "\u2581threats": 2938,
    "\u2581buried": 2939,
    "\u2581cleric": 2940,
    "\u2581knee": 2941,
    "\u2581humanitarian": 2942,
    "\u2581CIA": 2943,
    "\u2581Deput": 2944,
    "\u2581mention": 2945,
    "\u2581cutting": 2946,
    "\u2581witnesses": 2947,
    "\u2581lowest": 2948,
    "\u2581NBC": 2949,
    "\u2581tear": 2950,
    "\u2581Northern": 2951,
    "\u2581creat": 2952,
    "va": 2953,
    "\u2581birds": 2954,
    "\u2581link": 2955,
    "\u2581gains": 2956,
    "\u2581pushing": 2957,
    "\u258137": 2958,
    "\u2581physical": 2959,
    "\u2581purchase": 2960,
    "\u2581Election": 2961,
    "\u2581rich": 2962,
    "\u2581perfect": 2963,
    "\u2581sound": 2964,
    "\u2581Thomas": 2965,
    "\u2581detention": 2966,
    "\u2581stadium": 2967,
    "\u2581studies": 2968,
    "\u2581hospitalized": 2969,
    "\u2581assassination": 2970,
    "\u2581command": 2971,
    "\u2581label": 2972,
    "\u2581Champions": 2973,
    "\u2581Mayor": 2974,
    "\u2581fashion": 2975,
    "\u2581Colombian": 2976,
    "\u2581ill": 2977,
    "\u2581unveiled": 2978,
    "ists": 2979,
    "\u2581halt": 2980,
    "\u2581edge": 2981,
    "\u2581describe": 2982,
    "\u2581upon": 2983,
    "\u2581successful": 2984,
    "\u2581benefit": 2985,
    "mer": 2986,
    "\u2581grand": 2987,
    "\u2581Jerusalem": 2988,
    "\u2581conspiracy": 2989,
    "\u2581exit": 2990,
    "\u2581inches": 2991,
    "\u2581Black": 2992,
    "\u2581Green": 2993,
    "\u2581begun": 2994,
    "\u2581carbon": 2995,
    "\u2581burned": 2996,
    "ey": 2997,
    "\u2581relatives": 2998,
    "\u2581fewer": 2999,
    "\u2581humans": 3000,
    "\u2581worse": 3001,
    "\u2581Forces": 3002,
    "\u2581flying": 3003,
    "30": 3004,
    "\u2581Catholic": 3005,
    "ca": 3006,
    "\u258152": 3007,
    "\u2581Vietnam": 3008,
    "\u2581goods": 3009,
    "\u2581apology": 3010,
    "\u2581Potter": 3011,
    "\u2581CBS": 3012,
    "\u2581recovery": 3013,
    "ut": 3014,
    "Sadr": 3015,
    "\u2581Dan": 3016,
    "\u2581climb": 3017,
    "\u2581narrow": 3018,
    "\u2581landed": 3019,
    "ham": 3020,
    "uch": 3021,
    "\u2581eyes": 3022,
    "\u2581marked": 3023,
    "\u2581Rio": 3024,
    "\u2581agree": 3025,
    "\u2581effects": 3026,
    "\u2581regular": 3027,
    "\u2581debt": 3028,
    "\u2581split": 3029,
    "\u2581destruction": 3030,
    "\u2581widespread": 3031,
    "\u2581basis": 3032,
    "\u2581assistant": 3033,
    "\u2581Coast": 3034,
    "\u2581tourism": 3035,
    "\u2581overnight": 3036,
    "\u2581girlfriend": 3037,
    "\u2581repeated": 3038,
    "\u2581Chrysler": 3039,
    "\u2581engag": 3040,
    "\u2581tens": 3041,
    "\u2581acknowledged": 3042,
    "\u25813,000": 3043,
    "\u2581rooms": 3044,
    "\u2581beach": 3045,
    "ory": 3046,
    "ver": 3047,
    "\u2581equal": 3048,
    "\u2581direction": 3049,
    "\u2581formed": 3050,
    "\u2581$4": 3051,
    "\u2581Of": 3052,
    "\u2581tight": 3053,
    "ance": 3054,
    "\u2581lay": 3055,
    "\u2581Fed": 3056,
    "ated": 3057,
    "\u2581gets": 3058,
    "\u2581simple": 3059,
    "\u2581babies": 3060,
    "\u2581insurance": 3061,
    "\u2581Airlines": 3062,
    "\u2581Reserve": 3063,
    "\u2581sort": 3064,
    "\u2581Hilton": 3065,
    "\u2581agenda": 3066,
    "\u2581unusual": 3067,
    "\u2581unclear": 3068,
    "\u2581Ronaldo": 3069,
    "\u2581Daily": 3070,
    "\u2581corner": 3071,
    "\u2581continuing": 3072,
    "\u2581stations": 3073,
    "\u258110,000": 3074,
    "\u2581affiliate": 3075,
    "\u2581certainly": 3076,
    "\u2581ride": 3077,
    "\u2581insisted": 3078,
    "moon": 3079,
    "putting": 3080,
    "\u2581limited": 3081,
    "\u2581prepar": 3082,
    "At": 3083,
    "\u2581judges": 3084,
    "\u2581contest": 3085,
    "\u2581character": 3086,
    "\u2581rivals": 3087,
    "ating": 3088,
    "\u2581attended": 3089,
    "\u2581Col": 3090,
    "\u2581Iraqis": 3091,
    "\u2581refugees": 3092,
    "vi": 3093,
    "\u2581Guard": 3094,
    "\u2581suburb": 3095,
    "\u2581Nepal": 3096,
    "\u2581Attorney": 3097,
    "\u2581Canadian": 3098,
    "\u2581closing": 3099,
    "\u2581Prize": 3100,
    "\u2581Great": 3101,
    "\u2581associate": 3102,
    "\u2581plants": 3103,
    "\u2581Brazilian": 3104,
    "\u2581invited": 3105,
    "\u2581passenger": 3106,
    "\u2581models": 3107,
    "\u2581organized": 3108,
    "\u2581killings": 3109,
    "ize": 3110,
    "\u2581Muslims": 3111,
    "\u2581loans": 3112,
    "\u2581ring": 3113,
    "\u2581owned": 3114,
    "ran": 3115,
    "\u2581extend": 3116,
    "\u258148": 3117,
    "\u2581Then": 3118,
    "\u2581affairs": 3119,
    "\u2581farmers": 3120,
    "\u2581Watch": 3121,
    "au": 3122,
    "\u2581Bu": 3123,
    "\u2581strikes": 3124,
    "\u2581die": 3125,
    "\u2581quick": 3126,
    "bout": 3127,
    "\u2581virtual": 3128,
    "\u2581coup": 3129,
    "\u2581investigate": 3130,
    "over": 3131,
    "\u2581Yang": 3132,
    "\u2581Food": 3133,
    "\u2581Peace": 3134,
    "\u2581Qala": 3135,
    "\u2581rank": 3136,
    "\u2581writing": 3137,
    "\u2581Five": 3138,
    "\u2581vessel": 3139,
    "\u2581throw": 3140,
    "\u2581tourist": 3141,
    "\u2581chances": 3142,
    "\u2581document": 3143,
    "\u2581monks": 3144,
    "\u2581focused": 3145,
    "\u2581deployed": 3146,
    "\u2581percentage": 3147,
    "\u2581$10": 3148,
    "\u25812003.": 3149,
    "\u2581earned": 3150,
    "\u2581Sean": 3151,
    "\u2581triggered": 3152,
    "house": 3153,
    "made": 3154,
    "\u2581witness": 3155,
    "if": 3156,
    "\u258138": 3157,
    "state": 3158,
    "\u2581maker": 3159,
    "\u2581dis": 3160,
    "\u2581offering": 3161,
    "ev": 3162,
    "\u2581practice": 3163,
    "\u2581Malaysia": 3164,
    "\u2581tank": 3165,
    ".6": 3166,
    "\u2581ease": 3167,
    "\u2581Colorado": 3168,
    "\u2581controversy": 3169,
    "\u2581Fayed": 3170,
    "\u2581bilateral": 3171,
    "\u2581Boston": 3172,
    "\u258143": 3173,
    "\u2581electricity": 3174,
    "\u2581renew": 3175,
    "\u2581herself": 3176,
    "\u2581grave": 3177,
    "\u2581Public": 3178,
    "\u2581reality": 3179,
    "\u2581arrival": 3180,
    "\u2581slightly": 3181,
    "\u2581finance": 3182,
    "\u2581expert": 3183,
    "GNP": 3184,
    "ring": 3185,
    "ure": 3186,
    "\u2581warm": 3187,
    "\u2581drinking": 3188,
    "\u2581threatening": 3189,
    "\u258155": 3190,
    "\u2581scale": 3191,
    "\u2581allows": 3192,
    "\u2581returning": 3193,
    "\u2581surface": 3194,
    "\u2581basic": 3195,
    "urricane": 3196,
    "\u2581ABC": 3197,
    "\u2581negative": 3198,
    "\u2581Year": 3199,
    "\u2581Film": 3200,
    "\u2581proud": 3201,
    "\u2581Fire": 3202,
    "\u2581Mohammed": 3203,
    "\u2581pump": 3204,
    "\u2581visa": 3205,
    "\u2581dream": 3206,
    "\u2581exercise": 3207,
    "\u2581location": 3208,
    "\u2581interests": 3209,
    "\u2581treaty": 3210,
    "\u2581concluded": 3211,
    "\u2581patient": 3212,
    "\u2581professional": 3213,
    "\u2581electronic": 3214,
    "\u2581trapped": 3215,
    "\u2581targeting": 3216,
    "\u2581Roman": 3217,
    "\u2581era": 3218,
    "ex": 3219,
    "To": 3220,
    "ner": 3221,
    "\u2581Not": 3222,
    "\u2581strongly": 3223,
    "\u2581questioning": 3224,
    "cal": 3225,
    "ler": 3226,
    "\u2581tonight": 3227,
    "\u2581Big": 3228,
    "\u2581dark": 3229,
    "\u2581Wen": 3230,
    "\u2581learn": 3231,
    "io": 3232,
    "\u2581royal": 3233,
    "\u2581Argentina": 3234,
    "\u2581Blagojevich": 3235,
    "\u2581HIV": 3236,
    "\u2581Sarah": 3237,
    "\u2581gap": 3238,
    "\u2581Maryland": 3239,
    "\u2581Yongbyon": 3240,
    "\u2581solar": 3241,
    "\u2581innocent": 3242,
    "\u2581Sony": 3243,
    "\u2581gang": 3244,
    "\u2581Life": 3245,
    "\u2581task": 3246,
    "\u2581photo": 3247,
    "\u2581matches": 3248,
    "\u2581sector": 3249,
    "\u2581smoking": 3250,
    ":30": 3251,
    "\u2581ticket": 3252,
    "\u2581Gold": 3253,
    "\u2581managed": 3254,
    "\u2581Lama": 3255,
    "tra": 3256,
    "\u2581diplomats": 3257,
    "\u2581Ed": 3258,
    "\u2581regulations": 3259,
    "\u2581reaching": 3260,
    "\u2581Mar": 3261,
    "\u2581clean": 3262,
    "\u2581wear": 3263,
    "\u2581healthy": 3264,
    "\u2581follows": 3265,
    "\u2581celebrate": 3266,
    "\u2581challenges": 3267,
    "\u2581supported": 3268,
    "\u2581strength": 3269,
    "\u2581Hezbollah": 3270,
    "\u2581legislation": 3271,
    "\u2581Macau": 3272,
    "\u2581frozen": 3273,
    "\u2581flag": 3274,
    "\u2581Post": 3275,
    "\u2581lights": 3276,
    "\u2581sit": 3277,
    "\u2581difference": 3278,
    "\u2581Islam": 3279,
    "\u2581musical": 3280,
    "\u2581Dala": 3281,
    "\u2581discussed": 3282,
    "\u2581constitutional": 3283,
    "\u2581warnings": 3284,
    "\u2581destroy": 3285,
    "\u2581accus": 3286,
    "os": 3287,
    "\u2581$3": 3288,
    "azir": 3289,
    "\u2581recall": 3290,
    "\u2581lifted": 3291,
    "\u2581fate": 3292,
    "25": 3293,
    "\u2581presented": 3294,
    "\u2581runs": 3295,
    "\u2581remove": 3296,
    "za": 3297,
    "\u2581drove": 3298,
    "\u2581funeral": 3299,
    "\u2581firing": 3300,
    "\u2581Berlin": 3301,
    "\u2581standoff": 3302,
    "\u2581Hall": 3303,
    "\u2581democratic": 3304,
    "\u2581tied": 3305,
    "\u2581escaped": 3306,
    "\u2581100,000": 3307,
    "min": 3308,
    "\u2581feeling": 3309,
    "\u2581thank": 3310,
    "\u2581refugee": 3311,
    "\u2581Joe": 3312,
    "\u2581Mary": 3313,
    "ari": 3314,
    "ny": 3315,
    "\u2581Edwards": 3316,
    "\u2581Car": 3317,
    "\u2581skin": 3318,
    "\u2581targets": 3319,
    "\u2581Atlanta": 3320,
    "\u2581Darfur": 3321,
    "\u2581palace": 3322,
    "\u2581tomorrow": 3323,
    "\u2581Federer": 3324,
    "hud": 3325,
    "\u2581retired": 3326,
    "\u2581wedding": 3327,
    "\u2581Khan": 3328,
    "\u2581hole": 3329,
    "\u258132": 3330,
    "ci": 3331,
    "\u2581highlight": 3332,
    "\u2581driven": 3333,
    "\u2581surge": 3334,
    "\u2581internal": 3335,
    "\u2581ability": 3336,
    "\u2581older": 3337,
    "\u2581boats": 3338,
    "mi": 3339,
    "\u258136": 3340,
    "\u2581inspectors": 3341,
    "\u2581km": 3342,
    "\u2581stores": 3343,
    "\u2581falling": 3344,
    "\u2581beating": 3345,
    "\u2581resigned": 3346,
    "har": 3347,
    "\u2581couldn": 3348,
    "\u2581Con": 3349,
    "head": 3350,
    "\u2581clearly": 3351,
    "\u2581\u201d\u201d": 3352,
    "\u2581map": 3353,
    "\u2581neighbors": 3354,
    "\u2581schedule": 3355,
    "\u2581materials": 3356,
    "\u2581journey": 3357,
    "\u2581digital": 3358,
    "\u2581memory": 3359,
    "\u2581grew": 3360,
    "\u2581gunmen": 3361,
    "\u2581northeast": 3362,
    "\u2581Barcelona": 3363,
    "\u2581Abdullah": 3364,
    "\u2581meaning": 3365,
    "\u2581fallen": 3366,
    "\u2581enemy": 3367,
    "\u2581pursu": 3368,
    "\u2581advance": 3369,
    "\u2581Indonesian": 3370,
    "\u2581failing": 3371,
    "ac": 3372,
    "\u2581delivery": 3373,
    "\u2581recovered": 3374,
    "\u2581euro": 3375,
    "op": 3376,
    "\u2581founder": 3377,
    "\u2581responded": 3378,
    "As": 3379,
    "ko": 3380,
    "\u2581V": 3381,
    "so": 3382,
    "\u2581Mu": 3383,
    "\u2581cat": 3384,
    "\u2581permanent": 3385,
    "\u2581fair": 3386,
    "\u2581Lu": 3387,
    "\u2581survive": 3388,
    "\u2581Bangkok": 3389,
    "\u2581YouTube": 3390,
    "\u2581captain": 3391,
    "\u2581greet": 3392,
    "\u2581margin": 3393,
    "\u2581Jesus": 3394,
    "\u2581Hwang": 3395,
    "\u2581Still": 3396,
    "\u2581bottom": 3397,
    "\u2581du": 3398,
    "\u2581First": 3399,
    "\u2581medicine": 3400,
    "\u2581predicted": 3401,
    "\u2581drivers": 3402,
    "\u2581restaurant": 3403,
    "\u2581outbreak": 3404,
    "\u2581tree": 3405,
    "\u2581reflect": 3406,
    "\u2581wall": 3407,
    "\u2581findings": 3408,
    "style": 3409,
    "\u2581reporting": 3410,
    "\u2581appointed": 3411,
    "Watch": 3412,
    "\u2581offers": 3413,
    "\u2581nor": 3414,
    ".3": 3415,
    "\u2581option": 3416,
    "\u2581features": 3417,
    "\u2581Jan": 3418,
    "pa": 3419,
    "\u2581limit": 3420,
    "\u2581Ask": 3421,
    "\u2581Authority": 3422,
    "\u2581Square": 3423,
    "\u2581Sydney": 3424,
    "\u2581Reagan": 3425,
    "\u2581shopping": 3426,
    "\u2581vast": 3427,
    "\u2581Gulf": 3428,
    "ig": 3429,
    "\u258144": 3430,
    "\u2581chosen": 3431,
    "\u2581alternative": 3432,
    "\u2581farm": 3433,
    "\u2581emissions": 3434,
    "\u2581Super": 3435,
    "\u2581provinces": 3436,
    "everal": 3437,
    "\u2581Six": 3438,
    "\u2581gathering": 3439,
    "\u2581resources": 3440,
    "third": 3441,
    "ju": 3442,
    "\u2581Zealand": 3443,
    "\u2581shared": 3444,
    "\u2581Do": 3445,
    "ai": 3446,
    "\u2581individuals": 3447,
    "\u2581export": 3448,
    "bu": 3449,
    "\u2581hospitals": 3450,
    "\u2581technical": 3451,
    "ov": 3452,
    "\u2581arrive": 3453,
    "\u2581convention": 3454,
    "hu": 3455,
    "\u2581Rights": 3456,
    "\u2581closely": 3457,
    "\u2581text": 3458,
    "\u2581Yonhap": 3459,
    "\u2581radical": 3460,
    "\u2581stability": 3461,
    "\u2581changing": 3462,
    "\u2581leads": 3463,
    "\u2581collection": 3464,
    "\u2581Though": 3465,
    "jung": 3466,
    "\u2581Scientists": 3467,
    "\u2581pregnant": 3468,
    "\u2581Near": 3469,
    "\u2581aides": 3470,
    "\u2581Mars": 3471,
    "\u2581rockets": 3472,
    "\u2581larger": 3473,
    "\u2581write": 3474,
    "\u2581militia": 3475,
    "\u2581resident": 3476,
    "\u25813-": 3477,
    "dy": 3478,
    "\u2581van": 3479,
    "\u2581controlled": 3480,
    "\u2581spy": 3481,
    "\u2581Just": 3482,
    "\u2581teachers": 3483,
    "\u2581recorded": 3484,
    "\u2581treat": 3485,
    "\u2581options": 3486,
    "\u2581fit": 3487,
    "con": 3488,
    "\u2581Scotland": 3489,
    "\u2581Development": 3490,
    "\u2581Foundation": 3491,
    "\u2581observers": 3492,
    "\u2581Major": 3493,
    "\u2581tiny": 3494,
    "\u2581Law": 3495,
    "\u2581attitude": 3496,
    "\u2581surrounded": 3497,
    "\u2581Venezuelan": 3498,
    "\u2581Inter": 3499,
    "ard": 3500,
    "\u2581requested": 3501,
    "\u2581repeatedly": 3502,
    "\u2581design": 3503,
    "\u2581pledge": 3504,
    "\u2581magnitude": 3505,
    "\u2581striker": 3506,
    "\u2581commit": 3507,
    "\u2581survived": 3508,
    "\u2581suspicion": 3509,
    "\u2581individual": 3510,
    "\u2581illegally": 3511,
    "\u2581Rock": 3512,
    "\u2581signal": 3513,
    "wept": 3514,
    "\u2581planes": 3515,
    "\u2581Van": 3516,
    "\u2581awards": 3517,
    "\u2581import": 3518,
    "ice": 3519,
    "\u258134": 3520,
    "\u25812008.": 3521,
    "\u2581wealth": 3522,
    "\u2581couples": 3523,
    "\u2581Mr": 3524,
    "\u2581trail": 3525,
    "\u2581Jersey": 3526,
    "\u2581Vladimir": 3527,
    "\u2581convoy": 3528,
    "\u2581Delta": 3529,
    "\u2581Director": 3530,
    "\u2581Instead": 3531,
    "\u2581pace": 3532,
    "\u2581gunman": 3533,
    "\u2581acting": 3534,
    "\u2581maybe": 3535,
    "\u2581fill": 3536,
    "\u2581cultural": 3537,
    "\u2581campus": 3538,
    "\u2581staying": 3539,
    "\u2581Dong": 3540,
    "\u2581inflation": 3541,
    "\u2581reduction": 3542,
    "largest": 3543,
    "\u2581brand": 3544,
    "\u2581highway": 3545,
    "\u2581waste": 3546,
    "zo": 3547,
    "\u2581producer": 3548,
    "\u2581flooding": 3549,
    "\u2581adults": 3550,
    "\u2581identify": 3551,
    "\u2581accord": 3552,
    "den": 3553,
    "\u2581remember": 3554,
    "\u2581papers": 3555,
    "\u2581banking": 3556,
    "\u2581Abdul": 3557,
    "\u2581Intelligence": 3558,
    "\u2581Investigator": 3559,
    "\u2581disarmament": 3560,
    "\u25811970": 3561,
    "\u2581birthday": 3562,
    "\u2581Young": 3563,
    "\u2581pretty": 3564,
    "\u2581successor": 3565,
    "\u2581erupted": 3566,
    "\u2581length": 3567,
    "\u2581$8": 3568,
    "\u2581funding": 3569,
    "\u2581performed": 3570,
    "\u2581stronger": 3571,
    "\u2581younger": 3572,
    "\u2581channel": 3573,
    "\u2581demonstration": 3574,
    "\u2581organizers": 3575,
    "democracy": 3576,
    "General": 3577,
    "ell": 3578,
    "\u2581nav": 3579,
    "\u2581knows": 3580,
    "\u2581Lo": 3581,
    "pi": 3582,
    "\u2581note": 3583,
    "\u2581suspend": 3584,
    "\u2581powers": 3585,
    "bo": 3586,
    "\u2581anger": 3587,
    "\u2581slow": 3588,
    "\u2581congress": 3589,
    "\u2581tsunami": 3590,
    "\u2581Hotel": 3591,
    "\u2581bigger": 3592,
    "\u2581Stone": 3593,
    "\u2581stepped": 3594,
    "\u2581Dick": 3595,
    "\u2581noted": 3596,
    "\u2581mph": 3597,
    "\u2581lock": 3598,
    "\u2581shock": 3599,
    "\u258146": 3600,
    "\u2581squad": 3601,
    "\u2581metal": 3602,
    "air": 3603,
    "\u2581adopted": 3604,
    "\u2581promot": 3605,
    "\u2581guy": 3606,
    "pound": 3607,
    "\u2581runway": 3608,
    "\u2581stretch": 3609,
    "People": 3610,
    "winning": 3611,
    "election": 3612,
    "\u2581$100": 3613,
    "\u2581pose": 3614,
    "\u2581generation": 3615,
    "\u2581survivors": 3616,
    "\u2581patrol": 3617,
    "ning": 3618,
    "\u2581participate": 3619,
    "\u2581Madeleine": 3620,
    "\u2581Manhattan": 3621,
    "\u2581supposed": 3622,
    "\u2581BAGHDAD": 3623,
    "\u2581verdict": 3624,
    "\u2581entertainment": 3625,
    "\u2581Patrick": 3626,
    "\u2581stories": 3627,
    "\u2581appointment": 3628,
    "\u2581Financial": 3629,
    "\u2581comedy": 3630,
    "\u258162": 3631,
    "\u2581Before": 3632,
    "\u2581divided": 3633,
    "\u2581views": 3634,
    "\u2581Speaker": 3635,
    "\u2581Representatives": 3636,
    "\u2581communications": 3637,
    "\u2581How": 3638,
    "\u2581artist": 3639,
    "\u2581profit": 3640,
    "\u2581shoot": 3641,
    "\u25812005.": 3642,
    "\u2581filled": 3643,
    "\u2581colleagues": 3644,
    "\u2581style": 3645,
    "\u2581super": 3646,
    "\u2581militias": 3647,
    "\u2581assembly": 3648,
    "\u2581temperatures": 3649,
    "\u201d\u201d": 3650,
    "\u2581opponents": 3651,
    "\u2581Alexander": 3652,
    "\u2581Elizabeth": 3653,
    "\u2581Osama": 3654,
    "\u2581plastic": 3655,
    "\u2581genetic": 3656,
    "\u2581preliminar": 3657,
    "\u2581intention": 3658,
    "\u2581outcome": 3659,
    "\u2581Atlantic": 3660,
    "\u2581capable": 3661,
    "\u2581expand": 3662,
    "\u2581Oil": 3663,
    "\u2581sharply": 3664,
    "red": 3665,
    "\u2581fan": 3666,
    "\u25812.5": 3667,
    "\u2581aren": 3668,
    "\u2581Ro": 3669,
    "\u2581strip": 3670,
    "\u2581wins": 3671,
    "\u2581guards": 3672,
    "\u2581forum": 3673,
    "\u2581Pa": 3674,
    "\u2581counterpart": 3675,
    "\u2581bound": 3676,
    "drew": 3677,
    "ow": 3678,
    "\u2581hundred": 3679,
    "ick": 3680,
    "fa": 3681,
    "\u2581astronauts": 3682,
    "\u2581enjoy": 3683,
    "\u2581Chris": 3684,
    "\u2581messages": 3685,
    "00": 3686,
    "\u2581accounts": 3687,
    "\u2581Hawaii": 3688,
    "\u2581Vatican": 3689,
    "\u2581apply": 3690,
    "\u2581coffee": 3691,
    "\u2581soccer": 3692,
    "\u2581worried": 3693,
    "\u2581intense": 3694,
    "\u2581disappointed": 3695,
    "\u2581Kevin": 3696,
    "\u2581understanding": 3697,
    "\u2581Islamist": 3698,
    "\u2581discovery": 3699,
    "\u2581appropriate": 3700,
    "\u2581Song": 3701,
    "\u2581drawn": 3702,
    "\u2581troubled": 3703,
    "\u2581Because": 3704,
    "\u2581Easter": 3705,
    "\u2581threaten": 3706,
    "\u2581express": 3707,
    "\u2581license": 3708,
    "\u2581expectations": 3709,
    "\u2581Ear": 3710,
    "sex": 3711,
    "all": 3712,
    "\u2581replaced": 3713,
    "our": 3714,
    "\u2581fun": 3715,
    "\u2581mortgage": 3716,
    "\u2581Steven": 3717,
    "\u25812007,": 3718,
    "\u2581Science": 3719,
    "\u2581automaker": 3720,
    "\u2581teacher": 3721,
    "\u2581discussion": 3722,
    "\u2581astronaut": 3723,
    "\u2581orders": 3724,
    "\u2581color": 3725,
    "member": 3726,
    ".5": 3727,
    "\u2581abandon": 3728,
    "\u2581blocked": 3729,
    "\u2581Jo": 3730,
    "\u2581sp": 3731,
    "\u2581directing": 3732,
    "\u2581airports": 3733,
    "ical": 3734,
    "\u2581Po": 3735,
    "\u2581Men": 3736,
    "ana": 3737,
    "\u2581Stephen": 3738,
    "\u2581bail": 3739,
    "lin": 3740,
    "\u2581capacity": 3741,
    "\u2581trend": 3742,
    "\u2581switch": 3743,
    "\u2581Boeing": 3744,
    "\u2581standard": 3745,
    "\u2581tend": 3746,
    "\u2581Egyptian": 3747,
    "\u2581accuse": 3748,
    "\u2581punishment": 3749,
    "\u2581enforcement": 3750,
    "\u2581Senna": 3751,
    "\u2581firms": 3752,
    "\u2581depend": 3753,
    "\u2581upper": 3754,
    "\u258120,000": 3755,
    "\u2581begins": 3756,
    "law": 3757,
    "\u2581reading": 3758,
    "\u258165": 3759,
    "\u2581Arm": 3760,
    "\u2581bloody": 3761,
    "\u2581registered": 3762,
    "\u2581Lt": 3763,
    "\u2581counts": 3764,
    "\u2581cleared": 3765,
    "70": 3766,
    "free": 3767,
    "\u2581scientist": 3768,
    "For": 3769,
    "8,000": 3770,
    "\u2581positions": 3771,
    "\u2581diet": 3772,
    "\u2581pop": 3773,
    "ger": 3774,
    "\u2581ski": 3775,
    "\u2581divorce": 3776,
    "\u2581flames": 3777,
    "\u2581Sam": 3778,
    "\u2581helicopters": 3779,
    "\u2581article": 3780,
    "\u2581Ra": 3781,
    "\u2581Philippines": 3782,
    "\u2581editor": 3783,
    "\u2581motor": 3784,
    "\u2581cease": 3785,
    "\u2581Hampshire": 3786,
    "\u2581Phoenix": 3787,
    "\u2581guild": 3788,
    "\u2581televised": 3789,
    "\u2581typical": 3790,
    "\u2581queen": 3791,
    "\u2581routine": 3792,
    "\u2581expensive": 3793,
    "\u2581Judge": 3794,
    "\u2581Buddhist": 3795,
    "\u2581wing": 3796,
    "\u2581deny": 3797,
    "\u2581Journal": 3798,
    "\u2581faster": 3799,
    "\u2581none": 3800,
    "\u2581infected": 3801,
    "\u2581Good": 3802,
    "chi": 3803,
    "\u2581briefly": 3804,
    "\u2581Rep": 3805,
    "\u2581nominated": 3806,
    "\u258161": 3807,
    "\u2581restore": 3808,
    "\u2581loved": 3809,
    "ven": 3810,
    "\u2581800": 3811,
    "\u2581publicly": 3812,
    "\u2581error": 3813,
    "\u2581paying": 3814,
    "\u2581seconds": 3815,
    "\u25812007.": 3816,
    "\u2581reforms": 3817,
    "ions": 3818,
    "\u2581restaurants": 3819,
    "\u2581Ya": 3820,
    "\u2581directed": 3821,
    "\u2581Serbia": 3822,
    "\u2581Tim": 3823,
    "\u2581Mohammad": 3824,
    "\u2581Pelosi": 3825,
    "\u2581Petraeus": 3826,
    "\u2581Shanghai": 3827,
    "\u2581easier": 3828,
    "\u2581shrine": 3829,
    "\u2581watchdog": 3830,
    "\u2581GOP": 3831,
    "\u2581Miami": 3832,
    "\u2581Board": 3833,
    "\u25811995": 3834,
    "\u2581charity": 3835,
    "\u2581Kerry": 3836,
    "\u2581transportation": 3837,
    "\u2581unlikely": 3838,
    "\u2581beaten": 3839,
    "\u2581sensitive": 3840,
    "\u2581circumstances": 3841,
    "\u2581tall": 3842,
    "\u2581beef": 3843,
    "\u2581argued": 3844,
    "\u2581obtained": 3845,
    "\u25811994": 3846,
    "\u2581Rome": 3847,
    "\u2581nominations": 3848,
    "\u2581aware": 3849,
    "young": 3850,
    "\u25811,": 3851,
    "\u2581GMT": 3852,
    "\u2581warrant": 3853,
    "\u2581window": 3854,
    "\u2581violation": 3855,
    "mile": 3856,
    "\u2581stressed": 3857,
    "ris": 3858,
    "\u2581villages": 3859,
    "\u2581succeed": 3860,
    "que": 3861,
    "\u258133": 3862,
    "\u2581payments": 3863,
    "\u2581Ja": 3864,
    "\u258147": 3865,
    "\u2581truth": 3866,
    "\u2581Services": 3867,
    "\u2581trees": 3868,
    "\u2581wouldn": 3869,
    "ina": 3870,
    "\u2581regions": 3871,
    "\u2581newly": 3872,
    "\u2581stone": 3873,
    "\u2581sight": 3874,
    "\u2581contests": 3875,
    "\u2581journal": 3876,
    "\u2581Ahmadinejad": 3877,
    "\u2581Control": 3878,
    "\u2581Finance": 3879,
    "\u2581Islamabad": 3880,
    "\u2581Portugal": 3881,
    "\u2581depression": 3882,
    "\u2581nature": 3883,
    "\u2581communities": 3884,
    "\u2581immigration": 3885,
    "electoral": 3886,
    "\u2581departure": 3887,
    "\u2581breakthrough": 3888,
    "\u2581lady": 3889,
    "\u2581emerged": 3890,
    "\u2581Fox": 3891,
    "\u2581trains": 3892,
    "\u2581Chile": 3893,
    "\u2581Congo": 3894,
    "\u2581causes": 3895,
    "Once": 3896,
    "\u2581boys": 3897,
    "\u2581talked": 3898,
    "\u2581division": 3899,
    "\u2581clinic": 3900,
    "\u2581McCann": 3901,
    "\u2581prospect": 3902,
    "\u2581$6": 3903,
    "\u2581string": 3904,
    "\u2581implement": 3905,
    "\u2581owners": 3906,
    "\u2581briefing": 3907,
    "\u2581fires": 3908,
    "war": 3909,
    "\u2581urge": 3910,
    "\u2581Ne": 3911,
    "\u2581escape": 3912,
    "ki": 3913,
    "han": 3914,
    "bbed": 3915,
    "\u2581Researcher": 3916,
    "\u2581knock": 3917,
    "ade": 3918,
    "\u2581Almeida": 3919,
    "\u2581UEFA": 3920,
    "\u2581rallies": 3921,
    "\u2581receiving": 3922,
    "\u2581IOC": 3923,
    "\u2581harsh": 3924,
    "\u2581Hicks": 3925,
    "\u2581gasoline": 3926,
    "\u2581Basra": 3927,
    "\u2581sovereignty": 3928,
    "\u2581Nancy": 3929,
    "\u2581stance": 3930,
    "\u25811996": 3931,
    "\u2581veto": 3932,
    "\u2581stable": 3933,
    "\u2581Morgan": 3934,
    "j": 3935,
    "\u2581Pope": 3936,
    "\u2581shape": 3937,
    "\u2581Gore": 3938,
    "\u2581Second": 3939,
    "\u2581settlement": 3940,
    "\u2581distance": 3941,
    "\u2581Frank": 3942,
    "\u2581neck": 3943,
    ".4": 3944,
    "\u2581Over": 3945,
    "\u2581apologized": 3946,
    "\u2581plus": 3947,
    "\u2581stands": 3948,
    "\u2581camps": 3949,
    "\u2581rescued": 3950,
    "\u2581Indiana": 3951,
    "\u2581la": 3952,
    "\u2581estimate": 3953,
    "\u2581decisions": 3954,
    "page": 3955,
    "\u2581pitch": 3956,
    "\u2581boom": 3957,
    "\u2581established": 3958,
    "\u2581imports": 3959,
    "\u2581Or": 3960,
    "than": 3961,
    "\u2581moderate": 3962,
    "\u2581add": 3963,
    "\u2581teen": 3964,
    "V": 3965,
    "\u2581tradition": 3966,
    "\u2581con": 3967,
    "\u2581breaking": 3968,
    "\u2581recognize": 3969,
    "ji": 3970,
    "\u2581dealing": 3971,
    "\u2581knowledge": 3972,
    "\u2581Jewish": 3973,
    "\u2581easily": 3974,
    "\u2581primaries": 3975,
    "\u2581stimulus": 3976,
    "\u2581testimony": 3977,
    "\u2581yellow": 3978,
    "\u2581Airbus": 3979,
    "\u2581battling": 3980,
    "\u2581participants": 3981,
    "\u2581Valley": 3982,
    "\u2581peak": 3983,
    "\u2581Lohan": 3984,
    "\u2581Kingdom": 3985,
    "\u2581firefighters": 3986,
    "\u2581southwestern": 3987,
    "\u2581yen": 3988,
    "\u2581Staff": 3989,
    "\u2581Columbia": 3990,
    "\u2581Global": 3991,
    "\u2581prepare": 3992,
    "\u2581abducted": 3993,
    "\u2581rapidly": 3994,
    "\u2581exactly": 3995,
    "\u2581links": 3996,
    "\u2581factory": 3997,
    "rank": 3998,
    "\u2581bed": 3999,
    "\u2581sick": 4000,
    "\u2581object": 4001,
    "\u2581thinking": 4002,
    "pl": 4003,
    "\u2581burning": 4004,
    "jo": 4005,
    "\u2581guns": 4006,
    "field": 4007,
    "\u2581eating": 4008,
    "\u2581teens": 4009,
    "\u2581legs": 4010,
    "\u2581king": 4011,
    "\u2581Il": 4012,
    "\u2581feature": 4013,
    "\u2581vacation": 4014,
    "\u2581invest": 4015,
    "\u2581Somali": 4016,
    "\u2581pursue": 4017,
    "\u2581Jim": 4018,
    "\u2581beer": 4019,
    "\u2581Austria": 4020,
    "\u2581handle": 4021,
    "\u2581afford": 4022,
    "\u2581Jordan": 4023,
    "\u2581Ambassador": 4024,
    "\u2581BEIJING": 4025,
    "\u2581Benedict": 4026,
    "\u2581Czech": 4027,
    "\u2581Greece": 4028,
    "\u2581Joseph": 4029,
    "\u2581Mississippi": 4030,
    "\u2581Mumbai": 4031,
    "\u2581Swiss": 4032,
    "\u2581manufacturing": 4033,
    "\u2581multiple": 4034,
    "\u2581reiterat": 4035,
    "\u2581cabinet": 4036,
    "\u2581enrichment": 4037,
    "\u2581effective": 4038,
    "\u2581unknown": 4039,
    "\u2581Henry": 4040,
    "\u2581Radio": 4041,
    "\u2581mainland": 4042,
    "hal": 4043,
    "\u2581marks": 4044,
    "\u258116-": 4045,
    "Larry": 4046,
    "\u2581hotels": 4047,
    "\u2581Awards": 4048,
    "\u2581sole": 4049,
    "runner": 4050,
    "\u2581ages": 4051,
    "\u2581acts": 4052,
    "right": 4053,
    "\u2581section": 4054,
    "\u2581adult": 4055,
    "ik": 4056,
    "\u2581strain": 4057,
    "\u2581reveal": 4058,
    "\u2581$7": 4059,
    "TA": 4060,
    "ped": 4061,
    "\u2581capture": 4062,
    "\u2581Mac": 4063,
    "\u2581ho": 4064,
    "\u2581solve": 4065,
    "\u2581tackle": 4066,
    "\u2581welcom": 4067,
    "\u2581Information": 4068,
    "\u2581Kibaki": 4069,
    "\u2581debris": 4070,
    "\u2581identity": 4071,
    "\u2581occupation": 4072,
    "\u2581legend": 4073,
    "\u2581everybody": 4074,
    "\u2581hail": 4075,
    "\u2581caucuses": 4076,
    "\u25812010": 4077,
    "\u2581Mexican": 4078,
    "\u2581toxic": 4079,
    "\u2581mate": 4080,
    "\u2581detonated": 4081,
    "\u2581sand": 4082,
    "\u258130,000": 4083,
    "formally": 4084,
    "\u2581IAEA": 4085,
    "ill": 4086,
    "\u2581AIDS": 4087,
    "\u2581Maj": 4088,
    "\u258124-": 4089,
    "\u2581degrees": 4090,
    "\u2581Go": 4091,
    "\u2581granted": 4092,
    "\u2581grown": 4093,
    "end": 4094,
    "TV": 4095,
    "\u2581violated": 4096,
    "\u2581floods": 4097,
    "\u2581pirates": 4098,
    "\u2581o": 4099,
    "\u2581factor": 4100,
    "\u2581sitt": 4101,
    "\u2581shelter": 4102,
    "\u2581airstrike": 4103,
    "\u2581shop": 4104,
    "\u2581classic": 4105,
    "50": 4106,
    "ya": 4107,
    "\u2581Z": 4108,
    "fe": 4109,
    "\u2581crowds": 4110,
    "\u2581song": 4111,
    "\u2581thanks": 4112,
    "\u2581northwest": 4113,
    "\u258139": 4114,
    "\u2581drawing": 4115,
    "ber": 4116,
    "\u2581faith": 4117,
    "\u2581Disney": 4118,
    "\u2581Only": 4119,
    "\u25811991": 4120,
    "\u2581Ghazni": 4121,
    "\u2581Museum": 4122,
    "\u2581plutonium": 4123,
    "\u2581PC": 4124,
    "\u2581worries": 4125,
    "\u2581Delhi": 4126,
    "\u2581stick": 4127,
    "\u2581scientific": 4128,
    "\u2581Jack": 4129,
    "\u25811960": 4130,
    "ef": 4131,
    "\u2581confident": 4132,
    "\u2581familiar": 4133,
    "\u2581pope": 4134,
    "\u2581greatest": 4135,
    "\u2581stalled": 4136,
    "\u2581Ru": 4137,
    "\u2581mixed": 4138,
    "\u2581describ": 4139,
    "\u2581monitoring": 4140,
    "\u2581Ka": 4141,
    "South": 4142,
    "\u2581Sri": 4143,
    "\u2581machine": 4144,
    "\u2581bombers": 4145,
    "ranging": 4146,
    "range": 4147,
    "\u2581Bob": 4148,
    "\u2581Cha": 4149,
    "\u2581Time": 4150,
    "20": 4151,
    "\u2581values": 4152,
    "\u2581compete": 4153,
    "\u2581feared": 4154,
    "\u258141": 4155,
    "\u2581civic": 4156,
    "\u2581maximum": 4157,
    "\u2581Mohamed": 4158,
    "\u2581false": 4159,
    "\u2581FARC": 4160,
    "\u2581native": 4161,
    "\u2581shore": 4162,
    "\u2581Castro": 4163,
    "\u2581dinner": 4164,
    "\u2581surveillance": 4165,
    "\u2581Roger": 4166,
    "\u2581midnight": 4167,
    "\u2581Poland": 4168,
    "\u2581rice": 4169,
    "\u2581Beach": 4170,
    "\u2581contained": 4171,
    "\u2581Alex": 4172,
    "\u2581Mount": 4173,
    "\u258156": 4174,
    "\u2581clothes": 4175,
    "\u2581Andrew": 4176,
    "\u25812,": 4177,
    "\u2581duty": 4178,
    "60": 4179,
    "\u258164": 4180,
    "ping": 4181,
    "\u2581selected": 4182,
    "\u2581page": 4183,
    "\u2581dress": 4184,
    "\u2581hunt": 4185,
    "Y": 4186,
    "\u2581samples": 4187,
    "\u2581bird": 4188,
    "\u2581windows": 4189,
    "\u2581strict": 4190,
    "\u2581devices": 4191,
    "won": 4192,
    "\u2581bullet": 4193,
    "\u2581studio": 4194,
    "\u2581diplomat": 4195,
    "\u258159": 4196,
    "\u25812004.": 4197,
    "ship": 4198,
    "ization": 4199,
    "ative": 4200,
    "\u2581winners": 4201,
    "\u2581Award": 4202,
    "tion": 4203,
    "\u2581locations": 4204,
    "\u2581Ar": 4205,
    "\u2581structure": 4206,
    "\u2581guests": 4207,
    "\u2581leaves": 4208,
    "\u2581Hudson": 4209,
    "\u2581Switzerland": 4210,
    "\u2581concrete": 4211,
    "\u2581numerous": 4212,
    "\u2581Power": 4213,
    "ging": 4214,
    "\u2581benchmark": 4215,
    "\u2581edition": 4216,
    "\u25811993": 4217,
    "\u2581priority": 4218,
    "\u2581documentary": 4219,
    "\u2581Society": 4220,
    "\u2581moves": 4221,
    "\u2581southwest": 4222,
    "\u2581bills": 4223,
    "tro": 4224,
    "\u2581oldest": 4225,
    "\"\".": 4226,
    "\u2581mail": 4227,
    "\u2581complained": 4228,
    "ily": 4229,
    "\u2581normally": 4230,
    "\u2581producing": 4231,
    "kin": 4232,
    "?\"": 4233,
    "\u2581settle": 4234,
    "\u2581Somalia": 4235,
    "\u2581react": 4236,
    "most": 4237,
    "\u2581Gul": 4238,
    "hand": 4239,
    "not": 4240,
    "\u2581Can": 4241,
    "ast": 4242,
    "\u2581veteran": 4243,
    "lu": 4244,
    "\u2581adopt": 4245,
    "\u2581chemical": 4246,
    "\u2581communication": 4247,
    "ition": 4248,
    "\u2581cameras": 4249,
    "\u2581balance": 4250,
    "\u2581approve": 4251,
    "\u2581achieve": 4252,
    "\u2581flood": 4253,
    "\u2581freeze": 4254,
    "\u2581chest": 4255,
    "\u2581videos": 4256,
    "\u2581Philip": 4257,
    "ville": 4258,
    "\u2581Rescue": 4259,
    "\u2581contrast": 4260,
    "\u2581globe": 4261,
    "\u2581bankruptcy": 4262,
    "\u2581exposure": 4263,
    "\u2581hurricane": 4264,
    "\u25811992": 4265,
    "\u2581Chun": 4266,
    "quo": 4267,
    "\u2581Seven": 4268,
    "\u2581Richardson": 4269,
    "\u2581Pitt": 4270,
    "\u2581transferred": 4271,
    "\u2581glass": 4272,
    "\u2581league": 4273,
    "\u2581weak": 4274,
    "\u25812008,": 4275,
    "iya": 4276,
    "\u2581Ryan": 4277,
    "\u2581saved": 4278,
    "\u2581mis": 4279,
    "\u2581lying": 4280,
    "\u2581slaves": 4281,
    "\u2581whatever": 4282,
    "round": 4283,
    "\u2581scores": 4284,
    "mar": 4285,
    "\u2581leak": 4286,
    "wing": 4287,
    "10": 4288,
    "\u2581amounts": 4289,
    "\u2581fields": 4290,
    "known": 4291,
    ".8": 4292,
    "\u2581willing": 4293,
    "\u2581cool": 4294,
    "\u2581mistake": 4295,
    "\u2581eat": 4296,
    "\u2581desert": 4297,
    "\u2581trigger": 4298,
    "\u2581household": 4299,
    "\u2581explosive": 4300,
    "\u2581Motor": 4301,
    "\u2581bag": 4302,
    "\u258149": 4303,
    "\u2581attending": 4304,
    "\u2581letters": 4305,
    "\u2581except": 4306,
    "\u2581Camp": 4307,
    "\u2581prince": 4308,
    "ron": 4309,
    "per": 4310,
    "\u2581Radcliffe": 4311,
    "\u2581Festival": 4312,
    "\u2581Nasdaq": 4313,
    "\u2581announcing": 4314,
    "\u2581privacy": 4315,
    "\u2581spacecraft": 4316,
    "\u2581Jobs": 4317,
    "\u2581baseball": 4318,
    "\u2581Workers": 4319,
    "\u2581Sir": 4320,
    "\u2581revolution": 4321,
    "\u2581notice": 4322,
    "\u2581Chad": 4323,
    "\u2581plays": 4324,
    "\u2581whales": 4325,
    "\u2581foundation": 4326,
    "aw": 4327,
    "\u2581significantly": 4328,
    "\u2581champions": 4329,
    "\u2581busy": 4330,
    "\u2581purposes": 4331,
    "\u2581cap": 4332,
    "\u2581Moore": 4333,
    "80": 4334,
    "\u2581Motors": 4335,
    "\u2581broadcaster": 4336,
    "\u2581Join": 4337,
    "\u2581worker": 4338,
    "\u2581institutions": 4339,
    "\u2581Mi": 4340,
    "\u258154": 4341,
    "\u2581file": 4342,
    "ster": 4343,
    "\u2581operate": 4344,
    "\u2581chain": 4345,
    "\u2581venue": 4346,
    "\u2581experiment": 4347,
    "\u2581tracks": 4348,
    ".7": 4349,
    "hee": 4350,
    "\u2581w": 4351,
    "\u2581citizen": 4352,
    "\u2581shoes": 4353,
    "roughly": 4354,
    "\u258168": 4355,
    "\u2581Assistan": 4356,
    "\u2581correct": 4357,
    "\u2581crossed": 4358,
    "km": 4359,
    "\u2581Libya": 4360,
    "row": 4361,
    "\u2581exhibit": 4362,
    "clusive": 4363,
    "\u2581Scott": 4364,
    "\u2581striking": 4365,
    "\u2581unrest": 4366,
    "\u2581College": 4367,
    "\u2581Antonio": 4368,
    "\u2581Latin": 4369,
    "\u2581petition": 4370,
    "\u2581fierce": 4371,
    "\u2581Club": 4372,
    "\u2581spotted": 4373,
    "\u2581Tennessee": 4374,
    "\u2581handling": 4375,
    "\u2581poverty": 4376,
    "\u2581authorized": 4377,
    "\u2581sweep": 4378,
    "\u2581entry": 4379,
    "\u2581Cuban": 4380,
    "\u2581improved": 4381,
    "\u2581seventh": 4382,
    "\u2581makers": 4383,
    "\u2581missed": 4384,
    "\u2581Maria": 4385,
    "rin": 4386,
    "\u2581symbol": 4387,
    "\u2581Officer": 4388,
    "\u2581Leader": 4389,
    "ward": 4390,
    "\u258115-": 4391,
    "\u2581approached": 4392,
    "\u2581guarantee": 4393,
    "US": 4394,
    "\u2581condemn": 4395,
    "\u25814-": 4396,
    "\u2581Revolution": 4397,
    "les": 4398,
    "\u2581carrier": 4399,
    "\u2581conversation": 4400,
    "\u2581representative": 4401,
    "\u2581employee": 4402,
    "star": 4403,
    "\u2581loan": 4404,
    "\u2581stag": 4405,
    "\u2581euros": 4406,
    "90": 4407,
    "\u2581declare": 4408,
    "\u2581broad": 4409,
    "\u2581(1": 4410,
    "\u2581pet": 4411,
    "\u2581Detroit": 4412,
    "\u2581Philadelphia": 4413,
    "\u2581celebrity": 4414,
    "\u2581repair": 4415,
    "\u2581retain": 4416,
    "\u2581McCormack": 4417,
    "\u2581sectarian": 4418,
    "\u2581Murray": 4419,
    "\u2581Unification": 4420,
    "\u2581compensation": 4421,
    "\u2581uh": 4422,
    "\u2581anthem": 4423,
    "\u2581worry": 4424,
    "\u2581Euro": 4425,
    "\u2581Eight": 4426,
    "\u2581cargo": 4427,
    "\u2581PKK": 4428,
    "\u2581endangered": 4429,
    "new": 4430,
    "\u2581Tech": 4431,
    "\u2581Jon": 4432,
    "\u2581Miss": 4433,
    "\u2581statements": 4434,
    "\u25812001,": 4435,
    "\u2581denounc": 4436,
    "\u2581oppose": 4437,
    "\u2581successfully": 4438,
    "\u25812002,": 4439,
    "\u2581soil": 4440,
    "\u2581hopeful": 4441,
    "\u2581unity": 4442,
    "\u25811.5": 4443,
    "\u25815-": 4444,
    "\u2581increases": 4445,
    "\u2581bags": 4446,
    "\u2581partners": 4447,
    "\u2581withdrew": 4448,
    "born": 4449,
    "\u2581shops": 4450,
    "\u2581factors": 4451,
    "ged": 4452,
    "\u2581ten": 4453,
    "\u2581Will": 4454,
    "ide": 4455,
    "\u2581weigh": 4456,
    "qui": 4457,
    "\u2581score": 4458,
    "wi": 4459,
    "king": 4460,
    "\u2581reject": 4461,
    "well": 4462,
    "\u2581economist": 4463,
    "\u2581purpose": 4464,
    "\u2581theater": 4465,
    "\u2581Pan": 4466,
    "\u2581120": 4467,
    "\u2581aged": 4468,
    "\u2581illness": 4469,
    "\u2581submit": 4470,
    "\u2581urban": 4471,
    "\u2581Athens": 4472,
    "\u2581Capitol": 4473,
    "\u2581WHO": 4474,
    "\u2581Winehouse": 4475,
    "\u2581referendum": 4476,
    "\u2581Lake": 4477,
    "\u2581sentiment": 4478,
    "\u2581Donald": 4479,
    "\u2581float": 4480,
    "\u2581Airways": 4481,
    "\u2581Palace": 4482,
    "\u2581Davis": 4483,
    "\u2581slowdown": 4484,
    "\u2581Carter": 4485,
    "\u2581acres": 4486,
    "\u2581Christ": 4487,
    "\u25811,500": 4488,
    "\u2581Elect": 4489,
    "\u2581Gazprom": 4490,
    "\u2581Children": 4491,
    "\u2581popularity": 4492,
    "\u2581backing": 4493,
    "\u2581stroke": 4494,
    "\u2581icon": 4495,
    "\u2581Old": 4496,
    "\u2581temporary": 4497,
    "\u2581200,000": 4498,
    "\u2581publication": 4499,
    "\u2581advertising": 4500,
    "\u2581600": 4501,
    "ei": 4502,
    "\u2581centers": 4503,
    "\u2581surprised": 4504,
    "45": 4505,
    "\u2581Aung": 4506,
    "\u2581riding": 4507,
    "\u2581agents": 4508,
    "\u2581athletes": 4509,
    "\u2581experienced": 4510,
    "\u2581hitt": 4511,
    "\u2581addressed": 4512,
    "\u2581aside": 4513,
    "down": 4514,
    "\u2581raids": 4515,
    "With": 4516,
    "\u2581Sha": 4517,
    "ese": 4518,
    "\u2581Ke": 4519,
    "\u2581fishing": 4520,
    "\u2581Doctor": 4521,
    "q": 4522,
    "\u2581weaken": 4523,
    "light": 4524,
    "\u25812003,": 4525,
    "gi": 4526,
    "\u2581prais": 4527,
    "\u2581delegate": 4528,
    "\u2581complaint": 4529,
    "\u2581cruise": 4530,
    "\u2581Bell": 4531,
    "tech": 4532,
    "\u2581Kuwait": 4533,
    "\u2581Sever": 4534,
    "\u2581electric": 4535,
    "ranking": 4536,
    "\u258153": 4537,
    "\u2581Caribbean": 4538,
    "\u2581Education": 4539,
    "\u2581Erdogan": 4540,
    "\u2581Odinga": 4541,
    "\u2581Romney": 4542,
    "\u2581Wolfowitz": 4543,
    "\u2581burst": 4544,
    "\u2581inauguration": 4545,
    "\u2581legislative": 4546,
    "\u2581pregnancy": 4547,
    "\u2581scheme": 4548,
    "\u2581variety": 4549,
    "\u2581Sichuan": 4550,
    "\u2581Ireland": 4551,
    "\u2581instance": 4552,
    "\u2581Greek": 4553,
    "\u2581Corporation": 4554,
    "\u2581Powell": 4555,
    "\u2581Yong": 4556,
    "\u2581Winter": 4557,
    "\u2581Gambari": 4558,
    "\u2581underground": 4559,
    "\u2581reward": 4560,
    "\u2581Chong": 4561,
    "\u2581dust": 4562,
    "ker": 4563,
    "\u2581indicted": 4564,
    "\u2581Kate": 4565,
    "\u2581sponsor": 4566,
    "\u2581rail": 4567,
    "\u2581bitter": 4568,
    "\u2581eighth": 4569,
    "\u2581Water": 4570,
    "\u2581county": 4571,
    "\u2581slamm": 4572,
    "gu": 4573,
    "ze": 4574,
    "\u2581pointed": 4575,
    "\u2581code": 4576,
    "\u2581graduate": 4577,
    "\u25814,000": 4578,
    "\u2581Rod": 4579,
    "qu": 4580,
    "izing": 4581,
    "ink": 4582,
    "\u2581recalled": 4583,
    "\u2581cave": 4584,
    "profile": 4585,
    "\u2581Ni": 4586,
    "\u2581promotion": 4587,
    "\u2581profits": 4588,
    "ou": 4589,
    "\u2581Gu": 4590,
    "All": 4591,
    "\u2581unions": 4592,
    "ue": 4593,
    "gen": 4594,
    "\u2581listen": 4595,
    "\u2581turns": 4596,
    "\u2581volunteers": 4597,
    "\u2581Cor": 4598,
    "\u2581walls": 4599,
    "slated": 4600,
    "\u2581gallon": 4601,
    "\u2581Mer": 4602,
    "\u2581GM": 4603,
    "\u2581bright": 4604,
    "\u2581historical": 4605,
    "meter": 4606,
    "\u2581doors": 4607,
    "\u2581Free": 4608,
    "\u2581Corps": 4609,
    "\u2581Week": 4610,
    "\u2581appealed": 4611,
    "\u2581apologize": 4612,
    "One": 4613,
    "\u2581lobby": 4614,
    "\u2581luxur": 4615,
    "\u2581Gonzales": 4616,
    "\u2581Mehdi": 4617,
    "\u2581Netherlands": 4618,
    "\u2581Taylor": 4619,
    "\u2581swimming": 4620,
    "\u2581advice": 4621,
    "\u2581Jerry": 4622,
    "\u2581spill": 4623,
    "\u2581submitted": 4624,
    "\u2581breach": 4625,
    "\u2581Phil": 4626,
    "\u2581Emergency": 4627,
    "\u2581Later": 4628,
    "\u2581constant": 4629,
    "\u2581earth": 4630,
    "\u2581negotiate": 4631,
    "40": 4632,
    "\u2581decid": 4633,
    "\u2581cards": 4634,
    "\u2581isolated": 4635,
    "\u2581wonder": 4636,
    "\u2581indicat": 4637,
    "\u2581bases": 4638,
    "\u2581Yi": 4639,
    "\u2581monitor": 4640,
    "\u258166": 4641,
    "hit": 4642,
    "\u2581pleaded": 4643,
    "\u2581Da": 4644,
    "\u2581detected": 4645,
    "\u2581topped": 4646,
    "\u2581matters": 4647,
    "\u2581fix": 4648,
    "\u2581objects": 4649,
    "\u2581$9": 4650,
    "\u2581ma": 4651,
    "\u2581print": 4652,
    "\u2581wine": 4653,
    "\u258158": 4654,
    "\u2581wish": 4655,
    "\u2581clash": 4656,
    "\u2581assist": 4657,
    "named": 4658,
    "\u2581conclusion": 4659,
    "\u2581shots": 4660,
    "\u2581Chen": 4661,
    "\u2581shortages": 4662,
    "\u2581wounds": 4663,
    "\u2581thousand": 4664,
    "\u2581250": 4665,
    "ther": 4666,
    "\u2581mental": 4667,
    "\u2581contracts": 4668,
    "\u2581attorneys": 4669,
    "\u2581retail": 4670,
    "\u2581slipp": 4671,
    "\u2581vital": 4672,
    "\u2581Portuguese": 4673,
    "\u2581Sharapova": 4674,
    "\u2581Television": 4675,
    "\u2581tunnel": 4676,
    "\u2581improving": 4677,
    "\u2581Darwin": 4678,
    "\u2581chaos": 4679,
    "\u2581motion": 4680,
    "\u2581lake": 4681,
    "\u2581phase": 4682,
    "\u2581Nowak": 4683,
    "\u2581Peru": 4684,
    "\u2581ordinary": 4685,
    "\u2581degree": 4686,
    "\u2581boyfriend": 4687,
    "\u2581homeland": 4688,
    "board": 4689,
    "can": 4690,
    "\u2581incidents": 4691,
    "\u2581premier": 4692,
    "\u2581resumed": 4693,
    "low": 4694,
    "\u2581Analysts": 4695,
    "ned": 4696,
    "\u2581negotiators": 4697,
    "\u2581Per": 4698,
    "\u2581kick": 4699,
    "\u2581potentially": 4700,
    "av": 4701,
    "\u2581abandoned": 4702,
    "\u2581strengthen": 4703,
    "\u2581homeless": 4704,
    "\u2581uses": 4705,
    "\u2581Ron": 4706,
    "\u2581Un": 4707,
    "week": 4708,
    "face": 4709,
    "\u2581automakers": 4710,
    "\u2581negotiat": 4711,
    "dis": 4712,
    "\u2581insist": 4713,
    "\u2581ends": 4714,
    "ack": 4715,
    "\u2581feed": 4716,
    "\u2581signals": 4717,
    "\u2581$20": 4718,
    "\u258163": 4719,
    "\u2581provides": 4720,
    "\u2581Here": 4721,
    "\u2581blaze": 4722,
    "\u2581passport": 4723,
    "\u2581cloud": 4724,
    "\u2581cable": 4725,
    "\u2581teenager": 4726,
    "\u2581Bangladesh": 4727,
    "15": 4728,
    "\u2581engage": 4729,
    "shaped": 4730,
    "\u2581fatal": 4731,
    "\u2581Lanka": 4732,
    "\u2581notes": 4733,
    "\u2581characters": 4734,
    "\u2581Barbara": 4735,
    "\u2581Federation": 4736,
    "\u2581Guantanamo": 4737,
    "\u2581Jakarta": 4738,
    "\u2581Memorial": 4739,
    "\u2581Orleans": 4740,
    "\u2581Wimbledon": 4741,
    "\u2581consecutive": 4742,
    "\u2581ocean": 4743,
    "\u2581turmoil": 4744,
    "\u2581tobacco": 4745,
    "\u2581neither": 4746,
    "\u2581Merkel": 4747,
    "\u2581Morning": 4748,
    "\u2581Local": 4749,
    "\u2581relocation": 4750,
    "\u2581hint": 4751,
    "\u2581greenhouse": 4752,
    "\u25816-4": 4753,
    "\u2581Arsenal": 4754,
    "\u2581Albert": 4755,
    "\u2581Hugo": 4756,
    "\u2581curb": 4757,
    "\u2581golf": 4758,
    "\u2581miners": 4759,
    "\u2581stolen": 4760,
    "\u2581pour": 4761,
    "\u2581Wales": 4762,
    "\u2581flash": 4763,
    "\u2581Warner": 4764,
    "\u2581copy": 4765,
    "\u2581runoff": 4766,
    "\u2581mom": 4767,
    "\u2581pleased": 4768,
    "\u2581suddenly": 4769,
    "\u2581portion": 4770,
    "ek": 4771,
    "\u2581emotional": 4772,
    "\u2581disappeared": 4773,
    "\u2581Princess": 4774,
    "\u2581campaigning": 4775,
    "\u2581photographs": 4776,
    "\u258120-": 4777,
    "ert": 4778,
    "\u2581abus": 4779,
    "iz": 4780,
    "\u2581hide": 4781,
    "\u2581Ga": 4782,
    "\u2581superdelegates": 4783,
    "\u2581violat": 4784,
    "\u2581safely": 4785,
    "\u2581recording": 4786,
    "\u2581$25": 4787,
    "\u2581networks": 4788,
    "\u2581bars": 4789,
    "port": 4790,
    "\u2581sons": 4791,
    "\u2581resolved": 4792,
    "her": 4793,
    "\u2581adds": 4794,
    "\u2581drink": 4795,
    "\u2581interested": 4796,
    "\u25818-": 4797,
    "use": 4798,
    "\u2581units": 4799,
    "water": 4800,
    "controlled": 4801,
    "\u2581learning": 4802,
    "\u2581LO": 4803,
    "room": 4804,
    "\u2581friendly": 4805,
    "\u2581Har": 4806,
    "iling": 4807,
    "\u2581representing": 4808,
    "\u2581130": 4809,
    "\u2581diamond": 4810,
    "\u2581Fund": 4811,
    "\u2581revenue": 4812,
    "\u2581medal": 4813,
    "ility": 4814,
    "\u2581barrels": 4815,
    "\u2581Yu": 4816,
    "\u2581happening": 4817,
    "\u2581desire": 4818,
    "\u2581chair": 4819,
    "\u2581tool": 4820,
    "\u2581cheap": 4821,
    "med": 4822,
    "\u2581Top": 4823,
    "\u2581teenage": 4824,
    "\u2581impose": 4825,
    "\u2581flat": 4826,
    "\u2581Tsvangirai": 4827,
    "\u2581ambush": 4828,
    "\u2581stuff": 4829,
    "\u2581residence": 4830,
    "\u2581Light": 4831,
    "\u2581hike": 4832,
    "\u2581Sweden": 4833,
    "\u2581possession": 4834,
    "\u2581northeastern": 4835,
    "\u2581gear": 4836,
    "\u2581Louisiana": 4837,
    "has": 4838,
    "\u2581confrontation": 4839,
    "\u2581reserved": 4840,
    "\u2581classified": 4841,
    "\u2581crown": 4842,
    "\u2581combined": 4843,
    "\u2581parent": 4844,
    "\u2581hall": 4845,
    "sized": 4846,
    "\u2581battles": 4847,
    "\u2581ousted": 4848,
    "\u2581clothing": 4849,
    "\u2581administrative": 4850,
    "\u2581shootings": 4851,
    "\u2581wartime": 4852,
    "\u2581assessment": 4853,
    "\u2581advanced": 4854,
    "\u2581pound": 4855,
    "set": 4856,
    "\u2581disputed": 4857,
    "\u2581sexually": 4858,
    "\u2581investigations": 4859,
    "\u2581extremists": 4860,
    "\u2581accusations": 4861,
    "\u2581700": 4862,
    "\u2581suffer": 4863,
    "\u2581deeply": 4864,
    "mm": 4865,
    "\u258112-": 4866,
    "\u2581waves": 4867,
    "ble": 4868,
    "\u2581towns": 4869,
    "\u2581photograph": 4870,
    "\u2581Du": 4871,
    "bi": 4872,
    "Nuri": 4873,
    "\u2581Northeast": 4874,
    "\u2581tie": 4875,
    "\u2581obtain": 4876,
    "\u2581Je": 4877,
    "\u2581moon": 4878,
    "ullah": 4879,
    "\u2581Che": 4880,
    "\u2581Virgin": 4881,
    "\u2581controls": 4882,
    "\u2581Blue": 4883,
    "\u2581whale": 4884,
    "\u2581Our": 4885,
    "\u2581Base": 4886,
    "\u2581conservation": 4887,
    "5,000": 4888,
    "\u2581aggressive": 4889,
    "\u2581designat": 4890,
    "mate": 4891,
    "\u2581storms": 4892,
    "\u2581stream": 4893,
    "\u2581ANGELES": 4894,
    "\u2581Alliance": 4895,
    "\u2581Cruise": 4896,
    "\u2581Metropoli": 4897,
    "\u2581clinch": 4898,
    "\u2581reconciliation": 4899,
    "\u2581Management": 4900,
    "\u2581iPhone": 4901,
    "\u2581Amazon": 4902,
    "\u2581Media": 4903,
    "\u2581technologies": 4904,
    "\u2581Graham": 4905,
    "\u2581republic": 4906,
    "\u2581impossible": 4907,
    "\u25811989": 4908,
    "\u2581laid": 4909,
    "\u2581truce": 4910,
    "\u2581hub": 4911,
    "\u2581copies": 4912,
    "\u2581membership": 4913,
    "\u2581sheriff": 4914,
    "\u2581cup": 4915,
    "\u2581Hamid": 4916,
    "\u2581replacement": 4917,
    "\u2581rescuers": 4918,
    "\u2581volume": 4919,
    "\u2581timetable": 4920,
    "\u2581loyal": 4921,
    "\u2581starr": 4922,
    "\u2581minimum": 4923,
    "\u2581executed": 4924,
    "ib": 4925,
    "\u2581prevented": 4926,
    "\u2581convinced": 4927,
    "\u2581Like": 4928,
    "\u2581Jae": 4929,
    "\u2581Mass": 4930,
    "\u2581behalf": 4931,
    "\u2581Q": 4932,
    "\u2581informed": 4933,
    "\u2581thin": 4934,
    "\u2581concessions": 4935,
    "\u2581Bond": 4936,
    "\u2581yes": 4937,
    "\u2581Paulo": 4938,
    "\u2581Masters": 4939,
    "\u2581spreading": 4940,
    "\u2581roll": 4941,
    "\u2581engineering": 4942,
    "\u2581spoken": 4943,
    "pro": 4944,
    "...\u201d": 4945,
    "\u2581legally": 4946,
    "\u2581crack": 4947,
    "\u2581rumors": 4948,
    "\u2581Chi": 4949,
    "ight": 4950,
    "\u2581Nor": 4951,
    "general": 4952,
    "\u2581sees": 4953,
    "\u2581opens": 4954,
    "\u2581convert": 4955,
    "\u2581plea": 4956,
    "\u2581compromise": 4957,
    "san": 4958,
    "\u2581wor": 4959,
    "\u2581acted": 4960,
    "\u2581initiative": 4961,
    "\u2581trained": 4962,
    "\u2581tickets": 4963,
    "\u2581Woods": 4964,
    "\u2581ballot": 4965,
    "\u2581politician": 4966,
    "\u2581deals": 4967,
    "ntil": 4968,
    "\u2581steel": 4969,
    "promising": 4970,
    "\u2581tropic": 4971,
    "unidentified": 4972,
    "\u2581Giuliani": 4973,
    "\u2581Huckabee": 4974,
    "\u2581Oklahoma": 4975,
    "\u2581Rooney": 4976,
    "\u2581arriving": 4977,
    "\u2581burden": 4978,
    "\u2581episode": 4979,
    "\u2581naked": 4980,
    "\u2581transplant": 4981,
    "\u2581steady": 4982,
    "\u2581Jews": 4983,
    "\u2581talent": 4984,
    "\u2581dramatic": 4985,
    "\u2581Rodriguez": 4986,
    "\u2581principles": 4987,
    "\u2581dry": 4988,
    "\u2581wireless": 4989,
    "\u2581villagers": 4990,
    "\u2581Wright": 4991,
    "\u2581Vo": 4992,
    "\u2581Feb": 4993,
    "\u2581Snow": 4994,
    "ft": 4995,
    "\u2581Annan": 4996,
    "\u2581turnout": 4997,
    "\u2581meat": 4998,
    "\u2581exposed": 4999,
    "\u2581Missouri": 5000,
    "rich": 5001,
    "\u2581theory": 5002,
    "\u2581absolutely": 5003,
    "\u2581tale": 5004,
    "\u2581investigated": 5005,
    "\u2581polling": 5006,
    "\u2581clock": 5007,
    "\u2581oversee": 5008,
    "\u2581dominated": 5009,
    "\u2581di": 5010,
    "\u2581projected": 5011,
    "\u2581recover": 5012,
    "\u2581sailors": 5013,
    "\u2581Bur": 5014,
    "\u2581miss": 5015,
    "\u25812009.": 5016,
    "unt": 5017,
    "\u2581crops": 5018,
    "ini": 5019,
    "Z": 5020,
    "strong": 5021,
    "quarter": 5022,
    "went": 5023,
    "\u2581habitat": 5024,
    "\u2581Vi": 5025,
    "\u2581riot": 5026,
    "\u2581Dean": 5027,
    "\u2581collect": 5028,
    "\u2581punish": 5029,
    "\u2581broker": 5030,
    "\u2581reduc": 5031,
    "\u2581bones": 5032,
    "\u2581indication": 5033,
    "\u2581engine": 5034,
    "\u2581investigator": 5035,
    "\u2581torture": 5036,
    "\u2581praise": 5037,
    "\u2581vessels": 5038,
    "\u2581marking": 5039,
    "\u2581engineers": 5040,
    "\u2581undermine": 5041,
    "\u2581substantial": 5042,
    "\u2581chose": 5043,
    "\u2581prohibit": 5044,
    "\u258195": 5045,
    "\u2581Harvard": 5046,
    "\u2581Medvedev": 5047,
    "\u2581Rumsfeld": 5048,
    "\u2581beauty": 5049,
    "\u2581centuries": 5050,
    "\u2581economies": 5051,
    "\u2581hybrid": 5052,
    "\u2581mammoth": 5053,
    "\u2581memorial": 5054,
    "\u2581pollution": 5055,
    "\u2581testify": 5056,
    "\u2581inquiry": 5057,
    "\u2581denies": 5058,
    "\u2581legitimate": 5059,
    "\u2581inquest": 5060,
    "\u2581expansion": 5061,
    "\u2581disappearance": 5062,
    "\u2581cooperate": 5063,
    "\u2581Seattle": 5064,
    "\u2581spray": 5065,
    "\u2581wildlife": 5066,
    "\u2581landmark": 5067,
    "\u2581abduction": 5068,
    "\u2581Zone": 5069,
    "\u25816-3": 5070,
    "\u2581extinction": 5071,
    "\u2581momentum": 5072,
    "\u2581Long": 5073,
    "\u2581Consumer": 5074,
    "\u2581prominent": 5075,
    "\u2581craft": 5076,
    "\u2581creation": 5077,
    "\u2581Ku": 5078,
    "\u2581yuan": 5079,
    "ec": 5080,
    "\u2581ultimately": 5081,
    "\u2581airplane": 5082,
    "\u2581classes": 5083,
    "\u25812012": 5084,
    "\u2581extraordinary": 5085,
    "\u2581Civil": 5086,
    "\u2581Tr": 5087,
    "\u2581effectively": 5088,
    "ax": 5089,
    "\u2581fleet": 5090,
    "\u2581Sung": 5091,
    "\u2581Roma": 5092,
    "\u2581Port": 5093,
    "\u2581mouth": 5094,
    "\u2581Matt": 5095,
    "29": 5096,
    "\u2581complaints": 5097,
    "\u2581Act": 5098,
    "\u2581parking": 5099,
    "\u2581conservatives": 5100,
    "\u2581dressed": 5101,
    "will": 5102,
    "\u2581titles": 5103,
    "\u2581liberal": 5104,
    "\u2581perform": 5105,
    "iest": 5106,
    "\u2581Up": 5107,
    "\u2581Mon": 5108,
    "\u25812-": 5109,
    "\u2581earnings": 5110,
    "\u258169": 5111,
    "\u2581tech": 5112,
    "\u2581injur": 5113,
    "\u2581arrests": 5114,
    "\u2581earn": 5115,
    "\u2581violations": 5116,
    "soo": 5117,
    "-0": 5118,
    "border": 5119,
    "\u25812000.": 5120,
    "\u2581starts": 5121,
    "ities": 5122,
    "\u2581apart": 5123,
    "gg": 5124,
    "top": 5125,
    "\u2581hat": 5126,
    "\u2581upset": 5127,
    "\u258130-": 5128,
    "\u2581surrender": 5129,
    "\u2581blasts": 5130,
    "bound": 5131,
    "\u2581Wal": 5132,
    "\u2581sweet": 5133,
    "\u2581Eric": 5134,
    "\u2581quiet": 5135,
    "\u2581Command": 5136,
    "\u2581guide": 5137,
    "\u2581bureau": 5138,
    "\u2581exact": 5139,
    "\u2581viewers": 5140,
    "\u2581moral": 5141,
    "\u2581concept": 5142,
    "\u2581tension": 5143,
    "\u2581OPEC": 5144,
    "\u2581Toyota": 5145,
    "\u2581Critics": 5146,
    "\u2581Industrial": 5147,
    "\u2581Jintao": 5148,
    "\u2581Survey": 5149,
    "\u2581Technology": 5150,
    "\u2581absence": 5151,
    "\u2581deadliest": 5152,
    "\u2581extensive": 5153,
    "\u2581tabloid": 5154,
    "\u2581stranded": 5155,
    "\u2581empty": 5156,
    "\u2581respondents": 5157,
    "\u2581cyclone": 5158,
    "\u2581Madoff": 5159,
    "\u2581releasing": 5160,
    "\u2581interrogation": 5161,
    "\u2581abortion": 5162,
    "\u2581Sheriff": 5163,
    "\u2581testified": 5164,
    "\u2581Windows": 5165,
    "\u2581nice": 5166,
    "\u2581Rudd": 5167,
    "\u2581Arabic": 5168,
    "\u2581plunged": 5169,
    "\u2581consistent": 5170,
    "\u2581sad": 5171,
    "\u2581thrown": 5172,
    "\u2581properly": 5173,
    "\u2581studying": 5174,
    "\u2581dragg": 5175,
    "\u2581master": 5176,
    "\u2581recommended": 5177,
    "mon": 5178,
    "\u2581pool": 5179,
    "\u2581(3": 5180,
    "iv": 5181,
    "\u2581lab": 5182,
    "\u2581Ta": 5183,
    "\u2581Carlos": 5184,
    "\u2581($1": 5185,
    "spired": 5186,
    "\u2581founded": 5187,
    "\u2581Live": 5188,
    "\u2581Yo": 5189,
    "\u2581pen": 5190,
    "\u2581AC": 5191,
    "\u2581Kenyan": 5192,
    "\u25815,000": 5193,
    "\u2581expecting": 5194,
    "RA": 5195,
    "century": 5196,
    "Harry": 5197,
    "\u2581tip": 5198,
    "\u2581shoulder": 5199,
    "\u2581Te": 5200,
    "\u2581mob": 5201,
    "\u2581Oh": 5202,
    "sen": 5203,
    "\u2581function": 5204,
    "\u2581gr": 5205,
    "ino": 5206,
    "\u2581Christians": 5207,
    "nna": 5208,
    "\u2581wire": 5209,
    "\u2581BA": 5210,
    "ail": 5211,
    "\u2581Ten": 5212,
    "\u2581posts": 5213,
    "cy": 5214,
    "more": 5215,
    "\u2581Championship": 5216,
    "\u2581execution": 5217,
    "\u2581passing": 5218,
    "\u2581Ca": 5219,
    "\u2581proceed": 5220,
    "\u2581volcano": 5221,
    "\u2581Sp": 5222,
    "aught": 5223,
    "\u2581dictator": 5224,
    "\u2581Broadcasting": 5225,
    "\u2581Commerce": 5226,
    "\u2581Experts": 5227,
    "\u2581Travolta": 5228,
    "\u2581cloning": 5229,
    "\u2581devastating": 5230,
    "\u2581institute": 5231,
    "\u2581otherwise": 5232,
    "\u2581religion": 5233,
    "\u2581MBC": 5234,
    "\u2581MySpace": 5235,
    "\u2581elevator": 5236,
    "\u2581Safety": 5237,
    "\u2581Utah": 5238,
    "\u2581ballistic": 5239,
    "\u2581spiritual": 5240,
    "\u2581soaring": 5241,
    "\u2581importance": 5242,
    "\u25811987": 5243,
    "NE": 5244,
    "\u2581Chance": 5245,
    "\u2581specifically": 5246,
    "\u2581background": 5247,
    "\u2581carries": 5248,
    "\u2581robbery": 5249,
    "\u2581uncovered": 5250,
    "\u2581fever": 5251,
    "\u2581coverage": 5252,
    "\u2581Video": 5253,
    "\u2581deficit": 5254,
    "\u2581excited": 5255,
    "\u2581bond": 5256,
    "\u2581followers": 5257,
    "ee": 5258,
    "\u2581brutal": 5259,
    ",500": 5260,
    "\u2581Change": 5261,
    "\u2581My": 5262,
    "\u2581lies": 5263,
    "\u2581gross": 5264,
    "\u2581grass": 5265,
    "ura": 5266,
    "denuclearization": 5267,
    "\u2581boss": 5268,
    "\u2581comfort": 5269,
    "\u2581da": 5270,
    "\u2581Land": 5271,
    "\u2581Bi": 5272,
    "\u2581commissioner": 5273,
    "\u2581Line": 5274,
    "\u2581detainees": 5275,
    "\u2581Yet": 5276,
    "\u2581coal": 5277,
    "\u2581representatives": 5278,
    "berg": 5279,
    "\u2581clashed": 5280,
    "53": 5281,
    "\u2581defendants": 5282,
    "\u258174": 5283,
    "\u2581burn": 5284,
    "\u2581pilots": 5285,
    "\u2581(2": 5286,
    "North": 5287,
    "\u2581raided": 5288,
    "\u2581dealers": 5289,
    "\u2581brothers": 5290,
    "hr": 5291,
    "\u2581harm": 5292,
    "\u2581mix": 5293,
    "ral": 5294,
    "\u2581maintained": 5295,
    "\u2581sh": 5296,
    "\u2581stops": 5297,
    "\u2581nominees": 5298,
    "\u2581transform": 5299,
    "shi": 5300,
    "\u2581designers": 5301,
    "\u2581Pro": 5302,
    "\u2581revive": 5303,
    "\u2581generate": 5304,
    "\u2581portray": 5305,
    "\u2581marine": 5306,
    "\u2581filmmaker": 5307,
    "\u2581Cleveland": 5308,
    "\u2581Division": 5309,
    "\u2581Katrina": 5310,
    "\u2581Winfrey": 5311,
    "\u2581Wisconsin": 5312,
    "\u2581steep": 5313,
    "\u2581Collins": 5314,
    "\u2581Ecuador": 5315,
    "\u2581Kansas": 5316,
    "\u2581solid": 5317,
    "\u2581tissue": 5318,
    "\u2581Sgt": 5319,
    "\u2581category": 5320,
    "\u2581Movement": 5321,
    "\u2581Bahamas": 5322,
    "\u2581goalkeep": 5323,
    "\u2581persuade": 5324,
    "\u2581terminal": 5325,
    "\u2581principle": 5326,
    "\u2581Louis": 5327,
    "\u2581Project": 5328,
    "\u2581Michelle": 5329,
    "\u2581endorsed": 5330,
    "\u2581Yoon": 5331,
    "\u2581broader": 5332,
    "\u2581attached": 5333,
    "\u2581Malaysian": 5334,
    "\u2581buses": 5335,
    "\u2581whaling": 5336,
    "\u2581tougher": 5337,
    "35": 5338,
    "\u2581pending": 5339,
    "\u2581Far": 5340,
    "\u2581Gar": 5341,
    "\u2581marketing": 5342,
    "\u2581criminals": 5343,
    "\u2581Out": 5344,
    "posed": 5345,
    "24": 5346,
    "\u2581Oscars": 5347,
    "ita": 5348,
    "\u2581attribut": 5349,
    "\u2581seal": 5350,
    "\u2581Nazi": 5351,
    "\u2581Pat": 5352,
    "\u2581Series": 5353,
    "owned": 5354,
    "\u2581Yun": 5355,
    "\u2581discussing": 5356,
    "-1": 5357,
    "\u2581touched": 5358,
    "\u25812001.": 5359,
    "play": 5360,
    "\u2581rocks": 5361,
    "\u2581PA": 5362,
    "\u2581outrage": 5363,
    "ay": 5364,
    "\u2581manufacturers": 5365,
    "looking": 5366,
    "\u2581Alan": 5367,
    "\u2581register": 5368,
    "MA": 5369,
    "\u2581Marines": 5370,
    "\u2581senators": 5371,
    "\u2581forget": 5372,
    "\u2581youth": 5373,
    "\u2581delays": 5374,
    "\u258173": 5375,
    "\u2581realize": 5376,
    "\u2581proper": 5377,
    "wide": 5378,
    "\u2581actors": 5379,
    "\u2581Nigeria": 5380,
    "\u2581stationed": 5381,
    "\u2581occur": 5382,
    "\u2581reference": 5383,
    "\u2581Program": 5384,
    "\u2581Emirates": 5385,
    "\u2581Executive": 5386,
    "\u2581Ibrahim": 5387,
    "\u2581Koizumi": 5388,
    "\u2581association": 5389,
    "\u2581battery": 5390,
    "\u2581beneath": 5391,
    "\u2581consensus": 5392,
    "\u2581declaring": 5393,
    "\u2581escort": 5394,
    "\u2581extension": 5395,
    "\u2581predecessor": 5396,
    "\u2581suspension": 5397,
    "\u2581temporarily": 5398,
    "\u2581tragedy": 5399,
    "\u2581Uganda": 5400,
    "\u2581Kelly": 5401,
    "\u2581Warren": 5402,
    "\u2581Mosul": 5403,
    "\u2581pardon": 5404,
    "\u2581Mitchell": 5405,
    "\u2581Rafael": 5406,
    "\u2581admission": 5407,
    "\u2581myself": 5408,
    "\u2581gift": 5409,
    "\u2581Omar": 5410,
    "\u2581stepping": 5411,
    "\u2581midfielder": 5412,
    "\u2581visible": 5413,
    "\u2581lung": 5414,
    "\u2581Timor": 5415,
    "\u2581confirmation": 5416,
    "\u2581personality": 5417,
    "\u2581contribute": 5418,
    "\u258115,000": 5419,
    "\u2581Nine": 5420,
    "stone": 5421,
    "\u2581En": 5422,
    "\u2581sustained": 5423,
    "\u2581continent": 5424,
    "\u2581suggestion": 5425,
    "\u2581proof": 5426,
    "\u2581happens": 5427,
    "\u2581teenagers": 5428,
    "\u2581Kia": 5429,
    "\u2581recognized": 5430,
    "\u2581Victoria": 5431,
    "\u2581consequences": 5432,
    "\u2581presumpti": 5433,
    "\u2581Ana": 5434,
    "\u2581shed": 5435,
    "\u2581prisoner": 5436,
    "inch": 5437,
    "\u2581Kar": 5438,
    "\u258114-": 5439,
    "\u2581flooded": 5440,
    "rry": 5441,
    "\u2581personally": 5442,
    "\u2581Moon": 5443,
    "\u2581Pi": 5444,
    "ara": 5445,
    "\u2581Dec": 5446,
    "but": 5447,
    "\u2581trucks": 5448,
    "\u2581pieces": 5449,
    "\u2581USA": 5450,
    "shar": 5451,
    "high": 5452,
    "language": 5453,
    "front": 5454,
    "President": 5455,
    "have": 5456,
    "speed": 5457,
    "selling": 5458,
    "\u2581fame": 5459,
    "\u258178": 5460,
    "Some": 5461,
    "\u2581risks": 5462,
    "gar": 5463,
    "\u2581abuses": 5464,
    "cha": 5465,
    "\u2581trick": 5466,
    "je": 5467,
    "\u2581defending": 5468,
    "car": 5469,
    "\u2581wood": 5470,
    "\u2581download": 5471,
    "\u2581Ahmadi": 5472,
    "\u2581instant": 5473,
    "\u2581sudden": 5474,
    "\u2581rapid": 5475,
    "\u2581secular": 5476,
    "\u2581Yemen": 5477,
    "\u2581prior": 5478,
    "\u2581Craig": 5479,
    "\u2581Politic": 5480,
    "\u2581Fortune": 5481,
    "\u2581Jolie": 5482,
    "\u2581Nicole": 5483,
    "\u2581Securities": 5484,
    "\u2581Stadium": 5485,
    "\u2581entrance": 5486,
    "\u2581impoverished": 5487,
    "\u2581mandatory": 5488,
    "\u2581meanwhile": 5489,
    "\u2581aftermath": 5490,
    "\u2581elsewhere": 5491,
    "\u2581rubble": 5492,
    "\u2581shook": 5493,
    "\u2581Houston": 5494,
    "\u2581everywhere": 5495,
    "\u2581massacre": 5496,
    "\u2581employment": 5497,
    "\u2581opposite": 5498,
    "\u2581permission": 5499,
    "\u25811986": 5500,
    "\u2581shutdown": 5501,
    "\u2581extinct": 5502,
    "\u2581Drug": 5503,
    "\u2581Discovery": 5504,
    "\u2581hunger": 5505,
    "\u2581remarkable": 5506,
    "\u2581outlook": 5507,
    "\u2581Kentucky": 5508,
    "\u2581Bad": 5509,
    "\u2581spirit": 5510,
    "\u2581overcome": 5511,
    "\u2581Stern": 5512,
    "\u2581v": 5513,
    "\u2581DVD": 5514,
    "\u2581Bowl": 5515,
    "\u2581advised": 5516,
    "\u2581communicate": 5517,
    "\u2581impeachment": 5518,
    "\u2581colonial": 5519,
    "\u2581client": 5520,
    "\u2581unprecedented": 5521,
    "\u2581guest": 5522,
    "\u2581Philippine": 5523,
    "\u2581spa": 5524,
    "\u2581ranking": 5525,
    "\u2581cow": 5526,
    "\u2581ambitions": 5527,
    "\u2581Heart": 5528,
    "\u2581Right": 5529,
    "\u258188": 5530,
    "\u2581serves": 5531,
    "\u2581swing": 5532,
    "\u2581separated": 5533,
    "\u2581theft": 5534,
    "\u258118-": 5535,
    "\u2581fighter": 5536,
    "\u2581Rob": 5537,
    "\u2581badly": 5538,
    "\u2581leftist": 5539,
    "\u2581songs": 5540,
    "\u2581Ph": 5541,
    "ford": 5542,
    "\u2581plent": 5543,
    "\u258140-": 5544,
    "\u2581influ": 5545,
    "ug": 5546,
    "\u2581gather": 5547,
    "\u2581covering": 5548,
    "\u2581missions": 5549,
    "\u2581returns": 5550,
    "After": 5551,
    "Now": 5552,
    "\u2581lie": 5553,
    "\u2581producers": 5554,
    "\u2581wash": 5555,
    "\u2581grant": 5556,
    "\u2581posting": 5557,
    "\u2581sentences": 5558,
    "\u2581engineer": 5559,
    "\u2581moments": 5560,
    "\u258127-": 5561,
    "\u2581Football": 5562,
    "llor": 5563,
    "\u2581attacking": 5564,
    "\u2581procedures": 5565,
    "\u2581frequent": 5566,
    "\u2581reverse": 5567,
    "\u258129,": 5568,
    "\u2581thinks": 5569,
    "\u2581rent": 5570,
    "\u2581Yeltsin": 5571,
    "\u2581burial": 5572,
    "\u2581diplomacy": 5573,
    "\u2581legislature": 5574,
    "\u2581opportunities": 5575,
    "\u2581suspicious": 5576,
    "\u2581Arctic": 5577,
    "\u2581Karachi": 5578,
    "\u2581Rowling": 5579,
    "\u2581combination": 5580,
    "\u2581consumption": 5581,
    "\u2581wreckage": 5582,
    "\u2581regret": 5583,
    "\u2581dating": 5584,
    "\u2581Brad": 5585,
    "\u2581displaced": 5586,
    "\u2581vulnerable": 5587,
    "\u2581selection": 5588,
    "\u2581discount": 5589,
    "\u258131,": 5590,
    "\u2581respectively": 5591,
    "\u2581outstanding": 5592,
    "ami": 5593,
    "14": 5594,
    "\u2581elderly": 5595,
    "\u2581dropping": 5596,
    "\u2581platform": 5597,
    "\u2581youngest": 5598,
    "\u2581method": 5599,
    "\u2581shark": 5600,
    "\u2581frequently": 5601,
    "\u2581realized": 5602,
    "\u2581operated": 5603,
    "ain": 5604,
    "\u2581bottle": 5605,
    "\u2581noticed": 5606,
    "\u2581lending": 5607,
    "\u2581crews": 5608,
    "\u2581accompani": 5609,
    "\u2581elect": 5610,
    "\u2581speaker": 5611,
    "\u2581guidelines": 5612,
    "\u2581writer": 5613,
    "\u2581gate": 5614,
    "\u2581insists": 5615,
    "\u2581mounting": 5616,
    "\u2581Station": 5617,
    "31": 5618,
    "\u2581economists": 5619,
    "\u2581islands": 5620,
    "llied": 5621,
    "\u2581launching": 5622,
    "\u2581pages": 5623,
    "So": 5624,
    "bar": 5625,
    "\u2581Wood": 5626,
    "\u2581shareholders": 5627,
    "pper": 5628,
    "\u2581protected": 5629,
    "380": 5630,
    "\u2581responding": 5631,
    "cious": 5632,
    "\u2581rains": 5633,
    "\u2581interviews": 5634,
    "\u2581explosions": 5635,
    "\u2581pray": 5636,
    "26": 5637,
    "\u258111,": 5638,
    "\u2581rebuild": 5639,
    "itz": 5640,
    "\u2581Shi": 5641,
    "ats": 5642,
    "\u2581Nov": 5643,
    "\u2581airlines": 5644,
    "\u2581prefer": 5645,
    "\u2581flags": 5646,
    "\u2581cr": 5647,
    "\u2581predict": 5648,
    "\u2581writers": 5649,
    "\u2581fundamental": 5650,
    "\u2581Ronald": 5651,
    "\u2581Channel": 5652,
    "\u2581Denver": 5653,
    "\u2581Military": 5654,
    "\u2581PARIS": 5655,
    "\u2581Vienna": 5656,
    "\u2581bacteria": 5657,
    "\u2581crunch": 5658,
    "\u2581insurgency": 5659,
    "\u2581penalties": 5660,
    "\u2581regain": 5661,
    "\u2581stabilize": 5662,
    "\u2581telescope": 5663,
    "\u2581Small": 5664,
    "\u2581vision": 5665,
    "\u2581motorcycle": 5666,
    "\u2581celebrities": 5667,
    "\u2581Auto": 5668,
    "\u2581disorder": 5669,
    "\u2581reconstruction": 5670,
    "\u2581Miller": 5671,
    "\u2581advisor": 5672,
    "\u2581acid": 5673,
    "\u2581thick": 5674,
    "\u2581mice": 5675,
    "\u2581endorsement": 5676,
    "\u2581fake": 5677,
    "cover": 5678,
    "\u2581rebound": 5679,
    "\u2581Play": 5680,
    "\u2581exciting": 5681,
    "\u2581Flight": 5682,
    "\u2581emphasized": 5683,
    "\u2581watchers": 5684,
    "town": 5685,
    "\u2581Lewis": 5686,
    "\u2581wrapped": 5687,
    "\u2581complicated": 5688,
    "\u2581remov": 5689,
    "\u258150,000": 5690,
    "\u2581Simon": 5691,
    "\u2581procedure": 5692,
    "\u2581mo": 5693,
    "dom": 5694,
    "\u2581activist": 5695,
    "story": 5696,
    "\u2581longest": 5697,
    "\u258181": 5698,
    "\u2581designer": 5699,
    "\u2581interior": 5700,
    "\u2581publicist": 5701,
    "\u2581Art": 5702,
    "\u2581killer": 5703,
    "\u2581Sao": 5704,
    "\u2581rough": 5705,
    "\u2581tru": 5706,
    "ins": 5707,
    "\u2581jobless": 5708,
    "\u2581politically": 5709,
    "27": 5710,
    "\u2581Tae": 5711,
    "NA": 5712,
    "\u2581sing": 5713,
    "\u2581tomb": 5714,
    "\u2581acknowledge": 5715,
    "ky": 5716,
    "\u2581?": 5717,
    "\u2581expanding": 5718,
    "\u258185": 5719,
    "\u2581waited": 5720,
    "\u2581silence": 5721,
    "\u2581Call": 5722,
    "\u2581quote": 5723,
    "\u2581opt": 5724,
    "\u2581ads": 5725,
    "ray": 5726,
    "author": 5727,
    "Pacific": 5728,
    "\u2581tap": 5729,
    "ise": 5730,
    "\u2581Mir": 5731,
    "\u2581Sadr": 5732,
    "\u2581fees": 5733,
    "\u2581stages": 5734,
    "\u2581Woo": 5735,
    "\u258125-": 5736,
    "\u2581exam": 5737,
    "\u2581Yoo": 5738,
    "\u2581diseases": 5739,
    "\u2581Alabama": 5740,
    "\u2581Alzheimer": 5741,
    "\u2581Conference": 5742,
    "\u2581Kyodo": 5743,
    "\u2581Kyoto": 5744,
    "\u2581Madonna": 5745,
    "\u2581analysis": 5746,
    "\u2581bargain": 5747,
    "\u2581closure": 5748,
    "\u2581cocaine": 5749,
    "\u2581competing": 5750,
    "\u2581statistics": 5751,
    "\u2581universities": 5752,
    "\u2581vitamin": 5753,
    "\u2581infrastructure": 5754,
    "\u2581mood": 5755,
    "\u2581peacekeeping": 5756,
    "\u2581wrongdoing": 5757,
    "\u2581Mideast": 5758,
    "\u2581cholesterol": 5759,
    "\u2581emerging": 5760,
    "\u2581videotape": 5761,
    "\u2581reunit": 5762,
    "\u2581chamber": 5763,
    "\u2581fault": 5764,
    "\u2581Blitzer": 5765,
    "\u2581Member": 5766,
    "\u2581gray": 5767,
    "\u2581mud": 5768,
    "\u2581Seung": 5769,
    "\u2581awareness": 5770,
    "\u2581Liberal": 5771,
    "eastern": 5772,
    "\u2581el": 5773,
    "avy": 5774,
    "enior": 5775,
    "\u2581robot": 5776,
    "\u2581publisher": 5777,
    "\u2581conviction": 5778,
    "\u2581infection": 5779,
    "\u2581Tiger": 5780,
    "ney": 5781,
    "\u2581monkey": 5782,
    "\u2581Ex": 5783,
    "\u2581flame": 5784,
    "\u258167": 5785,
    "\u2581hiding": 5786,
    "\u2581bone": 5787,
    "\u2581shipping": 5788,
    "\u25817,": 5789,
    "\u2581Mil": 5790,
    "\u2581Kun": 5791,
    "\u2581hero": 5792,
    "\u2581fined": 5793,
    "\u2581topic": 5794,
    "\u2581accidents": 5795,
    "\u2581$700": 5796,
    "\u2581Ad": 5797,
    "\u2581trips": 5798,
    "\u2581core": 5799,
    "hye": 5800,
    "\u2581guerrillas": 5801,
    "\u2581Rose": 5802,
    "\u2581mere": 5803,
    "\u2581interviewed": 5804,
    "\u2581enjoyed": 5805,
    "\u2581fat": 5806,
    "\u2581Rev": 5807,
    "\u2581Fred": 5808,
    "work": 5809,
    "pping": 5810,
    "\u2581artists": 5811,
    "\u2581campaigns": 5812,
    "\u2581supporter": 5813,
    "\u2581slip": 5814,
    "class": 5815,
    "\u2581iron": 5816,
    "\u2581mile": 5817,
    "\u2581fulfill": 5818,
    "\u2581mountains": 5819,
    "\u2581borders": 5820,
    "ok": 5821,
    "\u2581connect": 5822,
    "\u2581lunch": 5823,
    "\u2581prov": 5824,
    "\u2581scrap": 5825,
    "ER": 5826,
    "An": 5827,
    "95": 5828,
    "\u2581methods": 5829,
    "\u2581searched": 5830,
    "pinion": 5831,
    "\u2581Argentine": 5832,
    "\u2581Benjamin": 5833,
    "\u2581Bureau": 5834,
    "\u2581Democracy": 5835,
    "\u2581Oregon": 5836,
    "\u2581Roddick": 5837,
    "\u2581SEOUL": 5838,
    "\u2581Schwarzenegger": 5839,
    "\u2581Summer": 5840,
    "\u2581Vermont": 5841,
    "\u2581Weather": 5842,
    "\u2581Witness": 5843,
    "\u2581asylum": 5844,
    "\u2581bolster": 5845,
    "\u2581distress": 5846,
    "\u2581gesture": 5847,
    "\u2581intervention": 5848,
    "\u2581landscape": 5849,
    "\u2581principal": 5850,
    "\u2581pyramid": 5851,
    "\u2581scoring": 5852,
    "\u2581tiger": 5853,
    "\u2581Index": 5854,
    "\u2581palm": 5855,
    "\u2581anchor": 5856,
    "\u2581Wilson": 5857,
    "\u2581tribute": 5858,
    "\u2581devote": 5859,
    "\u2581fortune": 5860,
    "\u2581Terry": 5861,
    "\u2581Singh": 5862,
    "\u2581Oct": 5863,
    "\u2581Anderson": 5864,
    "\u2581dying": 5865,
    "\u2581subway": 5866,
    "\u2581unique": 5867,
    "\u2581passage": 5868,
    "\u2581Nick": 5869,
    "\u25812-1": 5870,
    "UL": 5871,
    "\u2581Yangon": 5872,
    "\u2581embrace": 5873,
    "\u2581prestig": 5874,
    "\u2581charter": 5875,
    "\u2581princess": 5876,
    "\u2581output": 5877,
    "\u2581Follow": 5878,
    "\u2581wider": 5879,
    "\u2581Forest": 5880,
    "\u2581hearts": 5881,
    "48": 5882,
    "\u2581dawn": 5883,
    "\u2581clubs": 5884,
    "\u2581shield": 5885,
    "act": 5886,
    "\u2581landslide": 5887,
    "\u2581argument": 5888,
    "\u258182": 5889,
    "\u2581opponent": 5890,
    "\u2581qualifying": 5891,
    "\u2581height": 5892,
    "\u2581surveyed": 5893,
    "int": 5894,
    "\u2581Holy": 5895,
    "ential": 5896,
    "\u2581crowded": 5897,
    "\u25817-": 5898,
    "suk": 5899,
    "\u2581hanging": 5900,
    "\u2581rulers": 5901,
    "\u2581urgent": 5902,
    "\u2581offenders": 5903,
    "\u2581crossing": 5904,
    "\u2581harder": 5905,
    "\u2581Hills": 5906,
    "\u2581Ge": 5907,
    "\u2581mistakes": 5908,
    "\u2581Gi": 5909,
    "\u2581skills": 5910,
    "ani": 5911,
    "\u258157": 5912,
    "vin": 5913,
    "seat": 5914,
    "\u2581Wolf": 5915,
    "\u258113-": 5916,
    "\u2581aired": 5917,
    "47": 5918,
    "ified": 5919,
    "rk": 5920,
    "tent": 5921,
    "era": 5922,
    "scale": 5923,
    "85": 5924,
    "\u2581flee": 5925,
    "\u2581minds": 5926,
    "\u2581imp": 5927,
    "lon": 5928,
    "making": 5929,
    "Qaeda": 5930,
    "founder": 5931,
    "\u2581ratings": 5932,
    "\u2581Sc": 5933,
    "lan": 5934,
    "oc": 5935,
    "\u2581root": 5936,
    "\u258171": 5937,
    "\u2581reflects": 5938,
    "\u2581cats": 5939,
    "\u2581shell": 5940,
    "\u2581restrict": 5941,
    "she": 5942,
    "\u2581sectors": 5943,
    "\u2581chip": 5944,
    "\u2581rounds": 5945,
    "take": 5946,
    "\u2581Bon": 5947,
    "\u2581actual": 5948,
    "\u2581convince": 5949,
    "\u2581signing": 5950,
    "\u2581bottles": 5951,
    "ez": 5952,
    "\u2581decrease": 5953,
    "\u2581introduce": 5954,
    "\u2581branch": 5955,
    "ire": 5956,
    "bra": 5957,
    "\u2581Everest": 5958,
    "\u2581Facebook": 5959,
    "\u2581cautious": 5960,
    "\u2581curfew": 5961,
    "\u2581dioxide": 5962,
    "\u2581equity": 5963,
    "\u2581kidnappers": 5964,
    "\u2581pilgrims": 5965,
    "\u2581romantic": 5966,
    "\u2581tumor": 5967,
    "\u2581evil": 5968,
    "\u2581Kandahar": 5969,
    "\u2581Tampa": 5970,
    "\u2581resistance": 5971,
    "\u2581Henin": 5972,
    "\u2581Helmand": 5973,
    "\u2581registration": 5974,
    "\u2581distribution": 5975,
    "\u2581echo": 5976,
    "\u2581teeth": 5977,
    "\u2581Cooperation": 5978,
    "\u2581proceedings": 5979,
    "\u2581Ahmed": 5980,
    "\u2581$40": 5981,
    "\u2581tea": 5982,
    "uk": 5983,
    "\u25816-2": 5984,
    "\u2581Bear": 5985,
    "ular": 5986,
    "\u2581refusal": 5987,
    "\u2581trafficking": 5988,
    "\u2581Sheikh": 5989,
    "\u2581sail": 5990,
    "\u2581Nikk": 5991,
    "\u2581Libyan": 5992,
    "\u2581theme": 5993,
    "\u2581useful": 5994,
    "\u2581zero": 5995,
    "\u2581Chang": 5996,
    "\u2581300,000": 5997,
    "\u2581expell": 5998,
    "\u2581CDC": 5999,
    "\u2581anticipated": 6000,
    "\u2581argue": 6001,
    "\u2581technique": 6002,
    "\u2581application": 6003,
    "\u2581remark": 6004,
    "\u2581temperature": 6005,
    "\u2581novel": 6006,
    "\u2581checks": 6007,
    "\u2581Palm": 6008,
    "\u2581collected": 6009,
    "Mart": 6010,
    "\u2581guarantees": 6011,
    "\u2581preventing": 6012,
    "\u2581presidents": 6013,
    "\u2581lists": 6014,
    "\u2581mon": 6015,
    "\u2581chat": 6016,
    "\u2581160": 6017,
    "\u2581ideal": 6018,
    "08": 6019,
    "cular": 6020,
    "\u2581hunting": 6021,
    "\u2581divide": 6022,
    "18": 6023,
    "\u258117-": 6024,
    "maker": 6025,
    "\u2581dam": 6026,
    "On": 6027,
    "teen": 6028,
    "rie": 6029,
    "held": 6030,
    "thy": 6031,
    "surge": 6032,
    "\u2581requests": 6033,
    "\u2581pressed": 6034,
    "\u2581strategic": 6035,
    "ball": 6036,
    "\u2581paint": 6037,
    "\u2581movements": 6038,
    "\u2581Win": 6039,
    "Ma": 6040,
    "\u2581resolv": 6041,
    "-3": 6042,
    "\u258119-": 6043,
    "\u2581jets": 6044,
    "\u2581detain": 6045,
    "\u258150-": 6046,
    "\u2581repeat": 6047,
    "\u2581rely": 6048,
    "\u2581crush": 6049,
    "\u2581slump": 6050,
    "wo": 6051,
    "-2": 6052,
    "\u25812002.": 6053,
    "\u2581Cooper": 6054,
    "\u2581Amnesty": 6055,
    "\u2581Bernanke": 6056,
    "\u2581Interpol": 6057,
    "\u2581Pittsburgh": 6058,
    "\u2581Zardari": 6059,
    "\u2581applied": 6060,
    "\u2581elaborate": 6061,
    "\u2581industries": 6062,
    "\u2581motive": 6063,
    "\u2581sacrifice": 6064,
    "\u2581comply": 6065,
    "\u2581radar": 6066,
    "\u2581denial": 6067,
    "\u2581exceed": 6068,
    "\u2581participating": 6069,
    "\u2581Lahore": 6070,
    "\u2581afraid": 6071,
    "\u2581garden": 6072,
    "\u2581Campbell": 6073,
    "\u2581enormous": 6074,
    "\u2581prostitution": 6075,
    "\u2581optimistic": 6076,
    "\u2581Ramos": 6077,
    "\u2581Hubble": 6078,
    "\u2581Haiti": 6079,
    "\u2581gunshot": 6080,
    "\u2581Wayne": 6081,
    "\u2581existence": 6082,
    "\u2581Brian": 6083,
    "\u2581yourself": 6084,
    "\u2581Christie": 6085,
    "\u2581Cheong": 6086,
    "\u2581manipulation": 6087,
    "\u2581residential": 6088,
    "\u2581branches": 6089,
    "\u2581regardless": 6090,
    "\u2581mutual": 6091,
    "\u2581ignored": 6092,
    "pre": 6093,
    "\u2581summoned": 6094,
    "\u2581taste": 6095,
    "\u2581refuse": 6096,
    "hor": 6097,
    "\u2581distributed": 6098,
    "\u2581Hindu": 6099,
    "\u2581separatist": 6100,
    "\u2581substance": 6101,
    "Let": 6102,
    "\u2581Game": 6103,
    "my": 6104,
    "\u2581manage": 6105,
    "\u2581shortage": 6106,
    "\u2581tanker": 6107,
    "\u2581hostil": 6108,
    "\u2581Love": 6109,
    "\u2581Israelis": 6110,
    "\u2581critically": 6111,
    "\u2581blog": 6112,
    "\u2581imagine": 6113,
    "tta": 6114,
    "hy": 6115,
    "\u2581transactions": 6116,
    "\u2581dates": 6117,
    "\u2581commanders": 6118,
    "\u2581Part": 6119,
    "\u2581agreements": 6120,
    "\u2581intends": 6121,
    "ui": 6122,
    "freezing": 6123,
    "\u2581totally": 6124,
    "\u2581Transport": 6125,
    "05": 6126,
    "ude": 6127,
    "color": 6128,
    "chang": 6129,
    "Today": 6130,
    "\u2581End": 6131,
    "ira": 6132,
    "\u2581wrap": 6133,
    "\u2581select": 6134,
    "ock": 6135,
    "\u2581honored": 6136,
    "\u2581Islands": 6137,
    "\u2581disputes": 6138,
    "lar": 6139,
    "\u2581widow": 6140,
    "\u2581recruit": 6141,
    "\u2581supports": 6142,
    "\u2581Cambodia": 6143,
    "\u2581Antarctic": 6144,
    "\u2581enrich": 6145,
    "\u2581Belgium": 6146,
    "\u2581Broadway": 6147,
    "\u2581FIFA": 6148,
    "\u2581Family": 6149,
    "\u2581Ferguson": 6150,
    "\u2581eager": 6151,
    "\u2581enemies": 6152,
    "\u2581primarily": 6153,
    "\u2581tribunal": 6154,
    "\u2581visual": 6155,
    "\u2581Animal": 6156,
    "\u2581venture": 6157,
    "\u2581reputation": 6158,
    "\u2581proliferation": 6159,
    "\u2581anywhere": 6160,
    "\u2581FDA": 6161,
    "\u2581deadlock": 6162,
    "\u2581spike": 6163,
    "\u2581Taiwanese": 6164,
    "\u2581engagement": 6165,
    "\u2581Reid": 6166,
    "\u2581sworn": 6167,
    "\u2581Luis": 6168,
    "\u2581centered": 6169,
    "\u2581contacted": 6170,
    "\u2581fastest": 6171,
    "\u2581sprawling": 6172,
    "\u2581Angela": 6173,
    "\u2581postponed": 6174,
    "\u2581Paulson": 6175,
    "\u2581competitive": 6176,
    "\u2581mall": 6177,
    "\u2581parade": 6178,
    "\u2581wonderful": 6179,
    "\u2581sorry": 6180,
    "\u2581epic": 6181,
    "\u2581Twenty": 6182,
    "\u2581automatic": 6183,
    "\u2581Casey": 6184,
    "\u2581Idol": 6185,
    "az": 6186,
    "\u2581depth": 6187,
    "\u2581Sept": 6188,
    "\u258140,000": 6189,
    "\u2581Oprah": 6190,
    "uri": 6191,
    "\u2581loud": 6192,
    "\u2581riots": 6193,
    "\u2581Price": 6194,
    "\u2581Back": 6195,
    "\u2581Gang": 6196,
    "\u2581revised": 6197,
    "nic": 6198,
    "night": 6199,
    "ose": 6200,
    "\u2581doubled": 6201,
    "\u2581Amy": 6202,
    "\u2581regularly": 6203,
    "org": 6204,
    "\u2581entirely": 6205,
    "\u2581offense": 6206,
    "\u2581toilet": 6207,
    "\u2581operator": 6208,
    "\u2581twin": 6209,
    "\u2581ranch": 6210,
    "\u2581visits": 6211,
    "\u2581undergoing": 6212,
    "\u2581sealed": 6213,
    "\u2581kicked": 6214,
    "Iraq": 6215,
    "\u2581bears": 6216,
    "\u2581eggs": 6217,
    "\u2581deposit": 6218,
    "\u2581rivers": 6219,
    "\u2581hits": 6220,
    "\u2581expanded": 6221,
    "ual": 6222,
    "(": 6223,
    "\u2581investments": 6224,
    "\u2581defender": 6225,
    "\u2581profile": 6226,
    "\u25818,": 6227,
    "\u2581Va": 6228,
    "\u2581polar": 6229,
    "\u2581spin": 6230,
    "\u2581paintings": 6231,
    "\u2581canal": 6232,
    "\u2581buyers": 6233,
    "yong": 6234,
    "\u2581admit": 6235,
    "\u2581Am": 6236,
    "\u2581Ve": 6237,
    "ect": 6238,
    "let": 6239,
    "nam": 6240,
    "\u2581intent": 6241,
    "\u2581refer": 6242,
    "\u2581st": 6243,
    "\u2581Wi": 6244,
    "\u2581screening": 6245,
    "\u2581photographers": 6246,
    "\u2581Pre": 6247,
    "sumption": 6248,
    "are": 6249,
    "\u2581Fa": 6250,
    "\u2581PM": 6251,
    "\u2581po": 6252,
    "\u2581cla": 6253,
    "\u2581tanks": 6254,
    "\u2581exclusive": 6255,
    "ence": 6256,
    "\u2581liquid": 6257,
    "\u2581compil": 6258,
    "\u2581Grammy": 6259,
    "Zawahiri": 6260,
    "\u25811982": 6261,
    "\u2581Atlantis": 6262,
    "\u2581Beirut": 6263,
    "\u2581Burmese": 6264,
    "\u2581Dallas": 6265,
    "\u2581DiCaprio": 6266,
    "\u2581Hitler": 6267,
    "\u2581ISLAMABAD": 6268,
    "\u2581Kremlin": 6269,
    "\u2581Maradona": 6270,
    "\u2581Mercury": 6271,
    "\u2581NBA": 6272,
    "\u2581Panama": 6273,
    "\u2581Swedish": 6274,
    "\u2581asteroid": 6275,
    "\u2581diabetes": 6276,
    "\u2581dismantling": 6277,
    "\u2581equivalent": 6278,
    "\u2581pioneer": 6279,
    "\u2581skull": 6280,
    "\u2581Citigroup": 6281,
    "\u2581audio": 6282,
    "\u2581rallied": 6283,
    "\u2581comprehensive": 6284,
    "\u2581eligib": 6285,
    "\u2581therefore": 6286,
    "\u2581Relations": 6287,
    "\u2581kidney": 6288,
    "\u2581spectacular": 6289,
    "\u2581billionaire": 6290,
    "\u2581Short": 6291,
    "\u25812010.": 6292,
    "\u2581probation": 6293,
    "Man": 6294,
    "\u2581Kyung": 6295,
    "\u25811979": 6296,
    "\u2581laser": 6297,
    "\u2581elite": 6298,
    "\u2581weakness": 6299,
    "\u2581Knight": 6300,
    "\u2581Mountain": 6301,
    "\u2581comfortable": 6302,
    "\u2581outdoor": 6303,
    "\u2581disruption": 6304,
    "\u25816-1": 6305,
    "\u2581executions": 6306,
    "\u2581grabb": 6307,
    "\u2581Lord": 6308,
    "\u2581populated": 6309,
    "\u2581prolonged": 6310,
    "\u2581Serbian": 6311,
    "\u2581fee": 6312,
    "\u2581Allen": 6313,
    "\u2581counterfeiting": 6314,
    "\u2581Ken": 6315,
    "\u2581Music": 6316,
    "\u2581Beatles": 6317,
    "\u2581withdrawn": 6318,
    "\u2581hired": 6319,
    "\u2581slide": 6320,
    "chan": 6321,
    "\u2581laundering": 6322,
    "\u2581Sch": 6323,
    "log": 6324,
    "\u2581achieved": 6325,
    "\u2581infant": 6326,
    "\u2581jungle": 6327,
    "\u2581Every": 6328,
    "\u2581evacuation": 6329,
    "\u2581vaccine": 6330,
    "\u2581temple": 6331,
    "\u2581embryo": 6332,
    "\u2581nose": 6333,
    "\u2581championship": 6334,
    "\u2581checkpoint": 6335,
    "\u2581shoe": 6336,
    "\u2581Mor": 6337,
    "\u2581FTA": 6338,
    "\u2581photographer": 6339,
    "\u2581fleeing": 6340,
    "\u2581surged": 6341,
    "mit": 6342,
    "\u2581Jin": 6343,
    "\u2581recovering": 6344,
    "\u2581secured": 6345,
    "\u2581elements": 6346,
    "\u2581donations": 6347,
    "\u258118,": 6348,
    "\u2581obligations": 6349,
    "\u2581steal": 6350,
    "ozens": 6351,
    "\u2581recommendations": 6352,
    "\u2581raped": 6353,
    "was": 6354,
    "\u2581Sh": 6355,
    "\u2581represented": 6356,
    "\u2581Eve": 6357,
    "\u258177": 6358,
    "AL": 6359,
    "\u2581appearances": 6360,
    "\u2581barriers": 6361,
    "\u2581blocks": 6362,
    "\u2581($2": 6363,
    "\u2581counsel": 6364,
    "\u2581kiss": 6365,
    "\u2581$11": 6366,
    "val": 6367,
    "\u2581disrupt": 6368,
    "\u2581hang": 6369,
    "\u2581applications": 6370,
    "mber": 6371,
    "under": 6372,
    "\u2581broadcasting": 6373,
    "\u2581slight": 6374,
    "\u2581overwhelming": 6375,
    "\u2581bo": 6376,
    "\u2581depict": 6377,
    "\u2581$15": 6378,
    "\u2581accompany": 6379,
    "\u2581Dakota": 6380,
    "\u2581Geneva": 6381,
    "\u2581Grenada": 6382,
    "\u2581Kaesong": 6383,
    "\u2581Norwegian": 6384,
    "\u2581Thompson": 6385,
    "\u2581academic": 6386,
    "\u2581breakfast": 6387,
    "\u2581conglomerate": 6388,
    "\u2581dolphin": 6389,
    "\u2581explanation": 6390,
    "\u2581incumbent": 6391,
    "\u2581lecture": 6392,
    "\u2581smuggling": 6393,
    "\u2581strategist": 6394,
    "\u2581volatile": 6395,
    "\u2581Fossett": 6396,
    "\u2581Company": 6397,
    "\u2581Henley": 6398,
    "\u2581Statistic": 6399,
    "\u2581guess": 6400,
    "\u2581Mosque": 6401,
    "\u2581participation": 6402,
    "\u2581ivory": 6403,
    "\u2581fingerprint": 6404,
    "\u2581subprime": 6405,
    "\u2581subsequent": 6406,
    "\u2581rhetoric": 6407,
    "\u2581Heathrow": 6408,
    "\u2581epicenter": 6409,
    "\u2581Geological": 6410,
    "\u2581financing": 6411,
    "\u2581hidden": 6412,
    "\u2581swine": 6413,
    "\u2581kingdom": 6414,
    "\u2581Strait": 6415,
    "ving": 6416,
    "\u25811988": 6417,
    "\u2581graphic": 6418,
    "\u2581Norway": 6419,
    "\u2581Danish": 6420,
    "\u2581trademark": 6421,
    "\u2581observation": 6422,
    "\u2581mountainous": 6423,
    "\u2581definitely": 6424,
    "\u2581overhaul": 6425,
    "\u25812-0": 6426,
    "\u2581encouraging": 6427,
    "\u2581mandate": 6428,
    "\u2581rampage": 6429,
    "\u25817,000": 6430,
    "\u2581Cristian": 6431,
    "\u2581Cambodian": 6432,
    "\u2581examination": 6433,
    "\u2581Share": 6434,
    "\u2581agriculture": 6435,
    "\u2581vers": 6436,
    "\u2581marry": 6437,
    "\u2581genocide": 6438,
    "\u2581confessed": 6439,
    "\u2581setback": 6440,
    "\u2581shouted": 6441,
    "\u2581amazing": 6442,
    "\u2581br": 6443,
    "Q": 6444,
    "\u2581armor": 6445,
    "\u2581wealthy": 6446,
    "\u2581smashed": 6447,
    "\u2581Pen": 6448,
    "gan": 6449,
    "19": 6450,
    "\u2581interfer": 6451,
    "\u2581settled": 6452,
    "\u2581sc": 6453,
    "virtually": 6454,
    "\u2581dispatched": 6455,
    "\u2581clues": 6456,
    "\u2581severely": 6457,
    "\u2581celebrating": 6458,
    "\u2581belief": 6459,
    "\u2581challenged": 6460,
    "\u2581cafe": 6461,
    "\u2581muscle": 6462,
    "\u2581rifle": 6463,
    "\u2581Carl": 6464,
    "\u2581peacefully": 6465,
    "\u2581inspection": 6466,
    "\u2581customer": 6467,
    "\u25811950-": 6468,
    "\u2581implemented": 6469,
    "\u2581Electronics": 6470,
    "\u2581machines": 6471,
    "\u2581Geu": 6472,
    "\u2581Val": 6473,
    "\u2581immigrants": 6474,
    "ets": 6475,
    "fin": 6476,
    "\u2581forms": 6477,
    "\u2581privately": 6478,
    "\u2581warrants": 6479,
    "\u2581odds": 6480,
    "\u2581managers": 6481,
    "\u2581preparations": 6482,
    "\u25813,": 6483,
    "friendly": 6484,
    "\u258132-": 6485,
    "\u2581detect": 6486,
    "\u2581surveys": 6487,
    "\u2581Tu": 6488,
    "\u2581disc": 6489,
    "\u2581undergo": 6490,
    "97": 6491,
    "\u2581northwester": 6492,
    "\u2581involves": 6493,
    "\u2581limits": 6494,
    "\u2581Gra": 6495,
    "\u2581coincide": 6496,
    "\u2581holes": 6497,
    "\u2581user": 6498,
    "\u2581feelings": 6499,
    "\u2581aims": 6500,
    "\u2581unfair": 6501,
    "\u2581disclose": 6502,
    "\u2581obvious": 6503,
    "\u2581smile": 6504,
    "\u2581str": 6505,
    "cher": 6506,
    "ries": 6507,
    "\u2581triumph": 6508,
    "\u2581blind": 6509,
    "\u2581Connecticut": 6510,
    "\u2581Diyala": 6511,
    "\u2581Nawaz": 6512,
    "\u2581Osaka": 6513,
    "\u2581challenging": 6514,
    "\u2581impressive": 6515,
    "\u2581ransom": 6516,
    "\u2581slush": 6517,
    "\u2581toddler": 6518,
    "\u2581verify": 6519,
    "\u2581IBM": 6520,
    "\u2581animated": 6521,
    "\u2581convey": 6522,
    "\u2581ultra": 6523,
    "\u2581warehouse": 6524,
    "\u2581ceremonies": 6525,
    "ennifer": 6526,
    "\u2581crocodile": 6527,
    "\u2581Greenpeace": 6528,
    "\u2581gender": 6529,
    "\u2581leap": 6530,
    "\u2581beautiful": 6531,
    "\u2581Operation": 6532,
    "\u2581laboratory": 6533,
    "\u2581Iceland": 6534,
    "\u2581Jacques": 6535,
    "\u2581excessive": 6536,
    "\u2581Bridge": 6537,
    "\u2581Bruni": 6538,
    "\u2581Bolton": 6539,
    "\u2581ownership": 6540,
    "\u2581factories": 6541,
    "\u2581disable": 6542,
    "\u2581Juan": 6543,
    "\u2581constitute": 6544,
    "\u2581Minnesota": 6545,
    "\u2581Strip": 6546,
    "\u2581assured": 6547,
    "\u2581hip": 6548,
    "\u2581symptoms": 6549,
    "\u2581carefully": 6550,
    "\u2581falls": 6551,
    "wan": 6552,
    "\u2581duck": 6553,
    "\u2581Environmental": 6554,
    "body": 6555,
    "99": 6556,
    "\u2581yield": 6557,
    "\u2581murders": 6558,
    "\u2581businessman": 6559,
    "\u2581PPP": 6560,
    "\u2581efficient": 6561,
    "\u2581tears": 6562,
    "\u25811.3": 6563,
    "\u2581remind": 6564,
    "\u2581Java": 6565,
    "\u2581Sang": 6566,
    "\u2581drinks": 6567,
    "\u2581Boy": 6568,
    "\u2581gases": 6569,
    "\u2581operational": 6570,
    "aro": 6571,
    "\u2581occasion": 6572,
    "\u2581fines": 6573,
    "\u2581connected": 6574,
    "\u2581Socialist": 6575,
    "\u2581tower": 6576,
    "\u2581roof": 6577,
    "\u2581shar": 6578,
    "\u2581Others": 6579,
    "pposition": 6580,
    "\u2581insurgent": 6581,
    "\u2581volunteer": 6582,
    "\u2581$12": 6583,
    "rous": 6584,
    "\u2581titled": 6585,
    "\u2581weighed": 6586,
    "\u2581households": 6587,
    "\u2581relationships": 6588,
    "\u2581appearing": 6589,
    "\u2581Pu": 6590,
    "\u2581performing": 6591,
    "\u2581Ms": 6592,
    "\u2581slot": 6593,
    "\u2581involve": 6594,
    "\u2581characteriz": 6595,
    "\u2581Tal": 6596,
    "\u2581Lin": 6597,
    "ible": 6598,
    "mat": 6599,
    "ology": 6600,
    "\u2581pit": 6601,
    "\u2581shocked": 6602,
    "\u2581prayers": 6603,
    "\u2581researcher": 6604,
    "\u2581contenders": 6605,
    "12": 6606,
    "gas": 6607,
    "bin": 6608,
    "\u2581traded": 6609,
    "\u2581provision": 6610,
    "\u2581refus": 6611,
    "ants": 6612,
    "\u2581guys": 6613,
    "PA": 6614,
    "\u2581scan": 6615,
    "lia": 6616,
    "either": 6617,
    "\u2581argu": 6618,
    "\u2581checked": 6619,
    "ku": 6620,
    "torn": 6621,
    "\u2581confront": 6622,
    "life": 6623,
    "\u2581cancel": 6624,
    "\u2581hack": 6625,
    "\u2581Age": 6626,
    "\u2581landslides": 6627,
    "\u2581scandals": 6628,
    "\u2581grounds": 6629,
    "\u2581Za": 6630,
    "\u2581intervene": 6631,
    "\u2581Clark": 6632,
    "\u2581Mag": 6633,
    "\u2581clients": 6634,
    "\u2581tornado": 6635,
    "\u2581cult": 6636,
    "\u2581cyber": 6637,
    "\u2581micro": 6638,
    "\u2581Denmark": 6639,
    "\u2581Sevilla": 6640,
    "\u2581Guild": 6641,
    "\u2581Istanbul": 6642,
    "\u2581Johndroe": 6643,
    "\u2581Prevention": 6644,
    "\u2581Shinawatra": 6645,
    "\u2581TOKYO": 6646,
    "\u2581ambitious": 6647,
    "\u2581chicken": 6648,
    "\u2581eBay": 6649,
    "\u2581epidemic": 6650,
    "\u2581grandmother": 6651,
    "\u2581incursion": 6652,
    "\u2581mirror": 6653,
    "\u2581outskirts": 6654,
    "\u2581psychology": 6655,
    "\u2581consent": 6656,
    "\u2581Crocker": 6657,
    "\u2581AIG": 6658,
    "\u2581stunning": 6659,
    "\u2581LPGA": 6660,
    "\u2581desk": 6661,
    "\u2581merger": 6662,
    "\u2581revision": 6663,
    "\u2581Dodi": 6664,
    "\u2581eruption": 6665,
    "\u2581pride": 6666,
    "\u2581willingness": 6667,
    "\u2581Anne": 6668,
    "\u2581Highway": 6669,
    "\u2581Jung": 6670,
    "\u2581hormone": 6671,
    "\u2581essential": 6672,
    "\u2581LG": 6673,
    "\u2581presentation": 6674,
    "\u2581welfare": 6675,
    "\u2581Qa": 6676,
    "\u2581favorable": 6677,
    "\u2581difficulties": 6678,
    "\u2581Ross": 6679,
    "\u2581Bruce": 6680,
    "iscal": 6681,
    "see": 6682,
    "\u2581comeback": 6683,
    "\u2581viruses": 6684,
    "\u2581obviously": 6685,
    "\u2581pronounced": 6686,
    "\u2581unacceptable": 6687,
    "\u2581Plan": 6688,
    "\u2581engines": 6689,
    "\u2581islets": 6690,
    "\u2581belonged": 6691,
    "\u2581dumped": 6692,
    "Al": 6693,
    "\u2581sued": 6694,
    "\u2581contributed": 6695,
    "\u2581lo": 6696,
    "\u2581accounting": 6697,
    "\u2581Ri": 6698,
    "\u2581interi": 6699,
    "\u258111-": 6700,
    "\u2581theaters": 6701,
    "\u258123,": 6702,
    "\u2581daughters": 6703,
    "\u2581railway": 6704,
    "\u2581medication": 6705,
    "\u2581plate": 6706,
    "soon": 6707,
    "\u258176": 6708,
    "\u2581banner": 6709,
    "\u2581investor": 6710,
    "yo": 6711,
    "\u2581commitments": 6712,
    "zi": 6713,
    "\u2581Kha": 6714,
    "pur": 6715,
    "\u2581Parker": 6716,
    "loaded": 6717,
    "erial": 6718,
    "86": 6719,
    "\u2581saving": 6720,
    "ished": 6721,
    "inal": 6722,
    "\u2581taxi": 6723,
    "\u2581halted": 6724,
    "\u2581traders": 6725,
    "vel": 6726,
    "42": 6727,
    "\u2581Cold": 6728,
    "\u2581counted": 6729,
    "\u2581Ji": 6730,
    "producing": 6731,
    "wood": 6732,
    "ection": 6733,
    "\u2581knowing": 6734,
    "\u2581manag": 6735,
    "\u2581criticiz": 6736,
    "stra": 6737,
    "\u2581transit": 6738,
    "\u2581unveil": 6739,
    "\u2581install": 6740,
    "\u2581inmates": 6741,
    "\u2581DA": 6742,
    "\u2581strange": 6743,
    "illa": 6744,
    "\u2581breaks": 6745,
    "itting": 6746,
    "\u2581refuge": 6747,
    "\u2581celebrat": 6748,
    "\u2581ranks": 6749,
    "\u2581demonstrate": 6750,
    "\u2581drunk": 6751,
    "\u2581assess": 6752,
    "\u2581racial": 6753,
    "Horta": 6754,
    "\u2581Belgian": 6755,
    "\u2581FTSE": 6756,
    "\u2581Gonzalez": 6757,
    "\u2581Holland": 6758,
    "\u2581Margaret": 6759,
    "\u2581Murphy": 6760,
    "\u2581Polaroid": 6761,
    "\u2581batteries": 6762,
    "\u2581candidacy": 6763,
    "\u2581imminent": 6764,
    "\u2581junior": 6765,
    "\u2581legacy": 6766,
    "\u2581perception": 6767,
    "\u2581scenario": 6768,
    "\u2581universe": 6769,
    "\u2581Field": 6770,
    "\u2581captors": 6771,
    "\u2581website": 6772,
    "\u2581Cannes": 6773,
    "\u2581Phillies": 6774,
    "\u2581Standard": 6775,
    "\u2581autopsy": 6776,
    "\u2581Wildlife": 6777,
    "\u2581bathroom": 6778,
    "\u2581Montana": 6779,
    "\u2581Perino": 6780,
    "\u2581duties": 6781,
    "\u2581soared": 6782,
    "\u2581Protection": 6783,
    "\u2581phenomenon": 6784,
    "\u2581retaliation": 6785,
    "\u2581spell": 6786,
    "\u2581expedition": 6787,
    "\u2581desperate": 6788,
    "\u2581outfit": 6789,
    "\u2581Lisa": 6790,
    "\u2581pact": 6791,
    "\u2581dedicated": 6792,
    "\u2581Almost": 6793,
    "\u2581Uribe": 6794,
    "\u2581Poor": 6795,
    "\u2581Ethiopian": 6796,
    "\u25813-0": 6797,
    "\u2581indeed": 6798,
    "\u2581hometown": 6799,
    "road": 6800,
    "\u2581Wild": 6801,
    "\u2581consideration": 6802,
    "\u2581lucky": 6803,
    "\u2581Forum": 6804,
    "\u2581Sky": 6805,
    "\u2581diverse": 6806,
    "\u2581midst": 6807,
    "rmal": 6808,
    "\u2581manner": 6809,
    "\u2581assume": 6810,
    "\u2581boxes": 6811,
    "\u2581brave": 6812,
    "1,000": 6813,
    "\u2581mad": 6814,
    "\u2581protein": 6815,
    "jin": 6816,
    "ability": 6817,
    "\u2581Rove": 6818,
    "\u2581approximate": 6819,
    "\u2581Jr": 6820,
    "\u2581belt": 6821,
    "\u2581Gay": 6822,
    "\u2581occupied": 6823,
    "\u2581mourning": 6824,
    "\u2581ballots": 6825,
    "\u2581anybody": 6826,
    "\u2581ear": 6827,
    "\u2581shooter": 6828,
    "\u2581barred": 6829,
    "\u2581breathing": 6830,
    "\u2581Why": 6831,
    "\u2581KEB": 6832,
    "16": 6833,
    "\u2581teaching": 6834,
    "\u2581belonging": 6835,
    "\u2581140": 6836,
    "\u2581handled": 6837,
    "\u2581Little": 6838,
    "\u2581parks": 6839,
    "\u2581restored": 6840,
    "\u2581preserve": 6841,
    "terrorism": 6842,
    "\u2581sponsors": 6843,
    "part": 6844,
    "\u2581ver": 6845,
    ".9": 6846,
    "fully": 6847,
    "\u2581damages": 6848,
    "\u2581billions": 6849,
    "\u2581deserve": 6850,
    "\u2581contribution": 6851,
    "\u2581fixed": 6852,
    "\u2581laptop": 6853,
    "\u2581creature": 6854,
    "\u2581uniform": 6855,
    "\u2581permitt": 6856,
    "\u2581Edward": 6857,
    "\u2581mortar": 6858,
    "\u2581retailers": 6859,
    "cho": 6860,
    "lov": 6861,
    "place": 6862,
    "oh": 6863,
    "\u2581aging": 6864,
    "\u2581troubles": 6865,
    "signed": 6866,
    "\u2581slowed": 6867,
    "\u2581airstrikes": 6868,
    "\u2581explained": 6869,
    "\u2581ca": 6870,
    "\u2581noon": 6871,
    "\u2581Penn": 6872,
    "\u2581choices": 6873,
    "\u2581Fort": 6874,
    "\u2581Sports": 6875,
    "\u2581treasure": 6876,
    "\u2581Lev": 6877,
    "\u2581rap": 6878,
    "\u2581performances": 6879,
    "\u258127,": 6880,
    "ium": 6881,
    "\u2581shirt": 6882,
    "\u2581hill": 6883,
    "\u2581pile": 6884,
    "just": 6885,
    "\u2581swap": 6886,
    "\u2581rating": 6887,
    "\u2581Pr": 6888,
    "tter": 6889,
    "\u2581Liber": 6890,
    "\u2581Justin": 6891,
    "\u2581Sciences": 6892,
    "\u2581Amin": 6893,
    "\u2581bans": 6894,
    "\u2581Reports": 6895,
    "\u2581Rays": 6896,
    "\u2581warn": 6897,
    "\u2581satellites": 6898,
    "\u258125,": 6899,
    "\u25814,": 6900,
    "\u2581Raj": 6901,
    "Star": 6902,
    "China": 6903,
    "VI": 6904,
    "els": 6905,
    "64": 6906,
    "gotten": 6907,
    "\u2581Del": 6908,
    "\u2581dispatch": 6909,
    "\u2581defeated": 6910,
    "that": 6911,
    "tun": 6912,
    "\u2581arguments": 6913,
    "\u2581roots": 6914,
    "\u2581electronics": 6915,
    "\u2581mount": 6916,
    "Do": 6917,
    "\u2581unexpected": 6918,
    "\u2581please": 6919,
    "\u2581agricultur": 6920,
    "\u2581attacker": 6921,
    "\u2581Wu": 6922,
    "\u2581enhance": 6923,
    "\u2581chart": 6924,
    "\u2581hate": 6925,
    "ots": 6926,
    "\u2581Monet": 6927,
    "\u2581territori": 6928,
    "\u2581Travel": 6929,
    "\u2581adapt": 6930,
    "\u2581Bernard": 6931,
    "\u25819/11": 6932,
    "\u2581Betancourt": 6933,
    "\u2581Bloomberg": 6934,
    "\u2581Chaudhry": 6935,
    "\u2581Child": 6936,
    "\u2581Convention": 6937,
    "\u2581Future": 6938,
    "\u2581Galaxy": 6939,
    "\u2581Jankovic": 6940,
    "\u2581Lincoln": 6941,
    "\u2581Mogadishu": 6942,
    "\u2581Pavarotti": 6943,
    "\u2581Pichushkin": 6944,
    "\u2581Policy": 6945,
    "\u2581invitation": 6946,
    "\u2581lieutenant": 6947,
    "\u2581ninth": 6948,
    "\u2581oxygen": 6949,
    "\u2581restructuring": 6950,
    "\u2581studied": 6951,
    "\u2581blessing": 6952,
    "\u2581Construction": 6953,
    "\u2581Network": 6954,
    "\u2581collid": 6955,
    "\u2581foster": 6956,
    "\u2581pepper": 6957,
    "\u2581securities": 6958,
    "\u2581fortified": 6959,
    "\u2581unspe": 6960,
    "\u2581capability": 6961,
    "\u2581chapter": 6962,
    "\u2581Pusan": 6963,
    "\u2581Garden": 6964,
    "\u2581Armstrong": 6965,
    "\u2581citizenship": 6966,
    "\u2581bedroom": 6967,
    "\u2581plead": 6968,
    "\u2581astronomers": 6969,
    "\u2581flick": 6970,
    "\u2581stronghold": 6971,
    "\u2581Agriculture": 6972,
    "\u2581Medicine": 6973,
    "\u2581Johnston": 6974,
    "\u2581restart": 6975,
    "\u2581Lance": 6976,
    "\u2581Conservative": 6977,
    "\u2581Professor": 6978,
    "\u2581minority": 6979,
    "\u2581thus": 6980,
    "\u2581Fair": 6981,
    "\u2581tragic": 6982,
    "Charts": 6983,
    "\u2581tips": 6984,
    "\u2581Investment": 6985,
    "\u2581tired": 6986,
    "\u2581removal": 6987,
    "\u2581Mitt": 6988,
    "had": 6989,
    "\u2581golden": 6990,
    "\u2581sensor": 6991,
    "\u2581Austrian": 6992,
    "cker": 6993,
    "\u2581passes": 6994,
    "\u2581painful": 6995,
    "\u2581Ahmad": 6996,
    "\u2581demonstrated": 6997,
    "\u2581policemen": 6998,
    "\u2581cautioned": 6999,
    "\u2581Nixon": 7000,
    "\u2581orchestra": 7001,
    "\u2581rid": 7002,
    "\u2581forests": 7003,
    "\u2581languages": 7004,
    "ula": 7005,
    "\u2581rat": 7006,
    "\u2581par": 7007,
    "bon": 7008,
    "\u2581issu": 7009,
    "\u2581singing": 7010,
    "\u2581stated": 7011,
    "\u2581Serb": 7012,
    "\u2581elephant": 7013,
    "\u2581Globe": 7014,
    "\u2581colleague": 7015,
    "fer": 7016,
    "\u2581peer": 7017,
    "\u2581specialist": 7018,
    "ties": 7019,
    "\u2581Shia": 7020,
    "\u2581button": 7021,
    "\u2581nationals": 7022,
    "\u2581policeman": 7023,
    "\u2581semifinal": 7024,
    "lic": 7025,
    "\u2581shelters": 7026,
    "ransportation": 7027,
    "\u2581customs": 7028,
    "\u2581enable": 7029,
    "\u258128,": 7030,
    "going": 7031,
    "\u2581scenes": 7032,
    "\u2581violate": 7033,
    "\u2581$50": 7034,
    "lay": 7035,
    "\u2581complain": 7036,
    "power": 7037,
    "\u2581Ch": 7038,
    "\u2581counterparts": 7039,
    "borne": 7040,
    "\u2581united": 7041,
    "\u2581alarm": 7042,
    "\u2581assert": 7043,
    "\u2581developments": 7044,
    "\u2581scar": 7045,
    "\u2581Who": 7046,
    "pass": 7047,
    "world": 7048,
    "piece": 7049,
    "\u2581courts": 7050,
    "hold": 7051,
    "\u2581premiere": 7052,
    "11": 7053,
    "\u2581farms": 7054,
    "\u2581proposals": 7055,
    "\u2581marr": 7056,
    "\u2581Stalin": 7057,
    "\u2581discover": 7058,
    "press": 7059,
    "\u258193": 7060,
    "\u2581drill": 7061,
    "\u2581Seg": 7062,
    "\u2581manipulat": 7063,
    "oli": 7064,
    "\u2581hu": 7065,
    "\u2581slam": 7066,
    "zar": 7067,
    "kyu": 7068,
    "hether": 7069,
    "\u2581attackers": 7070,
    "\u2581trace": 7071,
    "\u2581slum": 7072,
    "\u2581honest": 7073,
    "\u2581evacuate": 7074,
    "\u2581defect": 7075,
    "\u2581Did": 7076,
    "\u2581Southeast": 7077,
    ",800": 7078,
    "\u2581unpopular": 7079,
    "\u2581harbor": 7080,
    "\u2581knife": 7081,
    "Tayyi": 7082,
    "\u2581Ankara": 7083,
    "\u2581Endeavour": 7084,
    "\u2581Fernando": 7085,
    "\u2581Jiabao": 7086,
    "\u2581Lennon": 7087,
    "\u2581McCartney": 7088,
    "\u2581Rawalpindi": 7089,
    "\u2581Russell": 7090,
    "\u2581Toronto": 7091,
    "\u2581UNICEF": 7092,
    "\u2581Ukrainian": 7093,
    "\u2581administrator": 7094,
    "\u2581anonymous": 7095,
    "\u2581declining": 7096,
    "\u2581keynote": 7097,
    "\u2581nightclub": 7098,
    "\u2581sketch": 7099,
    "\u2581umbrella": 7100,
    "\u2581legislators": 7101,
    "\u2581mystery": 7102,
    "\u2581notorious": 7103,
    "\u2581Hawass": 7104,
    "\u2581silent": 7105,
    "\u2581Tripoli": 7106,
    "\u2581lottery": 7107,
    "\u2581steer": 7108,
    "\u2581Bryan": 7109,
    "\u2581substitute": 7110,
    "\u2581Bosnia": 7111,
    "\u2581pension": 7112,
    "\u2581beloved": 7113,
    "\u2581steam": 7114,
    "\u25811949": 7115,
    "\u2581candle": 7116,
    "\u2581elementary": 7117,
    "\u2581NFL": 7118,
    "\u2581extent": 7119,
    "\u2581qualified": 7120,
    "\u2581Raul": 7121,
    "\u2581Lady": 7122,
    "\u2581carpet": 7123,
    "\u2581Road": 7124,
    "\u2581physician": 7125,
    "\u2581exhibition": 7126,
    "\u2581downturn": 7127,
    "\u2581stopping": 7128,
    "unk": 7129,
    "\u2581pornography": 7130,
    "\u2581counties": 7131,
    "\u2581retirement": 7132,
    "\u2581Roll": 7133,
    "\u2581Maine": 7134,
    "\u2581lifestyle": 7135,
    "\u2581Linda": 7136,
    "\u2581takeover": 7137,
    "\u2581sophisticated": 7138,
    "\u2581Mission": 7139,
    "\u2581Economy": 7140,
    "\u2581humanity": 7141,
    "\u258123-": 7142,
    "\u2581Ball": 7143,
    "\u2581arson": 7144,
    "anuel": 7145,
    "\u2581Death": 7146,
    "came": 7147,
    "\u2581artificial": 7148,
    "\u2581sounds": 7149,
    "\u2581overturned": 7150,
    "\u2581adoption": 7151,
    "aff": 7152,
    "\u2581slowly": 7153,
    "\u2581practical": 7154,
    "\u2581foe": 7155,
    "\u2581define": 7156,
    "\u2581crying": 7157,
    "\u2581encounter": 7158,
    "iff": 7159,
    "\u2581patroll": 7160,
    "mis": 7161,
    "\u2581Head": 7162,
    "some": 7163,
    "\u2581medics": 7164,
    "\u2581generated": 7165,
    "\u2581monitors": 7166,
    "\u2581Mong": 7167,
    "\u2581restricted": 7168,
    "\u25811.2": 7169,
    "\u2581Jay": 7170,
    "\u2581125": 7171,
    "acre": 7172,
    "\u2581musicians": 7173,
    "oy": 7174,
    "\u2581meals": 7175,
    "\u2581expense": 7176,
    "\u2581precaution": 7177,
    ",200": 7178,
    "\u2581Walter": 7179,
    "\u2581kid": 7180,
    "dong": 7181,
    "rg": 7182,
    "par": 7183,
    "\u2581(10": 7184,
    "\u2581factions": 7185,
    "\u2581gaining": 7186,
    "\u2581payment": 7187,
    "yard": 7188,
    "\u2581farmer": 7189,
    "\u2581regulators": 7190,
    "\u2581donor": 7191,
    "\u2581mines": 7192,
    "\u2581captives": 7193,
    "GA": 7194,
    "\u2581witnessed": 7195,
    "\u258187": 7196,
    "\u2581professors": 7197,
    "\u2581quarterfinal": 7198,
    "\u2581unhapp": 7199,
    "\u2581Pra": 7200,
    "\u2581organs": 7201,
    "ending": 7202,
    "Re": 7203,
    "fu": 7204,
    "\u2581RO": 7205,
    "yn": 7206,
    "win": 7207,
    "\u2581i": 7208,
    "\u2581Well": 7209,
    "half": 7210,
    "\u2581protested": 7211,
    "OM": 7212,
    "\u2581danc": 7213,
    "\u2581spots": 7214,
    "\u2581suspicions": 7215,
    "pan": 7216,
    "\u25811950": 7217,
    "\u2581Mrs": 7218,
    "screen": 7219,
    "From": 7220,
    "court": 7221,
    "educated": 7222,
    "\u2581Choi": 7223,
    "\u2581nud": 7224,
    "New": 7225,
    "running": 7226,
    "\u2581adjust": 7227,
    "\u2581breed": 7228,
    "\u2581melt": 7229,
    "\u2581coat": 7230,
    "\u2581deploy": 7231,
    "mark": 7232,
    "\u2581interfere": 7233,
    "oma": 7234,
    "ES": 7235,
    "\u2581shame": 7236,
    "\u2581Let": 7237,
    "\u2581monkeys": 7238,
    "aid": 7239,
    "ico": 7240,
    "viation": 7241,
    "\u2581191": 7242,
    "\u2581format": 7243,
    "even": 7244,
    "\u2581Puert": 7245,
    "\u2581Clooney": 7246,
    "\u2581Coalition": 7247,
    "\u2581Eagle": 7248,
    "\u2581Fashion": 7249,
    "\u2581Gibbons": 7250,
    "\u2581Irbil": 7251,
    "\u2581Lopez": 7252,
    "\u2581Nelson": 7253,
    "\u2581Okinawa": 7254,
    "\u2581Residents": 7255,
    "\u2581Rogge": 7256,
    "\u2581Viacom": 7257,
    "\u2581aggravat": 7258,
    "\u2581devastated": 7259,
    "\u2581entitled": 7260,
    "\u2581fossil": 7261,
    "\u2581grandfather": 7262,
    "\u2581optimism": 7263,
    "\u2581reluctant": 7264,
    "\u2581revenge": 7265,
    "\u2581surplus": 7266,
    "\u2581Keith": 7267,
    "\u2581Mercedes": 7268,
    "\u2581Sierra": 7269,
    "\u2581crater": 7270,
    "\u2581oath": 7271,
    "\u2581ceiling": 7272,
    "\u2581quell": 7273,
    "\u2581layoffs": 7274,
    "\u2581transparent": 7275,
    "\u2581Muqtada": 7276,
    "\u2581ankle": 7277,
    "\u2581biological": 7278,
    "\u2581battered": 7279,
    "\u25811981": 7280,
    "\u2581bread": 7281,
    "\u2581Brand": 7282,
    "\u2581Sachs": 7283,
    "\u2581Protesters": 7284,
    "\u2581harmful": 7285,
    "\u2581sprint": 7286,
    "\u2581typhoon": 7287,
    "\u25817-5": 7288,
    "\u2581somewhere": 7289,
    "\u2581editorial": 7290,
    "\u2581Orange": 7291,
    "\u2581creative": 7292,
    "\u2581heighten": 7293,
    "\u2581burns": 7294,
    "\u2581representation": 7295,
    "\u2581assassinated": 7296,
    "Americans": 7297,
    "\u2581Stewart": 7298,
    "\u2581soft": 7299,
    "\u2581somebody": 7300,
    "\u2581stuck": 7301,
    "\u2581Nigerian": 7302,
    "\u2581aggression": 7303,
    "\u2581judicial": 7304,
    "\u2581brush": 7305,
    "\u2581shattered": 7306,
    "aritime": 7307,
    "\u258131-": 7308,
    "\u2581Tran": 7309,
    "ians": 7310,
    "\u25811.7": 7311,
    "\u2581heritage": 7312,
    "\u2581script": 7313,
    "\u2581Cre": 7314,
    "\u2581Ye": 7315,
    "bed": 7316,
    "\u2581filming": 7317,
    "\u2581deeper": 7318,
    "\u2581bl": 7319,
    "nan": 7320,
    "\u2581antibiotics": 7321,
    "eb": 7322,
    "DA": 7323,
    "covered": 7324,
    "\u258172": 7325,
    "\u2581disrupted": 7326,
    "\")": 7327,
    "\u2581Dar": 7328,
    "\u2581electrical": 7329,
    "ix": 7330,
    "\u2581CO": 7331,
    "\u2581Bin": 7332,
    "\u2581installed": 7333,
    "\u2581hearings": 7334,
    "\u2581worsen": 7335,
    "ski": 7336,
    "\u2581ta": 7337,
    "\u25813.5": 7338,
    "apped": 7339,
    "nce": 7340,
    "\u2581su": 7341,
    "\u2581experiments": 7342,
    "\u2581Kath": 7343,
    "\u2581Shah": 7344,
    "\u25815,": 7345,
    "nder": 7346,
    "\u2581blanket": 7347,
    "\u2581statue": 7348,
    "\u2581pipeline": 7349,
    "\u2581Market": 7350,
    "\u2581manufacturer": 7351,
    "\u2581bell": 7352,
    "\u2581pill": 7353,
    "\u2581glaciers": 7354,
    "\u2581yards": 7355,
    "\u2581lone": 7356,
    "acute": 7357,
    "\u2581alien": 7358,
    "\u2581affair": 7359,
    "\u2581horse": 7360,
    "\u2581Ber": 7361,
    "lip": 7362,
    "\u2581patterns": 7363,
    "\u2581elders": 7364,
    "\u2581Bl": 7365,
    "\u2581planets": 7366,
    "\u2581advisers": 7367,
    "\u2581Mel": 7368,
    "\u2581Amid": 7369,
    "\u2581Ray": 7370,
    "rated": 7371,
    "65": 7372,
    "\u2581laugh": 7373,
    "ctor": 7374,
    "\u2581uniforms": 7375,
    "\u2581Kwa": 7376,
    "\u2581roles": 7377,
    "\u2581bow": 7378,
    "etic": 7379,
    "dollar": 7380,
    "bank": 7381,
    "However": 7382,
    "FTA": 7383,
    "\u2581inspections": 7384,
    "oun": 7385,
    "olen": 7386,
    "\u2581Shiites": 7387,
    "\u258186": 7388,
    "\u2581championships": 7389,
    "\u2581survival": 7390,
    "ttled": 7391,
    "\u2581stamp": 7392,
    "\u2581Take": 7393,
    "\u2581finds": 7394,
    "\u2581Ham": 7395,
    "\u2581tent": 7396,
    "mates": 7397,
    "ada": 7398,
    "\u2581retreat": 7399,
    "art": 7400,
    "\u258127.": 7401,
    "about": 7402,
    "\u25811998.": 7403,
    "\u2581interesting": 7404,
    "\u2581ab": 7405,
    "\u2581heated": 7406,
    "100": 7407,
    "\u2581runner": 7408,
    "\u2581consist": 7409,
    "\u2581swift": 7410,
    "\u2581sat": 7411,
    "\u2581enforce": 7412,
    "\u2581careful": 7413,
    "\u2581update": 7414,
    "with": 7415,
    "ments": 7416,
    "\u2581Special": 7417,
    "\u2581kidnap": 7418,
    "\u2581Britney": 7419,
    "\u2581Details": 7420,
    "\u2581Holocaust": 7421,
    "\u2581Karbala": 7422,
    "\u2581Kurdistan": 7423,
    "\u2581Orlando": 7424,
    "\u2581Saakashvili": 7425,
    "\u2581Samarra": 7426,
    "\u2581Shipman": 7427,
    "\u2581Thirty": 7428,
    "\u2581Yousuf": 7429,
    "\u2581acquitted": 7430,
    "\u2581albatross": 7431,
    "\u2581blockbuster": 7432,
    "\u2581collision": 7433,
    "\u2581concentration": 7434,
    "\u2581intensified": 7435,
    "\u2581judgment": 7436,
    "\u2581marathon": 7437,
    "\u2581pistol": 7438,
    "\u2581portrait": 7439,
    "\u2581psychologist": 7440,
    "\u2581throat": 7441,
    "\u2581throne": 7442,
    "\u2581IMF": 7443,
    "\u2581implant": 7444,
    "\u2581internet": 7445,
    "\u2581Thanksgiving": 7446,
    "\u2581excuse": 7447,
    "\u2581Douglas": 7448,
    "\u2581Hassan": 7449,
    "\u2581justify": 7450,
    "\u2581historian": 7451,
    "\u2581mild": 7452,
    "\u2581GPS": 7453,
    "\u2581transmission": 7454,
    "\u2581spokesperson": 7455,
    "\u2581Express": 7456,
    "\u2581Bennett": 7457,
    "\u2581framework": 7458,
    "\u2581uprising": 7459,
    "\u2581Honda": 7460,
    "\u2581joy": 7461,
    "\u2581rehabilitation": 7462,
    "\u2581fatalities": 7463,
    "\u2581determination": 7464,
    "\u2581isolation": 7465,
    "lihood": 7466,
    "\u2581Lynch": 7467,
    "\u2581tenure": 7468,
    "\u2581uncertain": 7469,
    "\u2581convene": 7470,
    "\u2581utility": 7471,
    "\u2581$300": 7472,
    "\u2581gunfire": 7473,
    "\u2581Tourism": 7474,
    "\u2581filing": 7475,
    "cified": 7476,
    "\u2581Duke": 7477,
    "\u2581consumed": 7478,
    "\u2581Rick": 7479,
    "\u2581Industry": 7480,
    "\u2581brilliant": 7481,
    "\u2581diagnosed": 7482,
    "\u2581pure": 7483,
    "\u2581purported": 7484,
    "\u2581tentative": 7485,
    "\u2581Antarctica": 7486,
    "isease": 7487,
    "\u2581centre": 7488,
    "\u258125,000": 7489,
    "\u2581patience": 7490,
    "\u2581Next": 7491,
    "\u2581Wang": 7492,
    "\u2581bump": 7493,
    "\u2581formation": 7494,
    "\u2581cheaper": 7495,
    "\u2581restraint": 7496,
    "olo": 7497,
    "\u2581clay": 7498,
    "\u25812,500": 7499,
    "\u2581shouting": 7500,
    "nch": 7501,
    "\u2581cub": 7502,
    "read": 7503,
    "yphoon": 7504,
    "\u2581Fla": 7505,
    "ore": 7506,
    "lateral": 7507,
    "\u2581cheering": 7508,
    "\u2581fairly": 7509,
    "\u2581Hawking": 7510,
    "\u2581revenues": 7511,
    "\u2581caps": 7512,
    "\u2581Roy": 7513,
    "\u2581actively": 7514,
    "\u2581employed": 7515,
    "\u2581del": 7516,
    "\u2581Report": 7517,
    "\u2581appealing": 7518,
    "\u2581Gary": 7519,
    "\u2581implications": 7520,
    "\u2581fr": 7521,
    "06": 7522,
    "\u2581contractors": 7523,
    "\u2581Girls": 7524,
    "\u2581rolled": 7525,
    "\u2581rotat": 7526,
    "\u2581deliberate": 7527,
    "\u2581covers": 7528,
    "\u2581venues": 7529,
    "\u2581jointly": 7530,
    "\u2581annually": 7531,
    "\u2581holidays": 7532,
    "75": 7533,
    "\u2581mammals": 7534,
    "\u2581Cape": 7535,
    "\u2581symbolic": 7536,
    "oom": 7537,
    "\u2581$200": 7538,
    "\u2581amendment": 7539,
    "\u2581destination": 7540,
    "\u2581allegation": 7541,
    "\u2581angered": 7542,
    "rim": 7543,
    "\u2581500)": 7544,
    "\u2581spur": 7545,
    "\u2581shipments": 7546,
    "cantil": 7547,
    "\u2581Doo": 7548,
    "\u2581Indians": 7549,
    "\u2581dig": 7550,
    "\u2581180": 7551,
    "300": 7552,
    "\u2581Dell": 7553,
    "\u2581plain": 7554,
    "\u2581dealt": 7555,
    "bre": 7556,
    "\u2581Jam": 7557,
    "hara": 7558,
    "\u2581routes": 7559,
    "\u2581shutt": 7560,
    "\u2581climbing": 7561,
    "\u2581asset": 7562,
    "\u258184": 7563,
    "\u258117,": 7564,
    "\u2581tag": 7565,
    "1-1": 7566,
    "39": 7567,
    "\u2581Jane": 7568,
    "\u2581fed": 7569,
    "\u2581trails": 7570,
    "\u2581compar": 7571,
    "\u2581surviv": 7572,
    "BI": 7573,
    "open": 7574,
    "fo": 7575,
    "fri": 7576,
    "mission": 7577,
    "Syrian": 7578,
    "degree": 7579,
    "speaking": 7580,
    "three": 7581,
    "\u2581Romania": 7582,
    "200": 7583,
    "\u258119,": 7584,
    "ME": 7585,
    "Yes": 7586,
    "cut": 7587,
    "\u2581secur": 7588,
    "\u2581Engineer": 7589,
    "host": 7590,
    "\u258121-": 7591,
    "\u2581boast": 7592,
    "\u2581appoint": 7593,
    "\u2581Sand": 7594,
    "tries": 7595,
    "wal": 7596,
    "\u2581Anna": 7597,
    "\u2581rig": 7598,
    "\u2581FA": 7599,
    "\u2581loose": 7600,
    "\u2581sharks": 7601,
    "\u2581ultimate": 7602,
    "dding": 7603,
    "\u2581shake": 7604,
    "\u2581magic": 7605,
    "\u2581pan": 7606,
    "\u2581bi": 7607,
    "\u2581possess": 7608,
    "\u2581Recent": 7609,
    "erhaps": 7610,
    "understood": 7611,
    "augural": 7612,
    "\u2581($4": 7613,
    "\u2581Abraham": 7614,
    "\u2581Baquba": 7615,
    "\u2581Business": 7616,
    "\u2581Glasgow": 7617,
    "\u2581Gusmao": 7618,
    "\u2581McDonald": 7619,
    "\u2581Nebraska": 7620,
    "\u2581Silva": 7621,
    "\u2581Solomon": 7622,
    "\u2581Waziristan": 7623,
    "\u2581ammunition": 7624,
    "\u2581artillery": 7625,
    "\u2581captivity": 7626,
    "\u2581certificate": 7627,
    "\u2581consortium": 7628,
    "\u2581earliest": 7629,
    "\u2581fishermen": 7630,
    "\u2581laureate": 7631,
    "\u2581nervous": 7632,
    "\u2581peacekeepers": 7633,
    "\u2581recognition": 7634,
    "\u2581streak": 7635,
    "\u2581victories": 7636,
    "\u2581impression": 7637,
    "\u2581intensive": 7638,
    "\u2581milk": 7639,
    "\u2581powder": 7640,
    "\u2581reaffirm": 7641,
    "\u2581Manila": 7642,
    "\u2581ferry": 7643,
    "\u2581decree": 7644,
    "\u2581sank": 7645,
    "\u2581Irish": 7646,
    "\u2581introduction": 7647,
    "\u2581damaging": 7648,
    "\u2581memories": 7649,
    "\u2581Stanley": 7650,
    "\u2581Train": 7651,
    "\u2581foment": 7652,
    "\u2581predominant": 7653,
    "\u2581defectors": 7654,
    "\u2581Chosun": 7655,
    "\u2581Theater": 7656,
    "\u2581piracy": 7657,
    "\u2581tennis": 7658,
    "\u25811973": 7659,
    "\u2581Portland": 7660,
    "\u2581modest": 7661,
    "\u2581Ivan": 7662,
    "\u25817-6": 7663,
    "\u2581Jeong": 7664,
    "\u2581Harrison": 7665,
    "\u2581friendship": 7666,
    "\u2581Night": 7667,
    "\u2581unconscious": 7668,
    "\u2581Greenland": 7669,
    "\u2581rattl": 7670,
    "\u2581youths": 7671,
    "\u2581pants": 7672,
    "\u2581pursuit": 7673,
    "\u2581Fisher": 7674,
    "\u2581attractive": 7675,
    "\u2581territories": 7676,
    "\u2581Yale": 7677,
    "\u2581dug": 7678,
    "\u2581thriller": 7679,
    "\u2581buzz": 7680,
    "\u2581prescription": 7681,
    "\u2581System": 7682,
    "\u25813-1": 7683,
    "\u2581nobody": 7684,
    "\u2581mechanical": 7685,
    "\u2581MDC": 7686,
    "\u2581passion": 7687,
    "\u2581Wie": 7688,
    "\u2581beaches": 7689,
    "\u2581chanted": 7690,
    "koo": 7691,
    "\u2581hardest": 7692,
    "38": 7693,
    "\u2581Rita": 7694,
    "\u2581overwhelmingly": 7695,
    "\u2581Anti": 7696,
    "\u2581ratio": 7697,
    "\u2581faithful": 7698,
    "\u2581waged": 7699,
    "\u2581Key": 7700,
    "key": 7701,
    "handed": 7702,
    "\u2581outlaw": 7703,
    "\u2581bench": 7704,
    "\u2581Jona": 7705,
    "\u2581lean": 7706,
    "\u2581lifetime": 7707,
    "\u2581relaxed": 7708,
    "\u258145-": 7709,
    "bel": 7710,
    "\u2581guided": 7711,
    "\u2581nam": 7712,
    "\u2581170": 7713,
    "grid": 7714,
    "\u2581gorillas": 7715,
    "\u2581seeming": 7716,
    "\u2581partial": 7717,
    "\u2581liter": 7718,
    "\u2581flare": 7719,
    "start": 7720,
    "4,000": 7721,
    "\u2581spat": 7722,
    "\u2581hood": 7723,
    "ori": 7724,
    "\u2581complaining": 7725,
    "\u2581slumped": 7726,
    "mes": 7727,
    "\u2581stemm": 7728,
    "\u2581tools": 7729,
    "ech": 7730,
    "\u2581murdered": 7731,
    "\u2581prostitutes": 7732,
    "\u2581h": 7733,
    "af": 7734,
    "\u2581tactics": 7735,
    "\u2581critic": 7736,
    "96": 7737,
    "\u2581MI": 7738,
    "\u2581files": 7739,
    "lit": 7740,
    "\u2581bother": 7741,
    "\u2581dated": 7742,
    "\u2581aspects": 7743,
    "\u2581Syrian": 7744,
    "\u2581organ": 7745,
    "USA": 7746,
    "tte": 7747,
    "\u2581conclude": 7748,
    "\u2581folks": 7749,
    "\u2581tribes": 7750,
    "6,000": 7751,
    "\u2581biologist": 7752,
    "\u2581Spaniard": 7753,
    "\u2581fence": 7754,
    "\u2581objective": 7755,
    "\u2581bull": 7756,
    "\u2581cigarette": 7757,
    "\u2581celebration": 7758,
    "\u2581Andre": 7759,
    "\u2581preparation": 7760,
    "\u2581Qu": 7761,
    "\u2581AK": 7762,
    "\u2581Cas": 7763,
    "\u2581poster": 7764,
    "try": 7765,
    "\u2581pandas": 7766,
    "\u2581coordinat": 7767,
    "\u2581belongs": 7768,
    "\u2581container": 7769,
    "\u2581reserves": 7770,
    "\u2581buyer": 7771,
    "\u2581din": 7772,
    "\u2581lighting": 7773,
    "hwan": 7774,
    "\u2581doubts": 7775,
    "\u2581Days": 7776,
    "\u25811.1": 7777,
    "\u2581celebrations": 7778,
    "-19": 7779,
    "\u2581answered": 7780,
    "\u2581horses": 7781,
    "\u2581emerge": 7782,
    "87": 7783,
    "\u2581Fi": 7784,
    "\u2581Globes": 7785,
    "\u2581donors": 7786,
    "\u2581directors": 7787,
    "\u2581secrets": 7788,
    "propell": 7789,
    "\u2581polled": 7790,
    "ological": 7791,
    "\u2581pointing": 7792,
    "Islam": 7793,
    "wheel": 7794,
    "million": 7795,
    "worth": 7796,
    "phone": 7797,
    "\u2581impos": 7798,
    "AS": 7799,
    "\u2581Pal": 7800,
    "around": 7801,
    "\u2581Brig": 7802,
    "\u2581origin": 7803,
    "\u2581highlights": 7804,
    "\u2581prop": 7805,
    "\u2581sleeping": 7806,
    "\u2581reopen": 7807,
    "-16": 7808,
    "nom": 7809,
    "\u2581dreams": 7810,
    "89": 7811,
    "yang": 7812,
    "Equ": 7813,
    "\u2581Environment": 7814,
    "\u2581wage": 7815,
    "\u2581monarch": 7816,
    "\u2581Kitt": 7817,
    "\u2581smooth": 7818,
    "put": 7819,
    "\u2581Michel": 7820,
    "\u2581corps": 7821,
    "\u2581lungs": 7822,
    "\u2581rankings": 7823,
    "\u2581lure": 7824,
    "burg": 7825,
    "\u2581audit": 7826,
    "\u2581emba": 7827,
    "\u2581pipe": 7828,
    "\u2581swim": 7829,
    "\u2581Arkansas": 7830,
    "\u2581CITY": 7831,
    "\u2581Computer": 7832,
    "\u2581Conservation": 7833,
    "\u2581ElBaradei": 7834,
    "\u2581Enterprise": 7835,
    "\u2581Fernandez": 7836,
    "\u2581Fitzgerald": 7837,
    "\u2581Guatemala": 7838,
    "\u2581Interfax": 7839,
    "\u2581Janeiro": 7840,
    "\u2581Kerviel": 7841,
    "\u2581Libby": 7842,
    "\u2581Spitzer": 7843,
    "\u2581Taipei": 7844,
    "\u2581Talabani": 7845,
    "\u2581accurate": 7846,
    "\u2581broadband": 7847,
    "\u2581condolences": 7848,
    "\u2581decisive": 7849,
    "\u2581drought": 7850,
    "\u2581homicide": 7851,
    "\u2581mechanism": 7852,
    "\u2581relevant": 7853,
    "\u2581staunch": 7854,
    "\u2581undisclosed": 7855,
    "\u2581Petersburg": 7856,
    "\u2581Stearns": 7857,
    "\u2581dignity": 7858,
    "\u2581humor": 7859,
    "\u2581pocket": 7860,
    "\u2581saddened": 7861,
    "\u2581shoppers": 7862,
    "\u2581Arnold": 7863,
    "\u2581Ashley": 7864,
    "\u2581Kazakhstan": 7865,
    "\u2581Gerrard": 7866,
    "\u2581racing": 7867,
    "\u2581reign": 7868,
    "\u2581domain": 7869,
    "\u2581chocolate": 7870,
    "\u2581trash": 7871,
    "\u2581Fifty": 7872,
    "\u2581hurl": 7873,
    "\u2581embezzlement": 7874,
    "\u2581stunned": 7875,
    "\u2581keen": 7876,
    "\u2581verification": 7877,
    "yacht": 7878,
    "\u2581indictment": 7879,
    "\u2581Gyeonggi": 7880,
    "\u2581smell": 7881,
    "\u2581Fujimori": 7882,
    "\u2581ashore": 7883,
    "\u2581milestone": 7884,
    "\u2581glow": 7885,
    "\u2581Venus": 7886,
    "\u2581Nature": 7887,
    "\u2581Twelve": 7888,
    "\u2581bride": 7889,
    "\u25811975": 7890,
    "\u2581Globo": 7891,
    "uperior": 7892,
    "\u2581Book": 7893,
    "\u2581grim": 7894,
    "\u2581raw": 7895,
    "\u2581Centre": 7896,
    "\u2581Glor": 7897,
    "\u2581Leonardo": 7898,
    "\u2581plotting": 7899,
    "\u2581implementation": 7900,
    "\u2581affiliates": 7901,
    "\u2581Mediterranean": 7902,
    "\u2581secretive": 7903,
    "\u2581Eli": 7904,
    "\u2581Goldman": 7905,
    "\u2581unanimously": 7906,
    "\u2581Bulgarian": 7907,
    "\u2581outpost": 7908,
    "\u2581KCNA": 7909,
    "\u2581UFO": 7910,
    "\u2581frontier": 7911,
    "\u2581imprisoned": 7912,
    "\u2581mastermind": 7913,
    "\u2581Currently": 7914,
    "cation": 7915,
    "\u2581Lawmaker": 7916,
    "\u2581Barry": 7917,
    "\u2581pois": 7918,
    "\u2581Liu": 7919,
    "\u25814.5": 7920,
    "\u2581happiness": 7921,
    "\u2581Jiang": 7922,
    "1/2": 7923,
    "\u2581scatter": 7924,
    "\u2581Order": 7925,
    "\u2581Hang": 7926,
    "\u2581safer": 7927,
    "\u2581ministerial": 7928,
    "\u2581procession": 7929,
    "23": 7930,
    "\u2581applicants": 7931,
    "\u2581reasonable": 7932,
    "\u2581examine": 7933,
    "\u2581Midwest": 7934,
    "\u2581drowned": 7935,
    "92": 7936,
    "\u2581sisters": 7937,
    "\u2581Sin": 7938,
    "now": 7939,
    "\u2581scare": 7940,
    "tall": 7941,
    "\u2581doping": 7942,
    "\u2581disabled": 7943,
    "\u2581buck": 7944,
    "GO": 7945,
    "\u2581penguins": 7946,
    "\u2581shelves": 7947,
    "eat": 7948,
    "\u25816-": 7949,
    "\u2581facts": 7950,
    "Bar": 7951,
    "\u2581OK": 7952,
    "\u2581chips": 7953,
    "preferred": 7954,
    "ress": 7955,
    "\u2581pastor": 7956,
    "ique": 7957,
    "who": 7958,
    "\u2581Records": 7959,
    "\u2581employers": 7960,
    "\u2581internationally": 7961,
    "\u2581difficulty": 7962,
    "\u2581indoor": 7963,
    "\u2581Mwa": 7964,
    "\u2581bio": 7965,
    "\u2581suits": 7966,
    "seeded": 7967,
    "\u2581Arabs": 7968,
    "\u2581AT": 7969,
    "\u2581weakened": 7970,
    "\u2581popp": 7971,
    "\u2581measured": 7972,
    "\u2581headlines": 7973,
    "\u2581veterans": 7974,
    "\u2581Dominica": 7975,
    "\u2581dissidents": 7976,
    "\u2581grenades": 7977,
    "\u2581studios": 7978,
    "\u2581negotiated": 7979,
    "\u2581te": 7980,
    "\u2581elder": 7981,
    "\u2581nod": 7982,
    "\u2581load": 7983,
    "\u2581brick": 7984,
    "\u2581sheets": 7985,
    "\u2581odd": 7986,
    "\u2581barrier": 7987,
    "\u2581survivor": 7988,
    "\u2581finals": 7989,
    "\u2581outlets": 7990,
    "\u2581lots": 7991,
    "\u2581finger": 7992,
    "\u2581riches": 7993,
    "\u2581afterward": 7994,
    "\u2581cartoons": 7995,
    "\u2581await": 7996,
    "\u2581Adams": 7997,
    "\u2581cop": 7998,
    "ado": 7999,
    "igan": 8000,
    "ement": 8001,
    "iang": 8002,
    "\u2581quarterfinals": 8003,
    "\u2581wheel": 8004,
    "far": 8005,
    "ew": 8006,
    "\u2581semifinals": 8007,
    "\u2581painting": 8008,
    "\u258183": 8009,
    "\u2581laptops": 8010,
    "\u2581creatures": 8011,
    "\u2581reli": 8012,
    "AM": 8013,
    "\u2581tube": 8014,
    "\u2581examin": 8015,
    "\u2581li": 8016,
    "\u2581sometime": 8017,
    "\u2581tours": 8018,
    "\u2581(6": 8019,
    "\u2581Gett": 8020,
    "quality": 8021,
    "Bush": 8022,
    "\u2581Com": 8023,
    "wife": 8024,
    "\u2581replac": 8025,
    "plus": 8026,
    "\u2581Ger": 8027,
    "OR": 8028,
    "3,000": 8029,
    "\u2581employ": 8030,
    "\u2581circle": 8031,
    "\u2581dismiss": 8032,
    "shan": 8033,
    "\u2581abolish": 8034,
    "\u2581Monte": 8035,
    "ova": 8036,
    "\u2581choos": 8037,
    "\u2581Lead": 8038,
    "cla": 8039,
[...]
